unsigned char anomaly_detection_model_tflite[] = {
  0x1c, 0x00, 0x00, 0x00, 0x54, 0x46, 0x4c, 0x33, 0x14, 0x00, 0x20, 0x00,
  0x1c, 0x00, 0x18, 0x00, 0x14, 0x00, 0x10, 0x00, 0x0c, 0x00, 0x00, 0x00,
  0x08, 0x00, 0x04, 0x00, 0x14, 0x00, 0x00, 0x00, 0x1c, 0x00, 0x00, 0x00,
  0x98, 0x00, 0x00, 0x00, 0xf0, 0x00, 0x00, 0x00, 0x80, 0x15, 0x00, 0x00,
  0x90, 0x15, 0x00, 0x00, 0xd8, 0x1b, 0x00, 0x00, 0x03, 0x00, 0x00, 0x00,
  0x01, 0x00, 0x00, 0x00, 0x10, 0x00, 0x00, 0x00, 0x00, 0x00, 0x0a, 0x00,
  0x10, 0x00, 0x0c, 0x00, 0x08, 0x00, 0x04, 0x00, 0x0a, 0x00, 0x00, 0x00,
  0x0c, 0x00, 0x00, 0x00, 0x1c, 0x00, 0x00, 0x00, 0x3c, 0x00, 0x00, 0x00,
  0x0f, 0x00, 0x00, 0x00, 0x73, 0x65, 0x72, 0x76, 0x69, 0x6e, 0x67, 0x5f,
  0x64, 0x65, 0x66, 0x61, 0x75, 0x6c, 0x74, 0x00, 0x01, 0x00, 0x00, 0x00,
  0x04, 0x00, 0x00, 0x00, 0x90, 0xff, 0xff, 0xff, 0x0c, 0x00, 0x00, 0x00,
  0x04, 0x00, 0x00, 0x00, 0x08, 0x00, 0x00, 0x00, 0x6f, 0x75, 0x74, 0x70,
  0x75, 0x74, 0x5f, 0x30, 0x00, 0x00, 0x00, 0x00, 0x01, 0x00, 0x00, 0x00,
  0x04, 0x00, 0x00, 0x00, 0x0e, 0xec, 0xff, 0xff, 0x04, 0x00, 0x00, 0x00,
  0x0e, 0x00, 0x00, 0x00, 0x69, 0x6e, 0x70, 0x75, 0x74, 0x5f, 0x6c, 0x61,
  0x79, 0x65, 0x72, 0x5f, 0x32, 0x38, 0x00, 0x00, 0x02, 0x00, 0x00, 0x00,
  0x34, 0x00, 0x00, 0x00, 0x04, 0x00, 0x00, 0x00, 0xdc, 0xff, 0xff, 0xff,
  0x0f, 0x00, 0x00, 0x00, 0x04, 0x00, 0x00, 0x00, 0x13, 0x00, 0x00, 0x00,
  0x43, 0x4f, 0x4e, 0x56, 0x45, 0x52, 0x53, 0x49, 0x4f, 0x4e, 0x5f, 0x4d,
  0x45, 0x54, 0x41, 0x44, 0x41, 0x54, 0x41, 0x00, 0x08, 0x00, 0x0c, 0x00,
  0x08, 0x00, 0x04, 0x00, 0x08, 0x00, 0x00, 0x00, 0x0e, 0x00, 0x00, 0x00,
  0x04, 0x00, 0x00, 0x00, 0x13, 0x00, 0x00, 0x00, 0x6d, 0x69, 0x6e, 0x5f,
  0x72, 0x75, 0x6e, 0x74, 0x69, 0x6d, 0x65, 0x5f, 0x76, 0x65, 0x72, 0x73,
  0x69, 0x6f, 0x6e, 0x00, 0x10, 0x00, 0x00, 0x00, 0x8c, 0x14, 0x00, 0x00,
  0x84, 0x14, 0x00, 0x00, 0x74, 0x13, 0x00, 0x00, 0x5c, 0x0b, 0x00, 0x00,
  0x4c, 0x03, 0x00, 0x00, 0x34, 0x03, 0x00, 0x00, 0xa4, 0x02, 0x00, 0x00,
  0x54, 0x02, 0x00, 0x00, 0xc4, 0x01, 0x00, 0x00, 0xb4, 0x00, 0x00, 0x00,
  0xac, 0x00, 0x00, 0x00, 0xa4, 0x00, 0x00, 0x00, 0x9c, 0x00, 0x00, 0x00,
  0x94, 0x00, 0x00, 0x00, 0x74, 0x00, 0x00, 0x00, 0x04, 0x00, 0x00, 0x00,
  0xca, 0xec, 0xff, 0xff, 0x04, 0x00, 0x00, 0x00, 0x60, 0x00, 0x00, 0x00,
  0x0c, 0x00, 0x00, 0x00, 0x08, 0x00, 0x0e, 0x00, 0x08, 0x00, 0x04, 0x00,
  0x08, 0x00, 0x00, 0x00, 0x10, 0x00, 0x00, 0x00, 0x28, 0x00, 0x00, 0x00,
  0x00, 0x00, 0x06, 0x00, 0x08, 0x00, 0x04, 0x00, 0x06, 0x00, 0x00, 0x00,
  0x04, 0x00, 0x00, 0x00, 0x01, 0x00, 0x00, 0x00, 0xea, 0x03, 0x00, 0x00,
  0x0c, 0x00, 0x18, 0x00, 0x14, 0x00, 0x10, 0x00, 0x0c, 0x00, 0x04, 0x00,
  0x0c, 0x00, 0x00, 0x00, 0x81, 0xeb, 0x81, 0x83, 0x8e, 0x1f, 0x40, 0x5a,
  0x02, 0x00, 0x00, 0x00, 0x02, 0x00, 0x00, 0x00, 0x04, 0x00, 0x00, 0x00,
  0x06, 0x00, 0x00, 0x00, 0x32, 0x2e, 0x31, 0x37, 0x2e, 0x30, 0x00, 0x00,
  0x36, 0xed, 0xff, 0xff, 0x04, 0x00, 0x00, 0x00, 0x10, 0x00, 0x00, 0x00,
  0x31, 0x2e, 0x35, 0x2e, 0x30, 0x00, 0x00, 0x00, 0x00, 0x00, 0x00, 0x00,
  0x00, 0x00, 0x00, 0x00, 0x14, 0xe6, 0xff, 0xff, 0x18, 0xe6, 0xff, 0xff,
  0x1c, 0xe6, 0xff, 0xff, 0x20, 0xe6, 0xff, 0xff, 0x62, 0xed, 0xff, 0xff,
  0x04, 0x00, 0x00, 0x00, 0x00, 0x01, 0x00, 0x00, 0xa2, 0xc3, 0x8a, 0xbe,
  0x2a, 0xdd, 0xa8, 0x3d, 0x7c, 0x2c, 0x24, 0x3e, 0xe2, 0xdb, 0xe2, 0x3e,
  0xa6, 0x83, 0x20, 0x3e, 0x8a, 0xb8, 0x99, 0x3e, 0x85, 0x9f, 0x28, 0x3e,
  0x9a, 0xae, 0x0c, 0xbe, 0x9f, 0xdf, 0xe1, 0x3d, 0xa4, 0xc5, 0xbd, 0x3c,
  0xcf, 0x25, 0x28, 0xba, 0x6d, 0xcf, 0xa0, 0x3e, 0xad, 0x5e, 0x0f, 0x3e,
  0x96, 0xaa, 0x6b, 0x3e, 0x2e, 0x5c, 0x0c, 0xbe, 0xd2, 0x5e, 0x9c, 0xbd,
  0xe0, 0x2b, 0x04, 0xbc, 0xcb, 0xac, 0x8d, 0x3e, 0x4b, 0x43, 0xec, 0xbd,
  0x3c, 0x54, 0xaa, 0x3e, 0x76, 0x1a, 0x1a, 0xbe, 0xba, 0x8d, 0x90, 0xbe,
  0x73, 0xb2, 0x9a, 0xbe, 0xc1, 0x32, 0xc5, 0x3d, 0x10, 0xde, 0x1f, 0xbd,
  0xaa, 0x0f, 0x9f, 0xbe, 0x47, 0x3f, 0xbd, 0x3e, 0xc6, 0xd9, 0x2f, 0x3e,
  0x27, 0xec, 0x10, 0x3e, 0xb9, 0x90, 0x6b, 0xbe, 0x8b, 0x49, 0xbb, 0x3e,
  0xcf, 0x10, 0x4a, 0x3e, 0xff, 0xfd, 0x28, 0x3e, 0x66, 0xcf, 0x03, 0x3e,
  0x74, 0x9a, 0xad, 0x3d, 0x12, 0xbc, 0x5f, 0xbd, 0x3a, 0xc9, 0xf7, 0xbe,
  0xc1, 0xec, 0x22, 0x3d, 0xc6, 0x4c, 0x9f, 0xbe, 0x3c, 0xf5, 0x05, 0x3e,
  0x43, 0x58, 0x9e, 0x3e, 0xc8, 0x70, 0xc0, 0x3e, 0x29, 0xd7, 0xad, 0x3e,
  0x5f, 0x46, 0x22, 0xbe, 0x86, 0xd1, 0x65, 0x3e, 0x26, 0x5d, 0x4f, 0x3e,
  0x60, 0xdc, 0x31, 0xbe, 0x93, 0x2f, 0x3c, 0x3e, 0x13, 0xc9, 0xb3, 0xbc,
  0x41, 0x8c, 0xd0, 0x3d, 0x80, 0x40, 0x60, 0xbe, 0xcf, 0xe3, 0xa7, 0xbe,
  0xaa, 0xed, 0xe0, 0x3e, 0xb7, 0x0a, 0xa7, 0x3c, 0x02, 0x60, 0xbe, 0xbe,
  0x4f, 0x31, 0x22, 0x3d, 0x82, 0xfa, 0x14, 0xbe, 0x28, 0x4c, 0x83, 0x3e,
  0x2b, 0x1d, 0x3f, 0xbe, 0xc8, 0x6a, 0x3b, 0x3d, 0x7f, 0x00, 0xa9, 0x3e,
  0x58, 0x79, 0x40, 0x3e, 0x99, 0x75, 0x76, 0x3e, 0x66, 0xa1, 0x4e, 0x3e,
  0x6e, 0xee, 0xff, 0xff, 0x04, 0x00, 0x00, 0x00, 0x80, 0x00, 0x00, 0x00,
  0x69, 0xe0, 0xf7, 0xbb, 0xce, 0xe6, 0xa0, 0xbb, 0x2e, 0x0e, 0x3c, 0xbc,
  0x3f, 0x6f, 0x47, 0x3d, 0xbb, 0x4e, 0xea, 0xbc, 0x12, 0x81, 0x62, 0xbd,
  0x17, 0x3c, 0x68, 0xbd, 0x9d, 0xdd, 0x1e, 0x3d, 0x75, 0x01, 0x3d, 0x3a,
  0xe0, 0x5c, 0x76, 0x3c, 0x00, 0x00, 0x00, 0x00, 0x79, 0x35, 0x51, 0xbb,
  0x00, 0x00, 0x00, 0x00, 0x0c, 0x3c, 0x91, 0xbc, 0xbe, 0x78, 0x12, 0xbd,
  0x1a, 0xcb, 0xc3, 0x3c, 0xd3, 0xe1, 0x14, 0x3c, 0x1b, 0x1b, 0x66, 0xbd,
  0x6c, 0xd4, 0x81, 0x3d, 0x17, 0xb8, 0x49, 0xbc, 0xba, 0x7c, 0x67, 0x3c,
  0x24, 0x35, 0x11, 0x3d, 0x76, 0x3a, 0x33, 0xbd, 0xaa, 0xff, 0xac, 0x3d,
  0xf0, 0x48, 0x8b, 0x3c, 0x00, 0x00, 0x00, 0x00, 0xa9, 0xe5, 0x88, 0x3c,
  0xcd, 0x18, 0x3c, 0xbc, 0x01, 0xa1, 0xbd, 0x3c, 0x6e, 0x31, 0xaa, 0xbb,
  0xff, 0x05, 0xa5, 0x3c, 0x19, 0x5a, 0x08, 0x3d, 0xfa, 0xee, 0xff, 0xff,
  0x04, 0x00, 0x00, 0x00, 0x40, 0x00, 0x00, 0x00, 0x05, 0x96, 0x89, 0xbb,
  0x80, 0x24, 0xb5, 0x3c, 0xfb, 0x74, 0xba, 0x3c, 0xe4, 0x00, 0xa8, 0x3c,
  0xbf, 0x2f, 0x82, 0xbc, 0x2b, 0xa9, 0x95, 0xbc, 0x4f, 0x0c, 0x2e, 0x3d,
  0x5e, 0xee, 0x76, 0x3d, 0x81, 0x3d, 0xac, 0x3c, 0x8e, 0x4c, 0x3b, 0xbd,
  0x00, 0x00, 0x00, 0x00, 0xc9, 0x71, 0x8e, 0x3c, 0x33, 0xf0, 0xdb, 0x3c,
  0xe0, 0x02, 0x9e, 0x3d, 0xe7, 0xde, 0x0c, 0xbc, 0x00, 0x00, 0x00, 0x00,
  0x46, 0xef, 0xff, 0xff, 0x04, 0x00, 0x00, 0x00, 0x80, 0x00, 0x00, 0x00,
  0x31, 0xc0, 0xe4, 0xbc, 0x00, 0x00, 0x00, 0x00, 0xbc, 0xa8, 0xc9, 0xbc,
  0x57, 0x9e, 0x69, 0xbb, 0xa5, 0x08, 0xb7, 0x3c, 0x14, 0xba, 0xf2, 0xbc,
  0x00, 0x00, 0x00, 0x00, 0x00, 0x00, 0x00, 0x00, 0x7c, 0x34, 0x1a, 0xbd,
  0x00, 0x00, 0x00, 0x00, 0xbf, 0xa0, 0xa0, 0xbb, 0x66, 0xd1, 0x00, 0xbd,
  0xb6, 0xc5, 0x28, 0xbd, 0x00, 0x00, 0x00, 0x00, 0x5c, 0x60, 0x48, 0xbc,
  0x42, 0x64, 0x3c, 0x3d, 0x00, 0x00, 0x00, 0x00, 0x00, 0x00, 0x00, 0x00,
  0xbf, 0x78, 0xd5, 0x3c, 0xc3, 0xe7, 0x3d, 0x3d, 0x75, 0x0c, 0xe6, 0x3c,
  0xa0, 0x09, 0xf3, 0xbc, 0x00, 0x00, 0x00, 0x00, 0x55, 0x2c, 0xf4, 0x3c,
  0xdd, 0xa6, 0xf3, 0x3c, 0xad, 0x44, 0x06, 0x3d, 0x32, 0xaa, 0x94, 0x3d,
  0x04, 0x38, 0xd6, 0x3c, 0xf9, 0xd2, 0xeb, 0x3c, 0x00, 0x00, 0x00, 0x00,
  0x00, 0x00, 0x00, 0x00, 0x87, 0x08, 0xcd, 0xbc, 0xd2, 0xef, 0xff, 0xff,
  0x04, 0x00, 0x00, 0x00, 0x08, 0x00, 0x00, 0x00, 0xbe, 0xcf, 0xcc, 0x3c,
  0x31, 0x15, 0x00, 0x3d, 0xe6, 0xef, 0xff, 0xff, 0x04, 0x00, 0x00, 0x00,
  0x00, 0x08, 0x00, 0x00, 0xa1, 0x23, 0xa1, 0xbe, 0x4a, 0x2b, 0x31, 0x3e,
  0xe9, 0x65, 0x67, 0x3e, 0x88, 0x19, 0x12, 0x3e, 0xd0, 0x0f, 0xa3, 0x3e,
  0x0f, 0xff, 0x99, 0xbe, 0x3e, 0xe2, 0x95, 0x3e, 0xd5, 0x40, 0x0c, 0x3e,
  0xb9, 0xd7, 0x41, 0x3e, 0xf9, 0x1c, 0xac, 0xbd, 0xc6, 0x01, 0xb2, 0xbe,
  0x4d, 0x51, 0xb2, 0x3e, 0xc8, 0x3d, 0xe7, 0x3d, 0xf1, 0xd3, 0x05, 0x3e,
  0xac, 0x11, 0xb4, 0xbd, 0x05, 0x7a, 0x7e, 0xbe, 0xe7, 0xb0, 0x26, 0x3e,
  0x69, 0x98, 0x7a, 0xbd, 0x80, 0xde, 0x81, 0x3e, 0xd9, 0x68, 0xaa, 0x3d,
  0x6f, 0x76, 0xa1, 0xbe, 0xc7, 0x8a, 0xc8, 0x3d, 0x98, 0x48, 0x8c, 0xbe,
  0x8b, 0xe2, 0x61, 0xbe, 0x06, 0x4d, 0xdb, 0xbe, 0x7e, 0x83, 0x88, 0xbe,
  0xbf, 0x50, 0x58, 0x3e, 0x84, 0x6c, 0xab, 0xbe, 0x8e, 0x5e, 0x52, 0xbe,
  0xd5, 0x48, 0x61, 0x3e, 0x6f, 0xc3, 0x4a, 0x3e, 0xfa, 0xb7, 0x9f, 0x3e,
  0x01, 0x3b, 0x31, 0x3e, 0x17, 0x6d, 0xab, 0x3e, 0xd5, 0xab, 0x83, 0x3c,
  0xa9, 0xf7, 0x20, 0xbe, 0x4f, 0x92, 0x89, 0x3b, 0xfb, 0xa7, 0x4c, 0xbe,
  0x7f, 0x93, 0x18, 0xbe, 0x47, 0x15, 0x24, 0x3e, 0x29, 0x26, 0xa4, 0x3e,
  0x76, 0x6f, 0xf1, 0x3d, 0x2e, 0x4a, 0x1d, 0x3e, 0x5c, 0xe9, 0x76, 0xbe,
  0x16, 0x2d, 0x0a, 0x3e, 0x80, 0x28, 0xe4, 0xbc, 0x9b, 0x9c, 0x14, 0x3e,
  0x32, 0xd2, 0xab, 0x3e, 0x2a, 0xb3, 0x9a, 0x3e, 0x44, 0x8c, 0x31, 0x3d,
  0x4c, 0x3b, 0xb6, 0x38, 0x04, 0xd0, 0x8c, 0xbe, 0x5e, 0xbb, 0x8c, 0x3e,
  0x24, 0x65, 0x33, 0xbe, 0x36, 0x40, 0x06, 0xbe, 0x45, 0x32, 0xbb, 0x3e,
  0x4d, 0x6a, 0xce, 0x3d, 0x05, 0x8c, 0x80, 0x3e, 0xc7, 0xb9, 0x85, 0xbe,
  0x68, 0xda, 0xa0, 0xbd, 0x1c, 0xbd, 0xb2, 0x3e, 0x8d, 0xd3, 0xa9, 0xbe,
  0x3d, 0x20, 0xfd, 0x3d, 0x7e, 0xd7, 0x64, 0xbe, 0xba, 0x98, 0x9e, 0x3d,
  0xe4, 0xbb, 0x25, 0x3d, 0x54, 0x76, 0xd9, 0xbc, 0xb2, 0xc7, 0x18, 0xbe,
  0xd4, 0xf6, 0x5f, 0x3e, 0x3b, 0x02, 0x0f, 0x3e, 0x20, 0xd3, 0x29, 0xbe,
  0x13, 0x99, 0x6e, 0xbc, 0x22, 0x40, 0x91, 0xbe, 0x55, 0x82, 0xad, 0xbd,
  0x4d, 0x3d, 0x86, 0x3e, 0xc7, 0x98, 0x88, 0x3e, 0xda, 0x1a, 0x17, 0x3e,
  0x75, 0x2f, 0x89, 0xbd, 0xcf, 0x0f, 0x61, 0x3c, 0x04, 0x74, 0xb8, 0x3e,
  0xea, 0x59, 0x89, 0x3d, 0xee, 0x8d, 0xf5, 0x3d, 0xa0, 0x2e, 0xc5, 0x3d,
  0x80, 0x2e, 0x2e, 0xbc, 0x48, 0xb5, 0x89, 0xbe, 0xe8, 0x41, 0x8d, 0x3e,
  0xd5, 0x52, 0xd2, 0x3e, 0x17, 0x9b, 0x61, 0xbe, 0x63, 0x82, 0xe7, 0x3d,
  0x49, 0xa4, 0xac, 0x3e, 0x0b, 0x20, 0x86, 0x3e, 0x8f, 0xd4, 0xb1, 0xbe,
  0x8f, 0xb9, 0xb6, 0x3e, 0xba, 0x83, 0x9b, 0x3d, 0xfa, 0x6e, 0xcb, 0x3e,
  0x1b, 0xe2, 0x21, 0xbe, 0x5d, 0x5a, 0xa4, 0xbe, 0xbe, 0xce, 0xa6, 0x3e,
  0x00, 0xe8, 0x4e, 0x3c, 0x2e, 0xe3, 0xa2, 0x3e, 0x48, 0x3e, 0x4b, 0xbe,
  0x65, 0x5c, 0x79, 0xbd, 0x62, 0x2c, 0xae, 0x3e, 0x6d, 0xe0, 0xa9, 0xbe,
  0x35, 0xc1, 0x7e, 0xbd, 0x63, 0xf4, 0x77, 0x3e, 0xc9, 0xc9, 0x75, 0xbe,
  0xcf, 0xe5, 0x03, 0xbe, 0xe4, 0xec, 0xc3, 0x3d, 0x4e, 0x85, 0x61, 0x3d,
  0xa3, 0xd0, 0x70, 0xbe, 0xf2, 0x5a, 0xc5, 0x3e, 0x46, 0x85, 0x12, 0x3e,
  0x85, 0x23, 0x98, 0xbd, 0x52, 0xa0, 0x34, 0x3e, 0x32, 0x97, 0x97, 0xbe,
  0x48, 0xbd, 0x89, 0x3e, 0x04, 0xc8, 0xb1, 0x3e, 0x67, 0x86, 0xab, 0xbc,
  0xc3, 0x35, 0xbf, 0xbe, 0xa6, 0xc3, 0xb4, 0x3e, 0x28, 0x69, 0xfa, 0x3d,
  0xd2, 0xd5, 0xca, 0x3e, 0xca, 0xfd, 0x08, 0xbe, 0xc1, 0xa7, 0xdd, 0x3c,
  0x54, 0x37, 0x27, 0xbd, 0x8f, 0x28, 0xf2, 0xbd, 0x28, 0x65, 0xa9, 0x3d,
  0x3b, 0x5c, 0x90, 0x3e, 0x55, 0xc7, 0xa7, 0x3e, 0x9f, 0xc8, 0x90, 0x3e,
  0xf5, 0x18, 0x78, 0x3e, 0x56, 0x91, 0xeb, 0xbd, 0x11, 0x47, 0xc2, 0xbd,
  0xef, 0x3f, 0x34, 0xbd, 0xdf, 0x10, 0xa8, 0x3e, 0xd6, 0x15, 0x04, 0xbe,
  0xe0, 0xec, 0x24, 0x3e, 0x76, 0xbb, 0x33, 0xbe, 0xe2, 0xd8, 0x27, 0x3e,
  0x21, 0xb9, 0xa6, 0xbe, 0xc3, 0xcb, 0x9e, 0xbe, 0x4b, 0xc8, 0xee, 0x3c,
  0x3f, 0xa3, 0x73, 0xbe, 0xbc, 0x48, 0xba, 0xbd, 0xb3, 0x21, 0x2d, 0x3d,
  0x58, 0xc6, 0xec, 0x3d, 0x80, 0x8a, 0xc3, 0xbb, 0x04, 0xff, 0x05, 0x3e,
  0xc6, 0x82, 0x55, 0x3e, 0x8f, 0x2a, 0x90, 0x3e, 0x88, 0x23, 0x43, 0xbe,
  0x8c, 0x5f, 0xae, 0xbe, 0x64, 0x13, 0x2a, 0xbe, 0xc9, 0x5c, 0x5e, 0xbe,
  0xad, 0x07, 0x9a, 0xbe, 0xe9, 0xe8, 0xc6, 0xbd, 0x7a, 0x19, 0x34, 0x3e,
  0xe3, 0x2c, 0x13, 0xbe, 0xf3, 0xda, 0x0b, 0xbe, 0x92, 0xb4, 0xdc, 0xbd,
  0xa6, 0xf7, 0x2c, 0x3e, 0x67, 0x41, 0x25, 0x3e, 0x8a, 0x4a, 0x48, 0x3c,
  0x22, 0x00, 0x43, 0xba, 0x58, 0xbc, 0xb9, 0xbd, 0x75, 0x55, 0x1e, 0x3e,
  0xb7, 0xdf, 0xaa, 0xbe, 0x52, 0x9b, 0xb0, 0xbe, 0xf2, 0x2c, 0x78, 0x3d,
  0xd0, 0xea, 0x7d, 0x3d, 0xa1, 0x13, 0x90, 0xbe, 0x60, 0x76, 0xf7, 0x3c,
  0x92, 0xe9, 0x4f, 0x3e, 0x0f, 0x04, 0x1f, 0x3d, 0xc8, 0x8e, 0x92, 0xbd,
  0x51, 0xe8, 0x8c, 0x3d, 0x2c, 0xa6, 0x04, 0xbd, 0x20, 0x4c, 0x59, 0x3c,
  0xb5, 0x99, 0x87, 0x3c, 0xf0, 0xbf, 0xae, 0xbd, 0xb7, 0xa5, 0xfa, 0xbd,
  0xbe, 0x6d, 0x2c, 0x3c, 0xee, 0xf7, 0x86, 0xbe, 0xfc, 0x51, 0xa0, 0x3e,
  0x2e, 0xc0, 0x2d, 0x3e, 0x69, 0x06, 0x36, 0x3e, 0x2a, 0x3a, 0xd5, 0xbd,
  0xc5, 0x26, 0x9f, 0x3e, 0x80, 0xaf, 0x7c, 0xbb, 0xb2, 0xed, 0x98, 0xbe,
  0xbb, 0xb5, 0x84, 0xbe, 0x70, 0xd2, 0x51, 0xbe, 0x69, 0x23, 0xa7, 0xbe,
  0x1d, 0x9f, 0xb1, 0x3e, 0x88, 0xc4, 0xa9, 0x3e, 0x71, 0x44, 0x92, 0xbc,
  0xef, 0x0e, 0x92, 0xbe, 0x71, 0xa7, 0xa8, 0x3e, 0x6c, 0x78, 0x9a, 0x3e,
  0x3f, 0xf1, 0xfb, 0xbd, 0xfe, 0x14, 0x55, 0x3e, 0x82, 0x0b, 0x33, 0x3e,
  0x1a, 0x02, 0x7b, 0x3e, 0x86, 0x65, 0x05, 0x3e, 0xfb, 0x49, 0x87, 0x3e,
  0x05, 0x97, 0x8c, 0x3e, 0x59, 0x70, 0xba, 0xbd, 0x5c, 0x5b, 0x82, 0x3d,
  0x27, 0xc4, 0x64, 0xbe, 0xf0, 0x33, 0x0d, 0x3e, 0x79, 0x62, 0x90, 0x3e,
  0x45, 0x2c, 0xcb, 0xbe, 0xdb, 0xa5, 0xa9, 0x3d, 0xe6, 0x91, 0x94, 0xbd,
  0x5e, 0x3d, 0x15, 0xbe, 0x43, 0xf9, 0xbf, 0x3d, 0xae, 0x3c, 0x13, 0x3e,
  0x0c, 0x18, 0x96, 0xbe, 0x49, 0xc1, 0x8a, 0x3e, 0xb5, 0x17, 0x8b, 0x3e,
  0x39, 0xe0, 0x86, 0xbe, 0x6b, 0x4e, 0x8e, 0x3d, 0x9e, 0x96, 0xa8, 0xbe,
  0x91, 0x37, 0xa4, 0xbe, 0x8e, 0xc9, 0xd9, 0xbd, 0xc0, 0x45, 0xf0, 0x3d,
  0x6d, 0xef, 0x51, 0xbe, 0x39, 0xe2, 0x40, 0xbe, 0xb5, 0x45, 0x05, 0xbd,
  0xee, 0x47, 0x6e, 0x3b, 0x84, 0x3a, 0x79, 0xbe, 0xda, 0x07, 0x32, 0xbe,
  0x45, 0x46, 0xf9, 0x3d, 0x26, 0xea, 0x2c, 0x3e, 0x67, 0xed, 0xae, 0x3e,
  0x1e, 0xde, 0x89, 0xbe, 0x7a, 0x59, 0xfe, 0xbd, 0x2f, 0xcb, 0xb2, 0xbe,
  0x6a, 0x31, 0x25, 0xbe, 0x60, 0xbd, 0xf1, 0xbc, 0x80, 0x8a, 0x96, 0xbd,
  0x72, 0xa7, 0xde, 0x3e, 0xfc, 0x30, 0x94, 0xbe, 0x23, 0xfc, 0x85, 0x3e,
  0x45, 0xfa, 0x16, 0x3e, 0xfc, 0x36, 0xbc, 0xbe, 0x07, 0x6f, 0x0a, 0x3f,
  0x90, 0xb6, 0x85, 0x3e, 0xc0, 0xba, 0xc8, 0x3b, 0x6a, 0x6c, 0x73, 0xbe,
  0x6e, 0xbe, 0x76, 0xbd, 0x03, 0x4b, 0xdd, 0x3e, 0xfd, 0x87, 0x9c, 0xbe,
  0x15, 0xfe, 0x52, 0x3e, 0x1d, 0x14, 0x5a, 0x3e, 0x6f, 0x12, 0x77, 0x3e,
  0x1c, 0xb5, 0x10, 0x3e, 0x65, 0x59, 0x29, 0xbe, 0x34, 0xbf, 0x8b, 0xbe,
  0x5d, 0xdc, 0x0e, 0x3e, 0x3f, 0x90, 0x7b, 0xbe, 0x5c, 0xf0, 0xb1, 0xbc,
  0x2e, 0x1d, 0xa2, 0xbe, 0x56, 0xbc, 0x01, 0xbe, 0xe9, 0x9f, 0x10, 0x3e,
  0x00, 0x42, 0x66, 0xbd, 0x14, 0xdd, 0x72, 0x3e, 0x09, 0x8b, 0xa8, 0xbe,
  0x39, 0x36, 0xc9, 0x3d, 0xd9, 0x12, 0x9d, 0x3e, 0x0a, 0xe1, 0x5f, 0xbc,
  0x87, 0x8d, 0x94, 0x3e, 0xdd, 0x8c, 0x8d, 0xbe, 0x4a, 0x5c, 0x9c, 0x3d,
  0x08, 0x0a, 0x97, 0xbe, 0xb3, 0x4d, 0x43, 0x3e, 0x00, 0x01, 0x31, 0xbe,
  0xda, 0x54, 0xc9, 0xbd, 0x07, 0x13, 0xc7, 0xbd, 0x8b, 0xa0, 0xff, 0x3d,
  0x42, 0x53, 0x87, 0xbe, 0x63, 0x51, 0x03, 0x3e, 0x65, 0xe3, 0x00, 0xbe,
  0x6c, 0xaa, 0x00, 0x3e, 0xfb, 0x6a, 0x9c, 0x3e, 0x07, 0x5e, 0x79, 0x3e,
  0xf2, 0x10, 0xbd, 0x3e, 0x6e, 0x7f, 0x79, 0x3e, 0xe9, 0x63, 0xd4, 0x3d,
  0x20, 0x31, 0x6f, 0xbe, 0x82, 0x26, 0x99, 0x3e, 0xdf, 0x06, 0xb3, 0x3e,
  0x07, 0x3d, 0xac, 0x3e, 0x0a, 0x57, 0x6d, 0x3e, 0xbc, 0x81, 0x0a, 0xbd,
  0xa6, 0x61, 0x80, 0xbe, 0xef, 0xe3, 0x0c, 0xbd, 0x5a, 0xad, 0x2d, 0x3e,
  0x4e, 0xe2, 0x67, 0x3e, 0x20, 0xe8, 0xfc, 0x3c, 0xf2, 0x9a, 0x9d, 0xbd,
  0x18, 0x2f, 0xb1, 0xbd, 0xa1, 0xef, 0xf3, 0xbd, 0x77, 0xbd, 0x95, 0xbe,
  0x2e, 0xfe, 0x74, 0x3e, 0x98, 0x14, 0xfe, 0xbc, 0x50, 0x72, 0x83, 0x3c,
  0xc6, 0x75, 0xb7, 0xbe, 0x22, 0xe1, 0x81, 0xbe, 0xa8, 0x69, 0x61, 0xbd,
  0x42, 0x2d, 0x6f, 0x3e, 0x4a, 0x26, 0x1c, 0x3e, 0xb8, 0xc3, 0x10, 0xbd,
  0xd8, 0x20, 0x7c, 0xbe, 0x68, 0x8e, 0x0a, 0xbd, 0x94, 0x95, 0x1c, 0xbe,
  0x59, 0x4b, 0x9f, 0x3e, 0x0e, 0xa3, 0xe8, 0x3d, 0x3f, 0x9d, 0x9e, 0x3e,
  0xbd, 0xae, 0x9f, 0xbe, 0xcf, 0x68, 0x90, 0x3e, 0x66, 0x0e, 0x9d, 0xbe,
  0x30, 0x03, 0xce, 0x3c, 0x73, 0x74, 0x57, 0xbe, 0xad, 0xc2, 0x93, 0xbe,
  0x4e, 0x1e, 0x51, 0x3e, 0xf3, 0xf7, 0x5b, 0xbe, 0x84, 0x39, 0x3e, 0xbe,
  0x00, 0xf8, 0xa3, 0xbc, 0xbe, 0x25, 0x06, 0x3e, 0xbe, 0x44, 0x18, 0xbe,
  0xdf, 0xd0, 0xb1, 0xbe, 0xd0, 0x25, 0xa1, 0xbe, 0x4e, 0xa2, 0x67, 0xbe,
  0x11, 0x41, 0x22, 0xbe, 0xc0, 0x4c, 0xa2, 0xbd, 0xf3, 0x6a, 0x24, 0xbe,
  0x31, 0x71, 0x8d, 0x3e, 0xb0, 0xe7, 0xa4, 0x3d, 0x98, 0xe7, 0x5e, 0x3d,
  0x5e, 0x64, 0x45, 0xbe, 0x8a, 0x68, 0x4b, 0x3e, 0x84, 0xc8, 0xd2, 0x3d,
  0x38, 0x2a, 0x4a, 0x3d, 0xae, 0x68, 0x63, 0x3e, 0xea, 0xcb, 0x1b, 0x3e,
  0x9a, 0x45, 0x4a, 0x3e, 0xa4, 0x0b, 0xd8, 0xbd, 0xa0, 0xbf, 0x5b, 0x3c,
  0xfe, 0x37, 0x7d, 0xbe, 0x30, 0x49, 0x6b, 0xbe, 0x19, 0x25, 0x50, 0x3e,
  0x6b, 0x56, 0xc1, 0x3e, 0x19, 0x03, 0x00, 0x3e, 0x0a, 0x6a, 0xbb, 0xbe,
  0x62, 0x65, 0x8a, 0xbe, 0xcf, 0x55, 0xd7, 0x3e, 0x09, 0xe3, 0x85, 0xbe,
  0xe1, 0x31, 0x4b, 0xbe, 0x92, 0x30, 0xa8, 0x3e, 0xe7, 0x51, 0x8b, 0x3e,
  0xf4, 0x00, 0xd6, 0x3d, 0x2b, 0x55, 0x4b, 0x3e, 0xa9, 0xfb, 0x42, 0xbe,
  0xbf, 0x81, 0x97, 0x3e, 0x1e, 0x1e, 0x24, 0xbe, 0x1b, 0x43, 0x31, 0xbe,
  0x07, 0x74, 0x89, 0xbe, 0xf5, 0x22, 0x0e, 0x3e, 0xab, 0x22, 0x44, 0xbe,
  0x8d, 0xb7, 0x44, 0x3d, 0x9d, 0x5c, 0x7b, 0x3d, 0x02, 0xad, 0xfc, 0xbb,
  0xdb, 0xc0, 0x75, 0xbd, 0xd6, 0x17, 0x8b, 0x3e, 0x27, 0xd7, 0x44, 0xbd,
  0x9b, 0x71, 0x9d, 0x3e, 0x05, 0xbe, 0xbe, 0x3e, 0x7b, 0x71, 0x17, 0xbe,
  0xff, 0x27, 0xe7, 0x3d, 0x92, 0x8d, 0x63, 0x3d, 0x56, 0x3d, 0x89, 0x3e,
  0xaf, 0x02, 0xd3, 0xbd, 0xa8, 0xb9, 0x91, 0x3e, 0x7c, 0x04, 0x3f, 0xbd,
  0x57, 0x85, 0x57, 0x3e, 0xfd, 0x75, 0xb0, 0xbd, 0x79, 0xa4, 0xef, 0x3d,
  0x44, 0xb6, 0x6f, 0xbe, 0x00, 0x5a, 0x55, 0x3e, 0xc6, 0x4a, 0xbc, 0xbe,
  0xbb, 0xdb, 0x37, 0xbe, 0x21, 0x0e, 0xff, 0xbd, 0x25, 0x56, 0x5d, 0xbe,
  0x89, 0x1a, 0x2b, 0xbe, 0x40, 0xd9, 0x80, 0x3d, 0x83, 0xce, 0xa1, 0xbd,
  0xbb, 0x50, 0x60, 0x3d, 0xd2, 0x31, 0x4e, 0xbd, 0xe6, 0x1f, 0x18, 0x3e,
  0xca, 0x75, 0x83, 0xbe, 0x88, 0x73, 0x61, 0x3b, 0x16, 0x9e, 0x31, 0x3e,
  0xbe, 0x88, 0x41, 0x3e, 0xea, 0xa2, 0x40, 0xbe, 0x04, 0x31, 0x16, 0xbe,
  0x49, 0xe6, 0x9e, 0xbe, 0xe7, 0x93, 0xaa, 0x3e, 0x3c, 0xcc, 0x8f, 0xbe,
  0xf8, 0xc8, 0x7f, 0x3e, 0x1f, 0x22, 0x3a, 0xbc, 0x90, 0x58, 0x04, 0xbe,
  0x37, 0x59, 0x8a, 0x3d, 0x4d, 0x3d, 0x37, 0x3e, 0x93, 0x33, 0x87, 0x3e,
  0x36, 0x44, 0x1c, 0x3e, 0x00, 0x7a, 0x4e, 0xbe, 0x21, 0xe7, 0xba, 0xbd,
  0x3b, 0x1b, 0xb4, 0x3e, 0xa9, 0x7e, 0x60, 0xbe, 0x04, 0x7a, 0xf2, 0xbc,
  0x5a, 0x56, 0x55, 0xbe, 0x03, 0x41, 0x63, 0x3e, 0x5d, 0x05, 0x8a, 0xbe,
  0x3c, 0x9a, 0x15, 0xbe, 0x30, 0x94, 0xdb, 0x3c, 0x5b, 0x1f, 0x90, 0xbd,
  0x66, 0x1f, 0x5e, 0x3e, 0x0a, 0x7c, 0x89, 0x3d, 0xc2, 0xe5, 0xd9, 0x3d,
  0x68, 0xb9, 0xc6, 0x3e, 0xcb, 0x70, 0xe5, 0xbd, 0xa2, 0xce, 0xd0, 0xbc,
  0x71, 0x21, 0xf7, 0xbd, 0xda, 0x5d, 0x72, 0x3e, 0x42, 0x28, 0x5c, 0xbe,
  0xf6, 0x6e, 0x75, 0x3e, 0x62, 0xcf, 0x1a, 0xbd, 0x49, 0xe3, 0x42, 0x3e,
  0x2e, 0xf0, 0x95, 0xbd, 0xf6, 0xad, 0x86, 0xbe, 0x7c, 0x88, 0x21, 0x3d,
  0x7a, 0x98, 0x31, 0x3d, 0x85, 0x94, 0x77, 0x3c, 0x5e, 0x6a, 0x22, 0x3e,
  0x36, 0xca, 0x91, 0x3e, 0xa7, 0x8f, 0x9e, 0x3d, 0x66, 0x06, 0x86, 0xbe,
  0x21, 0x53, 0x01, 0x3e, 0xc0, 0xef, 0x90, 0x3e, 0x20, 0x0e, 0x68, 0xbc,
  0x9c, 0x8e, 0x88, 0xbe, 0x9b, 0xc2, 0xd0, 0x3d, 0xc6, 0xbe, 0x79, 0xbe,
  0xad, 0x8f, 0xa0, 0xbe, 0x55, 0x40, 0xa2, 0x3d, 0x02, 0xa1, 0xa8, 0x3e,
  0xd4, 0xf0, 0x1d, 0xbe, 0xd9, 0x80, 0xa4, 0xbe, 0xf5, 0x5c, 0x9f, 0xbe,
  0x60, 0xf9, 0xa2, 0xbe, 0xdd, 0x43, 0x95, 0xbe, 0x13, 0x4b, 0x28, 0x3e,
  0x08, 0x3d, 0x60, 0xbe, 0x96, 0x29, 0x9e, 0xbe, 0x66, 0xfa, 0x4b, 0xbe,
  0x31, 0x9c, 0x1b, 0xbd, 0xfb, 0xa0, 0x8f, 0xbe, 0x5d, 0xcd, 0xa6, 0x3e,
  0x97, 0xa2, 0x58, 0x3e, 0xaa, 0xf5, 0x27, 0xbc, 0xf7, 0xfe, 0x3e, 0xbe,
  0xf8, 0xbb, 0xd3, 0x3d, 0xed, 0x9c, 0x07, 0x3e, 0xdd, 0x29, 0x97, 0x3e,
  0x86, 0x0b, 0xb2, 0xbd, 0x2e, 0x8f, 0x4c, 0xbe, 0x8f, 0xfa, 0x9c, 0xbe,
  0x3d, 0xb7, 0xfb, 0x3c, 0x32, 0xeb, 0xf9, 0xbd, 0x27, 0xa8, 0x10, 0xbe,
  0x00, 0xed, 0x9e, 0xbe, 0xa0, 0x3d, 0x10, 0xbe, 0x64, 0xa2, 0x99, 0x3d,
  0xf0, 0x73, 0x14, 0x3e, 0x00, 0x52, 0xbb, 0x3d, 0x2a, 0x75, 0x73, 0xbe,
  0xae, 0xe7, 0x79, 0x3e, 0xfe, 0x88, 0x4d, 0x3e, 0xe7, 0xa6, 0xa8, 0xbe,
  0x8f, 0x8b, 0x88, 0x3e, 0x56, 0xa3, 0x8e, 0xbe, 0xba, 0xd7, 0xa3, 0xbe,
  0xe2, 0x69, 0x00, 0x3e, 0x64, 0x44, 0xb1, 0x3d, 0x28, 0xeb, 0x90, 0xbd,
  0x38, 0xed, 0x59, 0x3d, 0x96, 0xa8, 0x16, 0x3e, 0xd2, 0xcb, 0x3e, 0x3e,
  0xb0, 0x66, 0xb4, 0xbd, 0x49, 0x7b, 0x9d, 0xbe, 0x94, 0x67, 0x8f, 0xbe,
  0x0c, 0x66, 0x96, 0xbd, 0xa3, 0x64, 0xa9, 0x3e, 0x14, 0x03, 0x27, 0xbe,
  0x10, 0x03, 0x30, 0xbd, 0x5d, 0xa1, 0x26, 0xbe, 0x50, 0x10, 0x47, 0x3d,
  0x87, 0x6a, 0x9f, 0x3e, 0x1f, 0x7e, 0x50, 0xbe, 0xda, 0x1d, 0x13, 0x3e,
  0xf2, 0xf7, 0xff, 0xff, 0x04, 0x00, 0x00, 0x00, 0x00, 0x08, 0x00, 0x00,
  0xe7, 0x1a, 0x22, 0xbe, 0xe9, 0x05, 0x7a, 0x3d, 0xcc, 0xd3, 0x3b, 0xbe,
  0x44, 0x9a, 0xc0, 0xbd, 0xa8, 0x3f, 0x36, 0xbe, 0x30, 0x2a, 0xbc, 0x3d,
  0x50, 0x75, 0x0c, 0xbd, 0x07, 0x7f, 0x95, 0x3e, 0xda, 0x79, 0xbb, 0xbe,
  0x28, 0xac, 0x13, 0x3e, 0xf8, 0x25, 0x5a, 0xbe, 0xab, 0xe0, 0x8f, 0xbe,
  0x8d, 0xf4, 0x38, 0xbe, 0x16, 0x4c, 0x7f, 0xbd, 0x90, 0x9e, 0xb0, 0xbe,
  0x46, 0x2a, 0xf8, 0xbd, 0xe0, 0x7c, 0x58, 0xbc, 0xee, 0xe2, 0x2a, 0x3e,
  0x00, 0x67, 0xd7, 0xbc, 0xb0, 0xc2, 0x39, 0xbd, 0xf8, 0xb0, 0xb4, 0xbe,
  0xd1, 0x98, 0x86, 0xbe, 0x50, 0x5e, 0xff, 0x3c, 0x80, 0x87, 0x0c, 0x3c,
  0x63, 0x91, 0x0d, 0xbe, 0xb0, 0x84, 0xbf, 0xbc, 0x68, 0xe1, 0x25, 0xbe,
  0x72, 0x5f, 0x01, 0xbe, 0xe5, 0x89, 0x8e, 0x3e, 0xae, 0x84, 0x8b, 0xbe,
  0xa0, 0x46, 0xd7, 0x3d, 0x04, 0x29, 0xe7, 0x3d, 0xa8, 0x10, 0xa0, 0xbe,
  0x3e, 0x15, 0x57, 0xbe, 0x41, 0x5d, 0xb7, 0x3e, 0x36, 0xc0, 0xee, 0x3d,
  0x1d, 0xbf, 0xaf, 0xbe, 0x73, 0x10, 0x69, 0xbe, 0x4a, 0xb5, 0x7d, 0xbe,
  0x5a, 0xed, 0xc1, 0xbc, 0x07, 0x72, 0x22, 0xbd, 0xbd, 0xb3, 0x12, 0x3e,
  0x7e, 0xfe, 0x4a, 0x3e, 0x0a, 0x9d, 0x59, 0x3d, 0x1a, 0x4f, 0xd7, 0x3b,
  0xc5, 0x9a, 0xd3, 0x3e, 0x42, 0x2d, 0x9d, 0xbe, 0x8b, 0x74, 0x9b, 0xbe,
  0x7c, 0x01, 0x58, 0x3d, 0x3b, 0xe9, 0xd6, 0xbc, 0x93, 0x92, 0x75, 0x3e,
  0xfc, 0x4f, 0x1c, 0x3e, 0xe8, 0xfb, 0x4e, 0x3d, 0xda, 0x41, 0x85, 0x3d,
  0x23, 0xfc, 0x62, 0xbb, 0x1e, 0x51, 0x88, 0x3e, 0x8f, 0x35, 0xb6, 0xbe,
  0xfe, 0x89, 0xdb, 0xbd, 0x90, 0x42, 0xa5, 0x3c, 0xfe, 0x00, 0x10, 0xbe,
  0x08, 0xbb, 0xbb, 0xbe, 0xd4, 0x88, 0x91, 0xbc, 0x4f, 0x23, 0x66, 0x3e,
  0x10, 0x11, 0x79, 0x3d, 0xbf, 0x25, 0xc0, 0xba, 0xec, 0x40, 0x53, 0x3d,
  0xc5, 0x1d, 0xa2, 0xbd, 0x56, 0x8c, 0xc5, 0x3d, 0x2d, 0xc6, 0x8b, 0x3d,
  0x71, 0x5f, 0x73, 0x3d, 0x7d, 0x87, 0x82, 0xbc, 0x1c, 0x78, 0xb6, 0xbe,
  0xd9, 0xaf, 0x6d, 0x3e, 0xc4, 0x37, 0x47, 0x3e, 0xf8, 0xe0, 0x55, 0x3d,
  0xa0, 0xe5, 0x15, 0x3e, 0xfd, 0x85, 0xb4, 0xbc, 0x17, 0x52, 0x02, 0x3e,
  0x99, 0x7d, 0x15, 0x3d, 0x3d, 0xd2, 0xaf, 0x3e, 0xdb, 0x60, 0x4a, 0xbe,
  0xe5, 0xc3, 0xb7, 0xbe, 0x15, 0x52, 0xb7, 0x3d, 0x1e, 0xb8, 0x50, 0xbc,
  0x1f, 0x66, 0xed, 0xbd, 0xf3, 0x35, 0x0e, 0xbd, 0xdd, 0x01, 0xaf, 0x3e,
  0x86, 0xe6, 0x7d, 0x3d, 0x99, 0x50, 0x6d, 0xbe, 0x62, 0x91, 0x61, 0x3e,
  0x05, 0x31, 0xb1, 0xbe, 0x13, 0xac, 0x9c, 0x3e, 0x3f, 0x83, 0xa2, 0x3c,
  0x80, 0x08, 0x99, 0x3d, 0xb5, 0x3f, 0xb1, 0x3d, 0xb8, 0xa3, 0x07, 0x3d,
  0xb2, 0xa4, 0x44, 0x3e, 0x98, 0x39, 0x8c, 0x3d, 0xb4, 0x64, 0x27, 0xbe,
  0x4e, 0xaa, 0xa6, 0xbe, 0xdf, 0x59, 0x86, 0x3e, 0x48, 0xc2, 0x52, 0xbd,
  0x6c, 0x82, 0xc8, 0x3d, 0x78, 0xfa, 0xdb, 0x3d, 0xf8, 0xd8, 0x53, 0xbe,
  0xf7, 0x56, 0xae, 0x3e, 0x80, 0x0f, 0x9f, 0x3b, 0x82, 0xc3, 0x1d, 0xbe,
  0xd5, 0x94, 0xb3, 0xbe, 0x25, 0x3a, 0x55, 0xbe, 0x3c, 0xca, 0x82, 0xbe,
  0x50, 0xa6, 0x5d, 0xbe, 0x10, 0x75, 0xa2, 0x3d, 0xf0, 0x3b, 0x81, 0x3c,
  0xe8, 0xf1, 0x7c, 0xbd, 0xfc, 0x47, 0x99, 0xbe, 0x33, 0xad, 0x99, 0xbe,
  0x4c, 0xda, 0x9a, 0xbe, 0x08, 0x89, 0x83, 0xbe, 0x14, 0x45, 0x84, 0xbe,
  0xee, 0x35, 0x23, 0x3e, 0xde, 0x48, 0x6e, 0x3e, 0x00, 0x4a, 0x5e, 0xbd,
  0x50, 0x7e, 0x7c, 0xbd, 0x30, 0xb3, 0x8f, 0x3d, 0xd6, 0x3a, 0x47, 0xbe,
  0xc8, 0xbd, 0xdd, 0xbd, 0xd6, 0x96, 0x56, 0x3e, 0xb8, 0x5b, 0x02, 0xbd,
  0x1f, 0x19, 0x51, 0x3e, 0x62, 0xce, 0x89, 0xbe, 0x31, 0xec, 0x9a, 0x3e,
  0x87, 0xf1, 0x50, 0x3e, 0xc8, 0x4f, 0x9f, 0x3e, 0xd8, 0x6f, 0xae, 0x3e,
  0xbb, 0xe2, 0x88, 0xbe, 0x8b, 0x9b, 0x4a, 0x3d, 0xfe, 0xd4, 0x8d, 0xbe,
  0xcd, 0x8a, 0x1e, 0xbe, 0xe0, 0xe1, 0xe4, 0x3d, 0xe5, 0x0a, 0x9b, 0x3e,
  0x45, 0x72, 0xa3, 0x3e, 0xb6, 0x99, 0x63, 0xbe, 0xd4, 0xe2, 0x52, 0xbe,
  0xf6, 0xc2, 0x64, 0x3e, 0x8c, 0x45, 0x1a, 0xbe, 0x08, 0x47, 0x2c, 0xbd,
  0x56, 0xa6, 0xa0, 0xbe, 0x3e, 0x95, 0x4f, 0x3e, 0x16, 0x97, 0xa0, 0xbe,
  0x76, 0x4e, 0x08, 0x3e, 0x13, 0x35, 0x64, 0xbe, 0xd7, 0xb3, 0x2e, 0xbe,
  0xbc, 0xc4, 0xf8, 0xbd, 0x24, 0x20, 0xed, 0xbd, 0x64, 0x05, 0x18, 0xbe,
  0x45, 0x83, 0xa3, 0x3e, 0x58, 0xe8, 0x96, 0x3d, 0x0a, 0x41, 0x39, 0x3e,
  0xb0, 0x09, 0x90, 0x3c, 0x43, 0x9f, 0x14, 0xbe, 0x09, 0xa6, 0x36, 0x3d,
  0xb7, 0xdb, 0x98, 0xbe, 0x86, 0x90, 0xc5, 0xbe, 0x00, 0xb7, 0xaf, 0xbd,
  0xe8, 0x9e, 0x6f, 0xbe, 0xea, 0x32, 0x9a, 0xbc, 0x1d, 0x97, 0x67, 0x3e,
  0x4e, 0x60, 0x69, 0x3e, 0x65, 0x29, 0x73, 0xbe, 0x40, 0x94, 0x2f, 0x3c,
  0xea, 0x84, 0xa3, 0x3c, 0xbb, 0x4b, 0x08, 0xbf, 0x4a, 0x12, 0xd8, 0xbd,
  0x82, 0xb1, 0xf3, 0xbd, 0x95, 0xed, 0x9d, 0x3e, 0x0c, 0x96, 0x1c, 0x3e,
  0x1e, 0xdd, 0x35, 0x3e, 0x7f, 0x1a, 0x0a, 0x3d, 0x96, 0xf8, 0x34, 0x3e,
  0x24, 0xa7, 0x9b, 0xbe, 0x31, 0xc2, 0x75, 0x3e, 0xe2, 0xfc, 0x8e, 0x3e,
  0x4e, 0xa5, 0x80, 0xbe, 0x8d, 0xde, 0xdc, 0xbd, 0x44, 0x84, 0x04, 0xbe,
  0x61, 0xef, 0xb3, 0x3e, 0x8d, 0xc9, 0xe8, 0xbd, 0x33, 0xca, 0x5e, 0x3d,
  0x84, 0xb4, 0xf9, 0x3d, 0xdc, 0xe7, 0x1d, 0xbe, 0x16, 0x09, 0x4c, 0x3e,
  0x77, 0xe8, 0x00, 0x3e, 0x70, 0xed, 0x67, 0x3e, 0x25, 0x24, 0x5a, 0x3c,
  0x3b, 0xd6, 0x67, 0x3e, 0x2e, 0x70, 0x8d, 0x3e, 0xd1, 0xe0, 0xd8, 0xb9,
  0xd4, 0x06, 0x1b, 0xbc, 0x62, 0x56, 0xd8, 0x3d, 0x99, 0x45, 0x66, 0x3d,
  0x36, 0x36, 0xb1, 0x3e, 0xe6, 0x6c, 0x40, 0x3e, 0x86, 0x97, 0xbb, 0xbe,
  0x31, 0xf3, 0x15, 0x3e, 0x37, 0x10, 0x95, 0x3e, 0xb4, 0x34, 0x83, 0x3e,
  0x00, 0xac, 0x82, 0x3a, 0xe0, 0xe5, 0xae, 0xbd, 0xa8, 0xb2, 0x44, 0xbd,
  0x20, 0xef, 0xcf, 0xbd, 0xdb, 0xfd, 0x49, 0xbe, 0x32, 0x08, 0x8b, 0xbe,
  0xba, 0xe7, 0x79, 0xbe, 0x99, 0x28, 0xa5, 0x3e, 0x1f, 0x16, 0x63, 0xbe,
  0x50, 0xaa, 0xb2, 0xbd, 0x8b, 0x6d, 0x87, 0xbe, 0x26, 0x67, 0x74, 0xbe,
  0xce, 0x4d, 0x23, 0x3e, 0x85, 0xc9, 0x86, 0x3e, 0xe4, 0xe2, 0x35, 0xbe,
  0xf2, 0x35, 0x34, 0xbe, 0x89, 0x93, 0xb0, 0x3e, 0xe2, 0x9f, 0x87, 0x3e,
  0x20, 0x4b, 0x3c, 0x3e, 0x73, 0xa7, 0x49, 0x3d, 0xe0, 0x27, 0xa2, 0xbd,
  0xdf, 0x47, 0x23, 0x3d, 0x45, 0x2f, 0x9f, 0x3e, 0x20, 0xce, 0xcf, 0xbc,
  0x0e, 0x7b, 0x2e, 0xbe, 0xc4, 0x59, 0xaf, 0xbe, 0x8a, 0x6d, 0xf8, 0xbd,
  0xf8, 0x07, 0x6f, 0xbd, 0x46, 0x7b, 0xec, 0x3b, 0x3b, 0x9f, 0x5f, 0xbe,
  0x10, 0xfd, 0xb7, 0xbc, 0x7e, 0x4d, 0x64, 0xbd, 0x50, 0x04, 0x01, 0x3e,
  0x8e, 0xf5, 0xf9, 0xbd, 0xcb, 0xe6, 0x80, 0x3d, 0xce, 0x82, 0xad, 0xbe,
  0xa7, 0x9d, 0xfb, 0xbd, 0x4c, 0x8b, 0x8b, 0xbd, 0xe2, 0xeb, 0x56, 0xbe,
  0x56, 0xe7, 0xe4, 0x3e, 0xf0, 0x92, 0xf6, 0x3d, 0xb3, 0x8a, 0x6e, 0x3e,
  0xbd, 0xea, 0xd3, 0xbd, 0x6a, 0xe1, 0x02, 0x3e, 0x43, 0xf8, 0x41, 0xbc,
  0x1e, 0x16, 0x5a, 0x3e, 0x72, 0x43, 0x9a, 0x3e, 0x40, 0xd5, 0x8c, 0xbd,
  0xe0, 0xf9, 0x5f, 0xbd, 0x48, 0x5c, 0xb2, 0xbe, 0x3e, 0xe9, 0x76, 0x3e,
  0x88, 0x55, 0xc8, 0x3d, 0x68, 0x20, 0x02, 0xbd, 0x68, 0x33, 0x7f, 0xbe,
  0x01, 0xaa, 0x0d, 0xbe, 0x98, 0x5f, 0x4a, 0x3d, 0x57, 0xa6, 0xa1, 0xbe,
  0xac, 0x7b, 0xa1, 0xbd, 0xb6, 0x67, 0x6d, 0x3e, 0x66, 0xa6, 0xad, 0xbe,
  0x74, 0x38, 0x60, 0xbe, 0xa9, 0x70, 0x7f, 0xbe, 0x7c, 0xcd, 0x94, 0xbd,
  0x20, 0x7f, 0x8e, 0x3c, 0xd0, 0xa9, 0x60, 0xbe, 0xf6, 0x8a, 0x15, 0xbe,
  0x84, 0x88, 0xb3, 0xbe, 0xcb, 0xba, 0x89, 0x3e, 0x5e, 0x7d, 0x91, 0xbe,
  0xf9, 0x9a, 0x8c, 0xbe, 0x20, 0x29, 0xd2, 0x3c, 0x72, 0x82, 0x7b, 0xbe,
  0x79, 0x17, 0x92, 0xbe, 0xa8, 0x10, 0x3a, 0x3d, 0x9a, 0x21, 0x7a, 0xbe,
  0xf0, 0xe9, 0xe3, 0x3d, 0x80, 0xe1, 0xd6, 0x3d, 0x80, 0xce, 0x56, 0xbb,
  0x70, 0x3b, 0x9c, 0xbe, 0x3e, 0x95, 0x79, 0x3e, 0xa2, 0xf6, 0x66, 0xbe,
  0x23, 0x1a, 0x80, 0xbd, 0x22, 0xad, 0x7f, 0x3e, 0x2e, 0xba, 0xa3, 0x3e,
  0xe6, 0x09, 0x06, 0x3c, 0xa8, 0x20, 0x5d, 0xbd, 0xfa, 0x9b, 0xe6, 0x3d,
  0x62, 0x30, 0x8e, 0xbe, 0xc6, 0xac, 0xa4, 0xbd, 0x76, 0x64, 0xc9, 0x3e,
  0x06, 0x80, 0x8a, 0x3e, 0x60, 0xfb, 0x4a, 0xbe, 0x13, 0xfc, 0x54, 0xbe,
  0xfe, 0xe1, 0xb3, 0x3e, 0xe8, 0xe9, 0x73, 0xbe, 0x0f, 0x30, 0x4f, 0xbe,
  0x36, 0xd0, 0x00, 0x3e, 0x62, 0x53, 0x3d, 0x3d, 0xdb, 0xc6, 0xac, 0xbd,
  0x50, 0x27, 0x19, 0x3e, 0x56, 0xbb, 0x6a, 0x3d, 0x89, 0x7c, 0x0c, 0xbe,
  0xa4, 0x02, 0x09, 0x3e, 0x35, 0x23, 0xa3, 0x3d, 0x98, 0x6e, 0x62, 0xbe,
  0x11, 0x2b, 0x87, 0x3e, 0xc3, 0x8b, 0x67, 0x3e, 0xe8, 0x27, 0x50, 0x3d,
  0xc4, 0x5b, 0x4e, 0xbe, 0x2a, 0xd8, 0xe3, 0x3d, 0x15, 0x88, 0x63, 0x3e,
  0xf8, 0xf6, 0x0e, 0xbd, 0xa4, 0x34, 0x23, 0xbe, 0xbb, 0xa0, 0xc0, 0x3e,
  0x9a, 0xa0, 0x99, 0xbe, 0x10, 0x42, 0x90, 0x3e, 0x36, 0x60, 0xbc, 0x3e,
  0x1c, 0x81, 0xd0, 0xbd, 0xfe, 0x30, 0xa0, 0x3e, 0xde, 0xba, 0x67, 0xbe,
  0xae, 0x6c, 0x8d, 0xbc, 0xc9, 0x37, 0xc4, 0xbc, 0x14, 0x5d, 0x48, 0x3d,
  0xa7, 0x29, 0x94, 0x3e, 0x37, 0x07, 0x6d, 0xbe, 0x61, 0xa4, 0xe9, 0x3d,
  0x2b, 0x6f, 0x30, 0xbd, 0xd6, 0x08, 0xef, 0xbd, 0xbd, 0x16, 0x9d, 0x3e,
  0xfc, 0x14, 0x8e, 0x3d, 0xd8, 0x29, 0xfb, 0x3d, 0xa6, 0x33, 0xb9, 0xbd,
  0xc0, 0xb1, 0x0c, 0x3e, 0x35, 0xef, 0x00, 0xbe, 0xcf, 0x2a, 0xc3, 0xbd,
  0x14, 0x39, 0x61, 0x3b, 0x86, 0x60, 0x09, 0x3e, 0x9a, 0x3c, 0x4b, 0x3e,
  0xdb, 0xec, 0x86, 0x3c, 0x5a, 0x46, 0x04, 0x3e, 0x96, 0x32, 0x41, 0x3e,
  0x6a, 0x1c, 0x08, 0x3e, 0x7d, 0x8c, 0x05, 0x3e, 0x0c, 0xe7, 0x59, 0x3e,
  0x8c, 0x46, 0x2e, 0xbe, 0x08, 0x8c, 0xf0, 0x3d, 0xf4, 0xc2, 0x11, 0x3e,
  0x88, 0xd3, 0x0a, 0xbd, 0x79, 0xf4, 0x8f, 0xbe, 0x00, 0x7c, 0x52, 0xbc,
  0xc3, 0x3e, 0xb2, 0x3e, 0x30, 0x19, 0xcc, 0xbc, 0x6a, 0x5f, 0x98, 0xbe,
  0xda, 0x0b, 0x0e, 0x3e, 0x08, 0xa3, 0x5f, 0xbe, 0x7b, 0x6b, 0x9c, 0x3e,
  0x00, 0x97, 0x18, 0x3c, 0x00, 0x7c, 0xab, 0x3c, 0x20, 0xc8, 0xf4, 0x3c,
  0xcb, 0xfb, 0x98, 0x3e, 0xa0, 0x9d, 0xc5, 0x3c, 0xfa, 0x3a, 0x99, 0xbe,
  0x9f, 0x09, 0xad, 0x3e, 0x60, 0xaf, 0xec, 0xbd, 0x1a, 0x6e, 0xa1, 0x3e,
  0x60, 0xb2, 0x65, 0xbe, 0x85, 0x8c, 0x2f, 0xbe, 0x9a, 0x1b, 0x3c, 0xbc,
  0x2a, 0x14, 0x7e, 0x3e, 0x63, 0xb6, 0x54, 0xbe, 0x30, 0x17, 0x62, 0x3e,
  0x00, 0xf6, 0x15, 0xbb, 0x65, 0x92, 0xb8, 0x3d, 0x17, 0x85, 0x56, 0x3e,
  0x53, 0xb7, 0xde, 0xbe, 0x09, 0xff, 0xf9, 0xbc, 0x32, 0x36, 0x5c, 0x3e,
  0xd1, 0xb9, 0x91, 0xbe, 0xa4, 0xf1, 0xb1, 0x3e, 0x8d, 0x48, 0x7d, 0x3e,
  0xa7, 0x51, 0xfd, 0xbc, 0xf9, 0x38, 0x9b, 0xbe, 0x58, 0x2e, 0xa8, 0xbd,
  0x24, 0x27, 0xa1, 0x3d, 0x72, 0x9a, 0x35, 0x3c, 0x53, 0x4c, 0xbd, 0x3e,
  0xe0, 0x8c, 0x58, 0x3d, 0xe1, 0x07, 0x3f, 0xbe, 0x46, 0xc3, 0xc4, 0x3e,
  0xc8, 0x1f, 0x52, 0x3e, 0x35, 0x07, 0xbc, 0xbe, 0xc2, 0xb5, 0x8c, 0xbe,
  0x80, 0x89, 0x63, 0xbd, 0xb2, 0xb8, 0x1b, 0x3e, 0x5d, 0x12, 0xbc, 0xbd,
  0x95, 0xab, 0xa5, 0x3d, 0x89, 0x4b, 0x70, 0x3e, 0x8c, 0xb6, 0x90, 0x3e,
  0x2a, 0xcb, 0x25, 0xbe, 0x02, 0xd7, 0x1e, 0x3e, 0xff, 0xed, 0xa3, 0xbe,
  0x1e, 0x66, 0x43, 0xbe, 0xa6, 0x6b, 0x98, 0xbe, 0x8c, 0xb6, 0x8a, 0xbd,
  0x9d, 0x8a, 0x02, 0x3e, 0x09, 0xfa, 0xcb, 0x3e, 0xd3, 0xb4, 0xeb, 0x3c,
  0x75, 0x76, 0xa7, 0xbe, 0x90, 0x30, 0x06, 0x3d, 0x98, 0xa6, 0xec, 0x3d,
  0x18, 0x4e, 0xe5, 0xbd, 0x0b, 0x0d, 0xc5, 0x3e, 0x21, 0x1f, 0x18, 0x3c,
  0x02, 0xcd, 0x2e, 0x3e, 0xa8, 0xeb, 0xea, 0x3d, 0xef, 0xad, 0x80, 0x3d,
  0xf6, 0x59, 0xa0, 0xbd, 0x2f, 0x30, 0x13, 0xbe, 0x9e, 0x39, 0x1b, 0xbe,
  0x93, 0x8d, 0x96, 0x3e, 0x49, 0x6f, 0xdb, 0xbd, 0x37, 0x85, 0x26, 0x3e,
  0x80, 0x07, 0xb2, 0x3d, 0x78, 0x38, 0xd4, 0x3d, 0x6d, 0x25, 0x0c, 0xbe,
  0xc9, 0xf4, 0x77, 0x3e, 0x4f, 0x52, 0x91, 0xbc, 0x5d, 0x12, 0x1f, 0x3e,
  0x1c, 0x1d, 0x33, 0x3e, 0xaa, 0x6c, 0xaa, 0xbe, 0xe7, 0x4b, 0xa3, 0x3d,
  0x28, 0xd2, 0x12, 0x3e, 0xb1, 0xfa, 0x7b, 0xbe, 0xda, 0x3d, 0xc2, 0x3e,
  0x92, 0x2e, 0x1f, 0x3e, 0xca, 0xb4, 0x3b, 0xbe, 0xec, 0xe2, 0x82, 0x3e,
  0x87, 0x81, 0xb3, 0xbd, 0xe7, 0x8d, 0x24, 0xbe, 0x97, 0x35, 0x26, 0xbe,
  0x56, 0xa3, 0x5b, 0x3e, 0x82, 0x89, 0xec, 0x3c, 0x3d, 0xb5, 0xbd, 0x3e,
  0xc6, 0xb9, 0x53, 0x3e, 0x35, 0x48, 0xcb, 0x3e, 0x2d, 0x0a, 0x9a, 0x3d,
  0xa7, 0xf5, 0xaa, 0xbe, 0x51, 0xf9, 0xa1, 0xbd, 0x1d, 0xdd, 0x82, 0xbe,
  0xc1, 0xb4, 0x2b, 0x3e, 0xb1, 0xd1, 0xa8, 0x3e, 0xa2, 0x90, 0x22, 0x3e,
  0xb5, 0x20, 0xb1, 0x3d, 0xde, 0xec, 0x8f, 0x3e, 0xee, 0x80, 0x89, 0xbe,
  0xee, 0xff, 0x7c, 0xbe, 0xd2, 0xcb, 0x19, 0x3e, 0x70, 0x52, 0xf9, 0x3c,
  0x7f, 0x77, 0x94, 0xbe, 0xd5, 0x0f, 0x1e, 0xbe, 0xd9, 0x1e, 0x8b, 0xbe,
  0xb8, 0x28, 0xa1, 0xbd, 0xb2, 0xbb, 0x1b, 0xbe, 0xd5, 0x31, 0x9f, 0xbe,
  0x61, 0x74, 0x9f, 0xbe, 0x0b, 0x7b, 0x77, 0xbe, 0xe0, 0x35, 0x3a, 0xbd,
  0xef, 0x05, 0x88, 0x3e, 0x45, 0x85, 0x02, 0xbe, 0x86, 0xcb, 0x40, 0xbe,
  0x70, 0xde, 0xad, 0xbe, 0x74, 0x41, 0xbd, 0xbd, 0x20, 0x5e, 0x52, 0x3d,
  0xc9, 0xbc, 0x9e, 0xbe, 0x24, 0x54, 0xa5, 0xbd, 0x4a, 0x2e, 0x6b, 0x3e,
  0xf5, 0xdb, 0x1f, 0xbe, 0x28, 0x0d, 0x87, 0xbe, 0xf2, 0x83, 0x4e, 0x3e,
  0x6e, 0xc2, 0x7c, 0x3e, 0xd8, 0x2b, 0x04, 0x3d, 0x2c, 0x5c, 0x0a, 0x3e,
  0x30, 0x67, 0xa5, 0xbd, 0xe4, 0x10, 0xb1, 0xbe, 0xe3, 0x12, 0x3a, 0xbe,
  0x52, 0x8e, 0x2f, 0x3e, 0xc5, 0x45, 0xb3, 0xbe, 0x41, 0x65, 0x8a, 0xbe,
  0x88, 0x0c, 0x39, 0xbe, 0x72, 0x2d, 0x12, 0xbe, 0x0c, 0x1b, 0xae, 0xbd,
  0xd3, 0x29, 0x2d, 0xbe, 0xfa, 0x44, 0x7c, 0xbd, 0xb1, 0x7c, 0x91, 0x3e,
  0xe9, 0x34, 0x8b, 0x3e, 0x17, 0x70, 0x7e, 0xbe, 0x98, 0xb9, 0x47, 0x3d,
  0x09, 0x05, 0xaa, 0xbe, 0x8e, 0xdf, 0x4b, 0x3e, 0x80, 0x18, 0xd8, 0xbb,
  0x17, 0x08, 0x9a, 0x3e, 0x5e, 0xbb, 0x65, 0x3e, 0x96, 0x74, 0x3d, 0xbe,
  0x82, 0x41, 0xc6, 0xbd, 0x50, 0x47, 0x70, 0x3d, 0x00, 0x00, 0x06, 0x00,
  0x08, 0x00, 0x04, 0x00, 0x06, 0x00, 0x00, 0x00, 0x04, 0x00, 0x00, 0x00,
  0x00, 0x01, 0x00, 0x00, 0xec, 0x1d, 0xb3, 0x3e, 0xff, 0x21, 0xd4, 0x3e,
  0xc9, 0xed, 0x81, 0x3e, 0xc5, 0xa2, 0x7c, 0xbe, 0xd5, 0xf4, 0x91, 0x3e,
  0xfa, 0x18, 0x5e, 0xbe, 0x7c, 0x34, 0xd0, 0xbe, 0x39, 0x71, 0xd4, 0x3e,
  0x9d, 0x28, 0x9a, 0x3e, 0x71, 0xb3, 0xba, 0x3e, 0x86, 0x4e, 0xb6, 0xbe,
  0xc5, 0x13, 0xc5, 0x3c, 0x8f, 0x54, 0x8f, 0xbc, 0xb6, 0x20, 0xb1, 0xbe,
  0x08, 0x4b, 0x69, 0x3e, 0xc3, 0xb0, 0xaf, 0xbe, 0xb0, 0x4d, 0x00, 0xbe,
  0xa4, 0xea, 0x89, 0x3d, 0xaa, 0x9f, 0x90, 0x3e, 0x8b, 0x16, 0x7d, 0x3e,
  0x7f, 0x32, 0xeb, 0x3e, 0x9f, 0x6a, 0xdc, 0xbd, 0xb7, 0x30, 0xa3, 0xbe,
  0x90, 0x6e, 0xb4, 0xbc, 0x20, 0x1f, 0xe7, 0xbc, 0x67, 0x0e, 0xd2, 0x3e,
  0xb2, 0x92, 0x92, 0x3d, 0x6e, 0x2f, 0xaf, 0x3e, 0xfc, 0xf3, 0x98, 0x3d,
  0xf9, 0xa0, 0x96, 0x3e, 0xa3, 0xbe, 0xa2, 0x3e, 0x5f, 0x4f, 0x0c, 0xbd,
  0xdb, 0x09, 0x36, 0x3e, 0x56, 0x99, 0xc5, 0xbe, 0xd7, 0xbe, 0x92, 0xbe,
  0xa2, 0xd3, 0x86, 0x3e, 0x95, 0x3d, 0x39, 0xbd, 0x56, 0xe0, 0x04, 0x3e,
  0x9c, 0xb0, 0x1f, 0xbe, 0xff, 0xb3, 0x98, 0x3e, 0x88, 0xe0, 0xac, 0xbe,
  0x32, 0x14, 0x68, 0xbe, 0xaa, 0x92, 0xd7, 0xbd, 0xc8, 0x92, 0x64, 0xbc,
  0x45, 0x91, 0x73, 0xbd, 0x04, 0xd5, 0x19, 0xbe, 0xcf, 0x23, 0x5a, 0xbe,
  0xa3, 0xdd, 0x75, 0xbe, 0x8a, 0x7c, 0xd6, 0xbe, 0xfc, 0x01, 0xad, 0xbd,
  0xdf, 0x90, 0x71, 0x3e, 0x25, 0x3d, 0xd9, 0xbe, 0x90, 0x6c, 0x24, 0xbe,
  0xde, 0xa8, 0x8c, 0x3d, 0x1f, 0x74, 0x62, 0xbe, 0x7e, 0x06, 0xec, 0x3e,
  0x83, 0xc9, 0xe2, 0x3e, 0x22, 0x7f, 0x58, 0x3e, 0xf1, 0xe1, 0xef, 0xbd,
  0xa1, 0xf2, 0x84, 0x3e, 0x43, 0x95, 0xd2, 0x3e, 0x1e, 0x4d, 0xa1, 0xbe,
  0xbd, 0x02, 0x84, 0x3e, 0xe7, 0xe7, 0x9a, 0xbe, 0xd4, 0xf9, 0xff, 0xff,
  0xd8, 0xf9, 0xff, 0xff, 0x0f, 0x00, 0x00, 0x00, 0x4d, 0x4c, 0x49, 0x52,
  0x20, 0x43, 0x6f, 0x6e, 0x76, 0x65, 0x72, 0x74, 0x65, 0x64, 0x2e, 0x00,
  0x01, 0x00, 0x00, 0x00, 0x14, 0x00, 0x00, 0x00, 0x00, 0x00, 0x0e, 0x00,
  0x18, 0x00, 0x14, 0x00, 0x10, 0x00, 0x0c, 0x00, 0x08, 0x00, 0x04, 0x00,
  0x0e, 0x00, 0x00, 0x00, 0x14, 0x00, 0x00, 0x00, 0x1c, 0x00, 0x00, 0x00,
  0x10, 0x01, 0x00, 0x00, 0x14, 0x01, 0x00, 0x00, 0x18, 0x01, 0x00, 0x00,
  0x04, 0x00, 0x00, 0x00, 0x6d, 0x61, 0x69, 0x6e, 0x00, 0x00, 0x00, 0x00,
  0x04, 0x00, 0x00, 0x00, 0xb8, 0x00, 0x00, 0x00, 0x70, 0x00, 0x00, 0x00,
  0x38, 0x00, 0x00, 0x00, 0x04, 0x00, 0x00, 0x00, 0x66, 0xff, 0xff, 0xff,
  0x10, 0x00, 0x00, 0x00, 0x00, 0x00, 0x00, 0x08, 0x0c, 0x00, 0x00, 0x00,
  0x10, 0x00, 0x00, 0x00, 0x54, 0xfa, 0xff, 0xff, 0x01, 0x00, 0x00, 0x00,
  0x0c, 0x00, 0x00, 0x00, 0x03, 0x00, 0x00, 0x00, 0x0b, 0x00, 0x00, 0x00,
  0x01, 0x00, 0x00, 0x00, 0x04, 0x00, 0x00, 0x00, 0x96, 0xff, 0xff, 0xff,
  0x10, 0x00, 0x00, 0x00, 0x00, 0x00, 0x00, 0x08, 0x10, 0x00, 0x00, 0x00,
  0x14, 0x00, 0x00, 0x00, 0x86, 0xff, 0xff, 0xff, 0x00, 0x00, 0x00, 0x01,
  0x01, 0x00, 0x00, 0x00, 0x0b, 0x00, 0x00, 0x00, 0x03, 0x00, 0x00, 0x00,
  0x0a, 0x00, 0x00, 0x00, 0x02, 0x00, 0x00, 0x00, 0x05, 0x00, 0x00, 0x00,
  0xca, 0xff, 0xff, 0xff, 0x10, 0x00, 0x00, 0x00, 0x00, 0x00, 0x00, 0x08,
  0x10, 0x00, 0x00, 0x00, 0x14, 0x00, 0x00, 0x00, 0xba, 0xff, 0xff, 0xff,
  0x00, 0x00, 0x00, 0x01, 0x01, 0x00, 0x00, 0x00, 0x0a, 0x00, 0x00, 0x00,
  0x03, 0x00, 0x00, 0x00, 0x09, 0x00, 0x00, 0x00, 0x03, 0x00, 0x00, 0x00,
  0x06, 0x00, 0x00, 0x00, 0x00, 0x00, 0x0e, 0x00, 0x16, 0x00, 0x00, 0x00,
  0x10, 0x00, 0x0c, 0x00, 0x0b, 0x00, 0x04, 0x00, 0x0e, 0x00, 0x00, 0x00,
  0x18, 0x00, 0x00, 0x00, 0x00, 0x00, 0x00, 0x08, 0x18, 0x00, 0x00, 0x00,
  0x1c, 0x00, 0x00, 0x00, 0x00, 0x00, 0x06, 0x00, 0x08, 0x00, 0x07, 0x00,
  0x06, 0x00, 0x00, 0x00, 0x00, 0x00, 0x00, 0x01, 0x01, 0x00, 0x00, 0x00,
  0x09, 0x00, 0x00, 0x00, 0x03, 0x00, 0x00, 0x00, 0x00, 0x00, 0x00, 0x00,
  0x08, 0x00, 0x00, 0x00, 0x07, 0x00, 0x00, 0x00, 0x01, 0x00, 0x00, 0x00,
  0x0c, 0x00, 0x00, 0x00, 0x01, 0x00, 0x00, 0x00, 0x00, 0x00, 0x00, 0x00,
  0x0d, 0x00, 0x00, 0x00, 0xa0, 0x04, 0x00, 0x00, 0x48, 0x04, 0x00, 0x00,
  0xf0, 0x03, 0x00, 0x00, 0xb0, 0x03, 0x00, 0x00, 0x74, 0x03, 0x00, 0x00,
  0x38, 0x03, 0x00, 0x00, 0xfc, 0x02, 0x00, 0x00, 0xa0, 0x02, 0x00, 0x00,
  0x4c, 0x02, 0x00, 0x00, 0xa8, 0x01, 0x00, 0x00, 0x04, 0x01, 0x00, 0x00,
  0x60, 0x00, 0x00, 0x00, 0x04, 0x00, 0x00, 0x00, 0xaa, 0xfb, 0xff, 0xff,
  0x00, 0x00, 0x00, 0x01, 0x14, 0x00, 0x00, 0x00, 0x1c, 0x00, 0x00, 0x00,
  0x1c, 0x00, 0x00, 0x00, 0x0d, 0x00, 0x00, 0x00, 0x34, 0x00, 0x00, 0x00,
  0x02, 0x00, 0x00, 0x00, 0xff, 0xff, 0xff, 0xff, 0x02, 0x00, 0x00, 0x00,
  0x94, 0xfb, 0xff, 0xff, 0x1b, 0x00, 0x00, 0x00, 0x53, 0x74, 0x61, 0x74,
  0x65, 0x66, 0x75, 0x6c, 0x50, 0x61, 0x72, 0x74, 0x69, 0x74, 0x69, 0x6f,
  0x6e, 0x65, 0x64, 0x43, 0x61, 0x6c, 0x6c, 0x5f, 0x31, 0x3a, 0x30, 0x00,
  0x02, 0x00, 0x00, 0x00, 0x01, 0x00, 0x00, 0x00, 0x02, 0x00, 0x00, 0x00,
  0x02, 0xfc, 0xff, 0xff, 0x00, 0x00, 0x00, 0x01, 0x14, 0x00, 0x00, 0x00,
  0x1c, 0x00, 0x00, 0x00, 0x1c, 0x00, 0x00, 0x00, 0x0c, 0x00, 0x00, 0x00,
  0x7c, 0x00, 0x00, 0x00, 0x02, 0x00, 0x00, 0x00, 0xff, 0xff, 0xff, 0xff,
  0x20, 0x00, 0x00, 0x00, 0xec, 0xfb, 0xff, 0xff, 0x63, 0x00, 0x00, 0x00,
  0x73, 0x65, 0x71, 0x75, 0x65, 0x6e, 0x74, 0x69, 0x61, 0x6c, 0x5f, 0x31,
  0x38, 0x5f, 0x31, 0x2f, 0x64, 0x65, 0x6e, 0x73, 0x65, 0x5f, 0x31, 0x33,
  0x30, 0x5f, 0x31, 0x2f, 0x4d, 0x61, 0x74, 0x4d, 0x75, 0x6c, 0x3b, 0x73,
  0x65, 0x71, 0x75, 0x65, 0x6e, 0x74, 0x69, 0x61, 0x6c, 0x5f, 0x31, 0x38,
  0x5f, 0x31, 0x2f, 0x64, 0x65, 0x6e, 0x73, 0x65, 0x5f, 0x31, 0x33, 0x30,
  0x5f, 0x31, 0x2f, 0x52, 0x65, 0x6c, 0x75, 0x3b, 0x73, 0x65, 0x71, 0x75,
  0x65, 0x6e, 0x74, 0x69, 0x61, 0x6c, 0x5f, 0x31, 0x38, 0x5f, 0x31, 0x2f,
  0x64, 0x65, 0x6e, 0x73, 0x65, 0x5f, 0x31, 0x33, 0x30, 0x5f, 0x31, 0x2f,
  0x41, 0x64, 0x64, 0x00, 0x02, 0x00, 0x00, 0x00, 0x01, 0x00, 0x00, 0x00,
  0x20, 0x00, 0x00, 0x00, 0xa2, 0xfc, 0xff, 0xff, 0x00, 0x00, 0x00, 0x01,
  0x14, 0x00, 0x00, 0x00, 0x1c, 0x00, 0x00, 0x00, 0x1c, 0x00, 0x00, 0x00,
  0x0b, 0x00, 0x00, 0x00, 0x7c, 0x00, 0x00, 0x00, 0x02, 0x00, 0x00, 0x00,
  0xff, 0xff, 0xff, 0xff, 0x10, 0x00, 0x00, 0x00, 0x8c, 0xfc, 0xff, 0xff,
  0x63, 0x00, 0x00, 0x00, 0x73, 0x65, 0x71, 0x75, 0x65, 0x6e, 0x74, 0x69,
  0x61, 0x6c, 0x5f, 0x31, 0x38, 0x5f, 0x31, 0x2f, 0x64, 0x65, 0x6e, 0x73,
  0x65, 0x5f, 0x31, 0x32, 0x39, 0x5f, 0x31, 0x2f, 0x4d, 0x61, 0x74, 0x4d,
  0x75, 0x6c, 0x3b, 0x73, 0x65, 0x71, 0x75, 0x65, 0x6e, 0x74, 0x69, 0x61,
  0x6c, 0x5f, 0x31, 0x38, 0x5f, 0x31, 0x2f, 0x64, 0x65, 0x6e, 0x73, 0x65,
  0x5f, 0x31, 0x32, 0x39, 0x5f, 0x31, 0x2f, 0x52, 0x65, 0x6c, 0x75, 0x3b,
  0x73, 0x65, 0x71, 0x75, 0x65, 0x6e, 0x74, 0x69, 0x61, 0x6c, 0x5f, 0x31,
  0x38, 0x5f, 0x31, 0x2f, 0x64, 0x65, 0x6e, 0x73, 0x65, 0x5f, 0x31, 0x32,
  0x39, 0x5f, 0x31, 0x2f, 0x41, 0x64, 0x64, 0x00, 0x02, 0x00, 0x00, 0x00,
  0x01, 0x00, 0x00, 0x00, 0x10, 0x00, 0x00, 0x00, 0x42, 0xfd, 0xff, 0xff,
  0x00, 0x00, 0x00, 0x01, 0x14, 0x00, 0x00, 0x00, 0x1c, 0x00, 0x00, 0x00,
  0x1c, 0x00, 0x00, 0x00, 0x0a, 0x00, 0x00, 0x00, 0x7c, 0x00, 0x00, 0x00,
  0x02, 0x00, 0x00, 0x00, 0xff, 0xff, 0xff, 0xff, 0x20, 0x00, 0x00, 0x00,
  0x2c, 0xfd, 0xff, 0xff, 0x63, 0x00, 0x00, 0x00, 0x73, 0x65, 0x71, 0x75,
  0x65, 0x6e, 0x74, 0x69, 0x61, 0x6c, 0x5f, 0x31, 0x38, 0x5f, 0x31, 0x2f,
  0x64, 0x65, 0x6e, 0x73, 0x65, 0x5f, 0x31, 0x32, 0x38, 0x5f, 0x31, 0x2f,
  0x4d, 0x61, 0x74, 0x4d, 0x75, 0x6c, 0x3b, 0x73, 0x65, 0x71, 0x75, 0x65,
  0x6e, 0x74, 0x69, 0x61, 0x6c, 0x5f, 0x31, 0x38, 0x5f, 0x31, 0x2f, 0x64,
  0x65, 0x6e, 0x73, 0x65, 0x5f, 0x31, 0x32, 0x38, 0x5f, 0x31, 0x2f, 0x52,
  0x65, 0x6c, 0x75, 0x3b, 0x73, 0x65, 0x71, 0x75, 0x65, 0x6e, 0x74, 0x69,
  0x61, 0x6c, 0x5f, 0x31, 0x38, 0x5f, 0x31, 0x2f, 0x64, 0x65, 0x6e, 0x73,
  0x65, 0x5f, 0x31, 0x32, 0x38, 0x5f, 0x31, 0x2f, 0x41, 0x64, 0x64, 0x00,
  0x02, 0x00, 0x00, 0x00, 0x01, 0x00, 0x00, 0x00, 0x20, 0x00, 0x00, 0x00,
  0x36, 0xfe, 0xff, 0xff, 0x00, 0x00, 0x00, 0x01, 0x10, 0x00, 0x00, 0x00,
  0x10, 0x00, 0x00, 0x00, 0x09, 0x00, 0x00, 0x00, 0x30, 0x00, 0x00, 0x00,
  0xbc, 0xfd, 0xff, 0xff, 0x22, 0x00, 0x00, 0x00, 0x73, 0x65, 0x71, 0x75,
  0x65, 0x6e, 0x74, 0x69, 0x61, 0x6c, 0x5f, 0x31, 0x38, 0x5f, 0x31, 0x2f,
  0x64, 0x65, 0x6e, 0x73, 0x65, 0x5f, 0x31, 0x32, 0x38, 0x5f, 0x31, 0x2f,
  0x4d, 0x61, 0x74, 0x4d, 0x75, 0x6c, 0x00, 0x00, 0x02, 0x00, 0x00, 0x00,
  0x20, 0x00, 0x00, 0x00, 0x02, 0x00, 0x00, 0x00, 0x86, 0xfe, 0xff, 0xff,
  0x00, 0x00, 0x00, 0x01, 0x10, 0x00, 0x00, 0x00, 0x10, 0x00, 0x00, 0x00,
  0x08, 0x00, 0x00, 0x00, 0x3c, 0x00, 0x00, 0x00, 0x0c, 0xfe, 0xff, 0xff,
  0x2e, 0x00, 0x00, 0x00, 0x73, 0x65, 0x71, 0x75, 0x65, 0x6e, 0x74, 0x69,
  0x61, 0x6c, 0x5f, 0x31, 0x38, 0x5f, 0x31, 0x2f, 0x64, 0x65, 0x6e, 0x73,
  0x65, 0x5f, 0x31, 0x32, 0x38, 0x5f, 0x31, 0x2f, 0x41, 0x64, 0x64, 0x2f,
  0x52, 0x65, 0x61, 0x64, 0x56, 0x61, 0x72, 0x69, 0x61, 0x62, 0x6c, 0x65,
  0x4f, 0x70, 0x00, 0x00, 0x01, 0x00, 0x00, 0x00, 0x20, 0x00, 0x00, 0x00,
  0xde, 0xfe, 0xff, 0xff, 0x00, 0x00, 0x00, 0x01, 0x10, 0x00, 0x00, 0x00,
  0x10, 0x00, 0x00, 0x00, 0x07, 0x00, 0x00, 0x00, 0x1c, 0x00, 0x00, 0x00,
  0x64, 0xfe, 0xff, 0xff, 0x0f, 0x00, 0x00, 0x00, 0x61, 0x72, 0x69, 0x74,
  0x68, 0x2e, 0x63, 0x6f, 0x6e, 0x73, 0x74, 0x61, 0x6e, 0x74, 0x35, 0x00,
  0x01, 0x00, 0x00, 0x00, 0x10, 0x00, 0x00, 0x00, 0x16, 0xff, 0xff, 0xff,
  0x00, 0x00, 0x00, 0x01, 0x10, 0x00, 0x00, 0x00, 0x10, 0x00, 0x00, 0x00,
  0x06, 0x00, 0x00, 0x00, 0x1c, 0x00, 0x00, 0x00, 0x9c, 0xfe, 0xff, 0xff,
  0x0f, 0x00, 0x00, 0x00, 0x61, 0x72, 0x69, 0x74, 0x68, 0x2e, 0x63, 0x6f,
  0x6e, 0x73, 0x74, 0x61, 0x6e, 0x74, 0x34, 0x00, 0x01, 0x00, 0x00, 0x00,
  0x20, 0x00, 0x00, 0x00, 0x4e, 0xff, 0xff, 0xff, 0x00, 0x00, 0x00, 0x01,
  0x10, 0x00, 0x00, 0x00, 0x10, 0x00, 0x00, 0x00, 0x05, 0x00, 0x00, 0x00,
  0x1c, 0x00, 0x00, 0x00, 0xd4, 0xfe, 0xff, 0xff, 0x0f, 0x00, 0x00, 0x00,
  0x61, 0x72, 0x69, 0x74, 0x68, 0x2e, 0x63, 0x6f, 0x6e, 0x73, 0x74, 0x61,
  0x6e, 0x74, 0x33, 0x00, 0x01, 0x00, 0x00, 0x00, 0x02, 0x00, 0x00, 0x00,
  0x86, 0xff, 0xff, 0xff, 0x00, 0x00, 0x00, 0x01, 0x10, 0x00, 0x00, 0x00,
  0x10, 0x00, 0x00, 0x00, 0x04, 0x00, 0x00, 0x00, 0x1c, 0x00, 0x00, 0x00,
  0x0c, 0xff, 0xff, 0xff, 0x0f, 0x00, 0x00, 0x00, 0x61, 0x72, 0x69, 0x74,
  0x68, 0x2e, 0x63, 0x6f, 0x6e, 0x73, 0x74, 0x61, 0x6e, 0x74, 0x32, 0x00,
  0x02, 0x00, 0x00, 0x00, 0x10, 0x00, 0x00, 0x00, 0x20, 0x00, 0x00, 0x00,
  0xc2, 0xff, 0xff, 0xff, 0x00, 0x00, 0x00, 0x01, 0x10, 0x00, 0x00, 0x00,
  0x10, 0x00, 0x00, 0x00, 0x03, 0x00, 0x00, 0x00, 0x1c, 0x00, 0x00, 0x00,
  0x48, 0xff, 0xff, 0xff, 0x0f, 0x00, 0x00, 0x00, 0x61, 0x72, 0x69, 0x74,
  0x68, 0x2e, 0x63, 0x6f, 0x6e, 0x73, 0x74, 0x61, 0x6e, 0x74, 0x31, 0x00,
  0x02, 0x00, 0x00, 0x00, 0x20, 0x00, 0x00, 0x00, 0x10, 0x00, 0x00, 0x00,
  0x00, 0x00, 0x16, 0x00, 0x18, 0x00, 0x14, 0x00, 0x00, 0x00, 0x10, 0x00,
  0x0c, 0x00, 0x08, 0x00, 0x00, 0x00, 0x00, 0x00, 0x00, 0x00, 0x07, 0x00,
  0x16, 0x00, 0x00, 0x00, 0x00, 0x00, 0x00, 0x01, 0x10, 0x00, 0x00, 0x00,
  0x10, 0x00, 0x00, 0x00, 0x02, 0x00, 0x00, 0x00, 0x1c, 0x00, 0x00, 0x00,
  0x9c, 0xff, 0xff, 0xff, 0x0e, 0x00, 0x00, 0x00, 0x61, 0x72, 0x69, 0x74,
  0x68, 0x2e, 0x63, 0x6f, 0x6e, 0x73, 0x74, 0x61, 0x6e, 0x74, 0x00, 0x00,
  0x02, 0x00, 0x00, 0x00, 0x02, 0x00, 0x00, 0x00, 0x20, 0x00, 0x00, 0x00,
  0x00, 0x00, 0x16, 0x00, 0x1c, 0x00, 0x18, 0x00, 0x00, 0x00, 0x14, 0x00,
  0x10, 0x00, 0x0c, 0x00, 0x00, 0x00, 0x00, 0x00, 0x08, 0x00, 0x07, 0x00,
  0x16, 0x00, 0x00, 0x00, 0x00, 0x00, 0x00, 0x01, 0x14, 0x00, 0x00, 0x00,
  0x20, 0x00, 0x00, 0x00, 0x20, 0x00, 0x00, 0x00, 0x01, 0x00, 0x00, 0x00,
  0x40, 0x00, 0x00, 0x00, 0x02, 0x00, 0x00, 0x00, 0xff, 0xff, 0xff, 0xff,
  0x02, 0x00, 0x00, 0x00, 0x04, 0x00, 0x04, 0x00, 0x04, 0x00, 0x00, 0x00,
  0x20, 0x00, 0x00, 0x00, 0x73, 0x65, 0x72, 0x76, 0x69, 0x6e, 0x67, 0x5f,
  0x64, 0x65, 0x66, 0x61, 0x75, 0x6c, 0x74, 0x5f, 0x69, 0x6e, 0x70, 0x75,
  0x74, 0x5f, 0x6c, 0x61, 0x79, 0x65, 0x72, 0x5f, 0x32, 0x38, 0x3a, 0x30,
  0x00, 0x00, 0x00, 0x00, 0x02, 0x00, 0x00, 0x00, 0x01, 0x00, 0x00, 0x00,
  0x02, 0x00, 0x00, 0x00, 0x01, 0x00, 0x00, 0x00, 0x10, 0x00, 0x00, 0x00,
  0x0c, 0x00, 0x0c, 0x00, 0x0b, 0x00, 0x00, 0x00, 0x00, 0x00, 0x04, 0x00,
  0x0c, 0x00, 0x00, 0x00, 0x09, 0x00, 0x00, 0x00, 0x00, 0x00, 0x00, 0x09
};
unsigned int anomaly_detection_model_tflite_len = 7212;
