unsigned char anomaly_detection_model_tflite[] = {
  0x1c, 0x00, 0x00, 0x00, 0x54, 0x46, 0x4c, 0x33, 0x14, 0x00, 0x20, 0x00,
  0x1c, 0x00, 0x18, 0x00, 0x14, 0x00, 0x10, 0x00, 0x0c, 0x00, 0x00, 0x00,
  0x08, 0x00, 0x04, 0x00, 0x14, 0x00, 0x00, 0x00, 0x1c, 0x00, 0x00, 0x00,
  0x98, 0x00, 0x00, 0x00, 0xf0, 0x00, 0x00, 0x00, 0x60, 0x25, 0x00, 0x00,
  0x70, 0x25, 0x00, 0x00, 0x64, 0x29, 0x00, 0x00, 0x03, 0x00, 0x00, 0x00,
  0x01, 0x00, 0x00, 0x00, 0x10, 0x00, 0x00, 0x00, 0x00, 0x00, 0x0a, 0x00,
  0x10, 0x00, 0x0c, 0x00, 0x08, 0x00, 0x04, 0x00, 0x0a, 0x00, 0x00, 0x00,
  0x0c, 0x00, 0x00, 0x00, 0x1c, 0x00, 0x00, 0x00, 0x3c, 0x00, 0x00, 0x00,
  0x0f, 0x00, 0x00, 0x00, 0x73, 0x65, 0x72, 0x76, 0x69, 0x6e, 0x67, 0x5f,
  0x64, 0x65, 0x66, 0x61, 0x75, 0x6c, 0x74, 0x00, 0x01, 0x00, 0x00, 0x00,
  0x04, 0x00, 0x00, 0x00, 0x90, 0xff, 0xff, 0xff, 0x06, 0x00, 0x00, 0x00,
  0x04, 0x00, 0x00, 0x00, 0x08, 0x00, 0x00, 0x00, 0x6f, 0x75, 0x74, 0x70,
  0x75, 0x74, 0x5f, 0x30, 0x00, 0x00, 0x00, 0x00, 0x01, 0x00, 0x00, 0x00,
  0x04, 0x00, 0x00, 0x00, 0xae, 0xdb, 0xff, 0xff, 0x04, 0x00, 0x00, 0x00,
  0x0c, 0x00, 0x00, 0x00, 0x6b, 0x65, 0x72, 0x61, 0x73, 0x5f, 0x74, 0x65,
  0x6e, 0x73, 0x6f, 0x72, 0x00, 0x00, 0x00, 0x00, 0x02, 0x00, 0x00, 0x00,
  0x34, 0x00, 0x00, 0x00, 0x04, 0x00, 0x00, 0x00, 0xdc, 0xff, 0xff, 0xff,
  0x09, 0x00, 0x00, 0x00, 0x04, 0x00, 0x00, 0x00, 0x13, 0x00, 0x00, 0x00,
  0x43, 0x4f, 0x4e, 0x56, 0x45, 0x52, 0x53, 0x49, 0x4f, 0x4e, 0x5f, 0x4d,
  0x45, 0x54, 0x41, 0x44, 0x41, 0x54, 0x41, 0x00, 0x08, 0x00, 0x0c, 0x00,
  0x08, 0x00, 0x04, 0x00, 0x08, 0x00, 0x00, 0x00, 0x08, 0x00, 0x00, 0x00,
  0x04, 0x00, 0x00, 0x00, 0x13, 0x00, 0x00, 0x00, 0x6d, 0x69, 0x6e, 0x5f,
  0x72, 0x75, 0x6e, 0x74, 0x69, 0x6d, 0x65, 0x5f, 0x76, 0x65, 0x72, 0x73,
  0x69, 0x6f, 0x6e, 0x00, 0x0a, 0x00, 0x00, 0x00, 0x6c, 0x24, 0x00, 0x00,
  0x64, 0x24, 0x00, 0x00, 0xd4, 0x23, 0x00, 0x00, 0xbc, 0x03, 0x00, 0x00,
  0xac, 0x00, 0x00, 0x00, 0xa4, 0x00, 0x00, 0x00, 0x9c, 0x00, 0x00, 0x00,
  0x94, 0x00, 0x00, 0x00, 0x74, 0x00, 0x00, 0x00, 0x04, 0x00, 0x00, 0x00,
  0x52, 0xdc, 0xff, 0xff, 0x04, 0x00, 0x00, 0x00, 0x60, 0x00, 0x00, 0x00,
  0x10, 0x00, 0x00, 0x00, 0x00, 0x00, 0x00, 0x00, 0x08, 0x00, 0x0e, 0x00,
  0x08, 0x00, 0x04, 0x00, 0x08, 0x00, 0x00, 0x00, 0x10, 0x00, 0x00, 0x00,
  0x24, 0x00, 0x00, 0x00, 0x00, 0x00, 0x06, 0x00, 0x08, 0x00, 0x04, 0x00,
  0x06, 0x00, 0x00, 0x00, 0x04, 0x00, 0x00, 0x00, 0x00, 0x00, 0x00, 0x00,
  0x0c, 0x00, 0x18, 0x00, 0x14, 0x00, 0x10, 0x00, 0x0c, 0x00, 0x04, 0x00,
  0x0c, 0x00, 0x00, 0x00, 0x81, 0x43, 0x0e, 0x27, 0x75, 0x5c, 0xb2, 0x2f,
  0x02, 0x00, 0x00, 0x00, 0x02, 0x00, 0x00, 0x00, 0x04, 0x00, 0x00, 0x00,
  0x06, 0x00, 0x00, 0x00, 0x32, 0x2e, 0x31, 0x37, 0x2e, 0x30, 0x00, 0x00,
  0xbe, 0xdc, 0xff, 0xff, 0x04, 0x00, 0x00, 0x00, 0x10, 0x00, 0x00, 0x00,
  0x31, 0x2e, 0x35, 0x2e, 0x30, 0x00, 0x00, 0x00, 0x00, 0x00, 0x00, 0x00,
  0x00, 0x00, 0x00, 0x00, 0x6c, 0xd8, 0xff, 0xff, 0x70, 0xd8, 0xff, 0xff,
  0x74, 0xd8, 0xff, 0xff, 0xe6, 0xdc, 0xff, 0xff, 0x04, 0x00, 0x00, 0x00,
  0x00, 0x03, 0x00, 0x00, 0x10, 0x57, 0xe8, 0x3c, 0xc0, 0xfa, 0x11, 0x3e,
  0xbc, 0xc1, 0xce, 0x3d, 0x10, 0x19, 0x85, 0xbc, 0x50, 0x84, 0x81, 0xbe,
  0x64, 0xce, 0x78, 0xbd, 0xdc, 0x28, 0xed, 0xbd, 0xcc, 0xae, 0x26, 0x3e,
  0x2a, 0x27, 0x89, 0x3e, 0xaf, 0xcc, 0x6f, 0xbe, 0x9c, 0xd8, 0x24, 0x3e,
  0xe2, 0xf7, 0x43, 0x3e, 0xc8, 0x39, 0xb4, 0x3d, 0xb2, 0x75, 0x4e, 0xbe,
  0x0c, 0x1c, 0x57, 0x3e, 0x88, 0xff, 0x95, 0xbe, 0x40, 0x2e, 0x37, 0xbd,
  0xf8, 0x01, 0x0b, 0x3e, 0x86, 0xc1, 0xf1, 0xbd, 0xd8, 0xd3, 0x47, 0xbe,
  0xa0, 0xee, 0xbd, 0x3c, 0xd4, 0x6e, 0x6d, 0x3e, 0xa7, 0x17, 0x99, 0xbe,
  0x00, 0x24, 0x3b, 0xbc, 0x30, 0x12, 0x0c, 0x3d, 0x40, 0x0f, 0x87, 0xbe,
  0xd4, 0x7e, 0x17, 0x3e, 0x86, 0xb3, 0x43, 0x3e, 0x00, 0x8c, 0xc5, 0xbb,
  0x74, 0xcb, 0x5a, 0x3e, 0x50, 0xd2, 0x19, 0xbd, 0xce, 0x2d, 0xea, 0xbd,
  0xf8, 0x41, 0x71, 0xbd, 0xa8, 0xba, 0x76, 0xbe, 0xee, 0xdb, 0x76, 0xbe,
  0xf4, 0x32, 0x7c, 0xbe, 0xfa, 0x5a, 0x35, 0xbe, 0x28, 0x12, 0x98, 0x3e,
  0x4a, 0xe0, 0xcd, 0xbd, 0x3e, 0xbb, 0x12, 0xbe, 0x3d, 0x42, 0x8b, 0xbe,
  0xd8, 0x61, 0x5a, 0x3e, 0xa6, 0xf9, 0x7f, 0xbe, 0xb0, 0xb7, 0x96, 0x3c,
  0x68, 0x4d, 0xed, 0x3d, 0xe4, 0xe0, 0x10, 0x3e, 0x42, 0x54, 0xee, 0xbd,
  0x00, 0x22, 0x8e, 0x3e, 0x10, 0x2b, 0x55, 0x3d, 0x6e, 0x88, 0x88, 0x3e,
  0x52, 0x81, 0x8f, 0xbd, 0x9c, 0x7a, 0x97, 0xbe, 0x40, 0x22, 0x91, 0x3d,
  0x5a, 0x3f, 0x91, 0x3e, 0x8c, 0xc2, 0x68, 0x3e, 0xfc, 0x59, 0x4d, 0xbe,
  0x00, 0x16, 0x4a, 0xba, 0xa8, 0xe5, 0x6e, 0x3e, 0x90, 0x77, 0x67, 0x3d,
  0x48, 0x04, 0xba, 0x3d, 0xb4, 0x7a, 0x72, 0xbe, 0x6e, 0x69, 0x84, 0x3e,
  0xcc, 0x80, 0xdf, 0x3d, 0x14, 0xba, 0x21, 0x3e, 0x64, 0x54, 0xe5, 0x3d,
  0x38, 0xc2, 0x36, 0x3d, 0xf0, 0xdd, 0x2a, 0xbd, 0xdc, 0xf7, 0x99, 0x3d,
  0xd0, 0x8a, 0x31, 0x3d, 0xc1, 0x18, 0x90, 0xbe, 0x1c, 0x95, 0x8f, 0xbe,
  0x60, 0x0f, 0xb8, 0x3d, 0x2b, 0xda, 0x92, 0xbe, 0xdc, 0x24, 0x71, 0xbe,
  0xb0, 0xc6, 0x09, 0x3e, 0xf0, 0xc2, 0x0c, 0x3e, 0x9a, 0xcd, 0xfb, 0xbd,
  0xa4, 0xf2, 0x4c, 0xbd, 0x1a, 0x0a, 0x12, 0x3e, 0xc0, 0x01, 0x89, 0x3b,
  0x10, 0xb8, 0xba, 0xbd, 0x7c, 0xe2, 0x8e, 0x3e, 0x7c, 0x67, 0x8a, 0xbe,
  0x58, 0xfd, 0x8d, 0x3d, 0x84, 0x12, 0x07, 0x3e, 0x94, 0x9e, 0x39, 0x3e,
  0x94, 0x9a, 0x4e, 0x3e, 0xc2, 0x5e, 0x29, 0x3e, 0x56, 0xb3, 0x96, 0xbd,
  0x30, 0xb4, 0x3e, 0x3d, 0x40, 0x4b, 0x56, 0xbd, 0xa8, 0xff, 0x8a, 0xbe,
  0xa0, 0x22, 0x9e, 0xbc, 0x90, 0x1c, 0x3f, 0x3e, 0x90, 0x6b, 0xeb, 0x3c,
  0xb4, 0x81, 0x0c, 0x3e, 0x60, 0x2d, 0x09, 0xbe, 0x00, 0x02, 0x89, 0x3e,
  0x48, 0xd5, 0x91, 0xbd, 0x24, 0x63, 0x7b, 0x3e, 0x20, 0x8c, 0x6d, 0x3d,
  0xd8, 0x27, 0x75, 0x3e, 0x04, 0x64, 0x6b, 0x3e, 0xfc, 0x58, 0x61, 0x3e,
  0xda, 0x09, 0x4e, 0xbe, 0x82, 0x62, 0x52, 0xbe, 0x6c, 0xf5, 0x57, 0xbe,
  0xa8, 0xa5, 0x97, 0xbd, 0xb4, 0xe9, 0x08, 0xbe, 0xf8, 0x0d, 0x39, 0x3d,
  0x5a, 0x78, 0x87, 0xbe, 0xa8, 0xb6, 0xb1, 0x3d, 0x8c, 0x86, 0x84, 0x3d,
  0xe0, 0x33, 0x1d, 0xbc, 0xf2, 0x37, 0x8d, 0xbd, 0x5c, 0x3c, 0xcb, 0x3d,
  0x3f, 0x00, 0x8c, 0xbe, 0xec, 0xeb, 0x89, 0xbe, 0xf4, 0xd6, 0xf8, 0xbd,
  0x48, 0x37, 0x0b, 0xbd, 0xa6, 0x8e, 0x89, 0xbd, 0x00, 0x7e, 0xf9, 0xba,
  0x5c, 0x9a, 0x7d, 0x3e, 0x56, 0xc9, 0x8e, 0x3e, 0xf8, 0x31, 0x41, 0xbd,
  0x14, 0x59, 0xfe, 0x3d, 0x70, 0x7e, 0x8e, 0x3e, 0x5d, 0xe2, 0x88, 0xbe,
  0x00, 0xe0, 0x80, 0xbb, 0x6a, 0x82, 0x90, 0x3e, 0x48, 0xb8, 0xf8, 0x3d,
  0x08, 0x23, 0x27, 0xbd, 0x88, 0x02, 0x79, 0x3e, 0xe8, 0x66, 0x96, 0x3d,
  0x58, 0x08, 0xaa, 0xbd, 0xc0, 0xaa, 0x4a, 0xbe, 0x40, 0xaa, 0xdd, 0x3c,
  0x54, 0x72, 0x8f, 0x3e, 0xe9, 0x61, 0x83, 0xbe, 0x14, 0xa8, 0x92, 0xbe,
  0x58, 0x40, 0x6d, 0x3d, 0xfe, 0xa2, 0x8b, 0x3e, 0xd0, 0x70, 0x2c, 0xbd,
  0x25, 0x0c, 0x81, 0xbe, 0xf4, 0x06, 0x0c, 0xbe, 0x9e, 0xb4, 0x2a, 0x3e,
  0xe2, 0xbe, 0x85, 0x3e, 0x38, 0xc8, 0x7a, 0x3e, 0x5f, 0x56, 0x15, 0xbe,
  0xb2, 0xf8, 0x8d, 0x3e, 0x04, 0x5b, 0x70, 0x3e, 0x8c, 0xed, 0x4b, 0xbd,
  0x80, 0xaa, 0x48, 0x3d, 0x2e, 0xfe, 0x10, 0x3e, 0x3d, 0x9f, 0x8f, 0xbe,
  0x00, 0xa2, 0xdc, 0xba, 0xe0, 0x5c, 0xb0, 0x3d, 0x7c, 0x3d, 0x88, 0xbe,
  0x95, 0x00, 0x20, 0xbe, 0x4a, 0xc2, 0x31, 0x3e, 0x08, 0x98, 0x74, 0xbd,
  0x50, 0x32, 0xc5, 0xbc, 0x3c, 0x95, 0x02, 0x3e, 0x40, 0x93, 0x83, 0xbb,
  0xc4, 0x93, 0x84, 0xbe, 0xb8, 0x2c, 0x65, 0xbe, 0xe0, 0x41, 0x80, 0x3e,
  0x58, 0xeb, 0x86, 0x3d, 0x74, 0x7c, 0x38, 0xbe, 0x8e, 0x11, 0x4e, 0xbe,
  0x40, 0xde, 0x67, 0x3e, 0xd8, 0xb6, 0x3f, 0xbe, 0x94, 0x74, 0x7f, 0xbe,
  0xc8, 0x47, 0x38, 0xbe, 0xce, 0x8d, 0x05, 0x3e, 0x00, 0x1b, 0x6f, 0xbe,
  0x8c, 0x84, 0x85, 0x3d, 0xf8, 0x73, 0x6d, 0x3e, 0xd1, 0xed, 0x87, 0xbe,
  0xf4, 0x42, 0x50, 0x3e, 0xe0, 0x83, 0x9a, 0xbd, 0xf2, 0x29, 0x84, 0xbe,
  0x44, 0x1c, 0x6b, 0x3e, 0x5a, 0xf2, 0x32, 0x3e, 0x1b, 0xf4, 0x8f, 0xbe,
  0x00, 0xe3, 0x99, 0x3c, 0x0e, 0x48, 0x83, 0xbe, 0xba, 0x07, 0x80, 0x3e,
  0x4a, 0x68, 0x17, 0xbe, 0x1a, 0xd4, 0x16, 0x3e, 0x02, 0x23, 0x95, 0xbd,
  0x90, 0x7a, 0x4b, 0x3e, 0xf2, 0xdf, 0xff, 0xff, 0x04, 0x00, 0x00, 0x00,
  0x00, 0x20, 0x00, 0x00, 0xc0, 0x24, 0x89, 0x3c, 0x3c, 0x4c, 0x34, 0xbe,
  0xe0, 0xe9, 0xa3, 0x3d, 0x80, 0x26, 0x0c, 0xbc, 0x20, 0xe5, 0x26, 0xbd,
  0x20, 0xe8, 0xb3, 0xbd, 0xa0, 0x74, 0x06, 0xbe, 0x18, 0x86, 0x26, 0xbe,
  0x80, 0xda, 0x9b, 0x3b, 0x88, 0x56, 0x14, 0xbe, 0x80, 0xd8, 0x78, 0xbc,
  0x68, 0xee, 0xeb, 0xbd, 0xe0, 0x3b, 0x49, 0xbd, 0x3c, 0x98, 0x18, 0xbe,
  0xf4, 0x5c, 0x39, 0xbe, 0x00, 0xe2, 0x94, 0x3d, 0x60, 0x7f, 0xc8, 0xbd,
  0x80, 0x6b, 0x23, 0xbd, 0x1c, 0xb0, 0x01, 0xbe, 0x30, 0x09, 0x7e, 0x3e,
  0x68, 0x7b, 0xaf, 0x3d, 0x24, 0x85, 0x7f, 0x3e, 0x14, 0xb4, 0x3b, 0x3e,
  0x14, 0x1a, 0x0d, 0x3e, 0x00, 0x18, 0x1d, 0xba, 0xb8, 0xf5, 0xea, 0xbd,
  0x48, 0x20, 0x43, 0x3e, 0x0c, 0x60, 0x38, 0x3e, 0x34, 0xf4, 0x6c, 0x3e,
  0x14, 0xfd, 0x23, 0xbe, 0x18, 0x3d, 0x0f, 0xbe, 0x48, 0xaa, 0x82, 0xbd,
  0x60, 0x7e, 0x93, 0xbc, 0x44, 0x8c, 0x43, 0x3e, 0x80, 0x17, 0x34, 0x3d,
  0x00, 0xc3, 0xc9, 0x3c, 0xf8, 0xaf, 0x1f, 0x3e, 0x50, 0xcf, 0xa0, 0xbd,
  0xd0, 0xd9, 0x98, 0xbd, 0x90, 0x37, 0x73, 0x3e, 0xe0, 0xfc, 0x2f, 0xbe,
  0x2c, 0x18, 0x53, 0x3e, 0x38, 0x26, 0xa3, 0x3d, 0x6c, 0x93, 0x49, 0x3e,
  0x40, 0x69, 0x9f, 0xbd, 0xf0, 0x1c, 0x6c, 0xbe, 0x10, 0x7f, 0x19, 0xbe,
  0x30, 0x8a, 0x22, 0x3e, 0x30, 0x38, 0x5b, 0x3e, 0xcc, 0x89, 0x21, 0xbe,
  0xc0, 0xd5, 0x4d, 0x3e, 0xc0, 0xe5, 0x50, 0x3e, 0x80, 0xd5, 0x56, 0x3d,
  0xb0, 0xc7, 0xdb, 0xbd, 0xb0, 0x41, 0x25, 0x3d, 0xf4, 0x2b, 0x6a, 0x3e,
  0xcc, 0x11, 0x0c, 0xbe, 0xa8, 0x2a, 0x7b, 0x3e, 0xa0, 0x73, 0x4e, 0xbe,
  0x40, 0x24, 0x2f, 0x3e, 0x88, 0x62, 0x83, 0xbd, 0xf8, 0xf8, 0x4c, 0xbe,
  0xe4, 0xa3, 0x78, 0xbe, 0xf0, 0xc0, 0x7b, 0x3d, 0x2c, 0x05, 0x01, 0xbe,
  0xa0, 0xfd, 0xe1, 0x3d, 0xd8, 0x86, 0x9d, 0xbd, 0x00, 0x03, 0x3f, 0x3e,
  0x08, 0xbb, 0x3a, 0x3e, 0x40, 0x15, 0x1c, 0xbd, 0x70, 0x22, 0x3f, 0xbd,
  0x80, 0x55, 0x38, 0xbe, 0x38, 0xd9, 0xe2, 0x3d, 0x80, 0x66, 0x0d, 0xbc,
  0x50, 0xf0, 0x4a, 0xbe, 0x00, 0xa2, 0x7e, 0x3e, 0xbc, 0xe1, 0x14, 0xbe,
  0xe4, 0xb4, 0x26, 0xbe, 0xe4, 0x95, 0x79, 0x3e, 0x30, 0xeb, 0xf0, 0x3d,
  0x7c, 0x05, 0x3f, 0x3e, 0x00, 0xc8, 0x6d, 0x3b, 0x58, 0x69, 0xdc, 0xbd,
  0x2c, 0xee, 0x7c, 0xbe, 0x40, 0x5d, 0x69, 0x3c, 0x18, 0xed, 0xd1, 0x3d,
  0xec, 0x1c, 0x3b, 0x3e, 0xc8, 0x8d, 0x60, 0x3e, 0x74, 0xcf, 0x7e, 0x3e,
  0x10, 0xe9, 0x7c, 0x3e, 0xbc, 0xf6, 0x63, 0xbe, 0x08, 0xbc, 0xcc, 0xbd,
  0x00, 0xc6, 0x77, 0x3b, 0x2c, 0x8e, 0x34, 0x3e, 0x30, 0x3e, 0x2b, 0xbe,
  0xa0, 0xdb, 0x4b, 0x3e, 0x34, 0x75, 0x5e, 0x3e, 0x18, 0x91, 0xe7, 0xbd,
  0x00, 0xf3, 0x51, 0xbd, 0x90, 0x5a, 0x5d, 0xbd, 0x34, 0x81, 0x22, 0xbe,
  0x84, 0xa8, 0x2d, 0x3e, 0x40, 0x5f, 0x1f, 0xbe, 0x64, 0xcc, 0x6d, 0x3e,
  0xdc, 0xf4, 0x2d, 0x3e, 0x18, 0xff, 0x63, 0xbe, 0xc0, 0x15, 0xee, 0xbd,
  0x90, 0xe2, 0x2e, 0x3e, 0x08, 0xc1, 0x98, 0xbd, 0x00, 0x77, 0xe1, 0x3c,
  0x50, 0xa1, 0xa5, 0x3d, 0x60, 0xcc, 0x79, 0x3e, 0x6c, 0xf7, 0x0b, 0x3e,
  0xd0, 0x54, 0xc0, 0xbd, 0x40, 0x20, 0x0d, 0xbe, 0xac, 0x84, 0x6d, 0x3e,
  0x34, 0x49, 0x7e, 0xbe, 0xa0, 0x6f, 0x48, 0x3d, 0xa0, 0x54, 0x5e, 0xbd,
  0xb8, 0x71, 0x9f, 0xbd, 0x28, 0x58, 0x1e, 0x3e, 0x30, 0x08, 0x0c, 0xbe,
  0x58, 0x23, 0x85, 0xbd, 0x78, 0xb5, 0x52, 0x3e, 0xf0, 0x77, 0x78, 0xbd,
  0xd0, 0x4f, 0x67, 0x3e, 0xf0, 0x11, 0xf8, 0x3d, 0x28, 0x25, 0x1f, 0xbe,
  0x10, 0x98, 0x17, 0xbd, 0x68, 0xfd, 0xea, 0x3d, 0x80, 0x85, 0x9b, 0x3c,
  0x80, 0xb9, 0xc7, 0xbc, 0x90, 0x28, 0x03, 0x3e, 0x90, 0xba, 0x31, 0xbd,
  0x00, 0x42, 0xcd, 0xba, 0x34, 0x86, 0x1b, 0xbe, 0x18, 0x15, 0x6a, 0xbe,
  0xf0, 0x70, 0xe7, 0xbd, 0x74, 0x82, 0x05, 0x3e, 0x00, 0xe1, 0x5b, 0xbe,
  0xa8, 0xb1, 0xac, 0xbd, 0x90, 0x28, 0x26, 0xbe, 0x00, 0xb8, 0xaf, 0xbc,
  0x40, 0x1a, 0x17, 0x3d, 0x00, 0xc8, 0xf7, 0x3a, 0x64, 0x2b, 0x67, 0x3e,
  0x88, 0xba, 0xa4, 0xbd, 0x84, 0x9f, 0x60, 0xbe, 0x98, 0xf5, 0x66, 0xbe,
  0xe8, 0x60, 0x4f, 0xbe, 0xcc, 0xb0, 0x57, 0xbe, 0x78, 0x50, 0xb3, 0xbd,
  0xfc, 0xbb, 0x68, 0x3e, 0x48, 0xf8, 0x93, 0xbd, 0xc0, 0x8d, 0x2e, 0xbd,
  0x18, 0xbe, 0xe0, 0x3d, 0x54, 0x7d, 0x5a, 0xbe, 0xe0, 0x14, 0x8c, 0x3c,
  0x00, 0x60, 0xcd, 0x3a, 0x94, 0xf4, 0x47, 0xbe, 0xb8, 0xa1, 0x9e, 0xbd,
  0xd0, 0x3a, 0x63, 0x3e, 0xe8, 0x50, 0x7a, 0x3e, 0x1c, 0x03, 0x1c, 0x3e,
  0x60, 0x6e, 0xfb, 0xbc, 0x40, 0x8e, 0x25, 0x3c, 0x8c, 0xe1, 0x37, 0xbe,
  0x74, 0x91, 0x3f, 0x3e, 0xfc, 0xc7, 0x09, 0x3e, 0x3c, 0x63, 0x0c, 0x3e,
  0xb8, 0x56, 0x2a, 0x3e, 0x00, 0x0f, 0x9c, 0xbc, 0xe4, 0x61, 0x7b, 0xbe,
  0x54, 0xd3, 0x31, 0xbe, 0xd4, 0x31, 0x07, 0xbe, 0x10, 0x08, 0xa2, 0x3d,
  0x30, 0x58, 0xeb, 0x3d, 0x78, 0x70, 0x5e, 0xbe, 0x4c, 0x91, 0x65, 0x3e,
  0xc0, 0x9d, 0x5f, 0x3d, 0x80, 0x4a, 0xb7, 0xbc, 0x80, 0x88, 0x90, 0xbc,
  0x24, 0xf1, 0x76, 0xbe, 0x44, 0x26, 0x7a, 0xbe, 0x3c, 0xa7, 0x2e, 0x3e,
  0x00, 0x0a, 0x56, 0x3c, 0x80, 0x9e, 0xda, 0x3c, 0x58, 0xa7, 0xa2, 0x3d,
  0xf4, 0x1f, 0x2a, 0x3e, 0x60, 0x42, 0xbc, 0xbd, 0x80, 0x18, 0x25, 0xbe,
  0x40, 0x31, 0x99, 0xbd, 0x50, 0x44, 0x76, 0xbe, 0x50, 0xd2, 0xe6, 0xbd,
  0xf0, 0xb1, 0x4d, 0x3e, 0x54, 0xd0, 0x2b, 0x3e, 0x70, 0xfb, 0x44, 0xbe,
  0x34, 0x39, 0x2a, 0xbe, 0xd8, 0xf2, 0x23, 0xbe, 0x98, 0x3c, 0x81, 0xbd,
  0xd8, 0x1b, 0xec, 0xbd, 0x90, 0xd7, 0xb4, 0xbd, 0xec, 0x07, 0x2d, 0xbe,
  0xdc, 0x28, 0x3b, 0x3e, 0x30, 0x78, 0x0a, 0x3e, 0x40, 0x9b, 0x2a, 0xbc,
  0xa8, 0x6a, 0xd0, 0xbd, 0x20, 0x62, 0x33, 0xbd, 0xd8, 0x96, 0x40, 0x3e,
  0xe0, 0x0e, 0xd6, 0x3c, 0x80, 0xb1, 0xde, 0x3b, 0x70, 0xa9, 0x4a, 0xbe,
  0x7c, 0xe6, 0x62, 0xbe, 0xb4, 0xa3, 0x7c, 0x3e, 0x24, 0xc6, 0x5e, 0xbe,
  0x9c, 0xb7, 0x49, 0x3e, 0x88, 0x40, 0x83, 0xbd, 0x08, 0x8c, 0x0f, 0x3e,
  0xe0, 0x0e, 0x76, 0x3e, 0x80, 0x1a, 0xa8, 0x3b, 0x6c, 0xcc, 0x62, 0xbe,
  0xc0, 0xa4, 0xac, 0x3d, 0x40, 0xc0, 0xbc, 0x3d, 0x24, 0x5d, 0x08, 0x3e,
  0xa8, 0xeb, 0xe1, 0xbd, 0x20, 0xce, 0xd0, 0xbd, 0xc8, 0x34, 0x00, 0xbe,
  0xc0, 0x82, 0xe3, 0x3c, 0xdc, 0xdc, 0x4b, 0xbe, 0x90, 0x85, 0xf8, 0x3d,
  0x40, 0xbd, 0xe0, 0x3c, 0x00, 0x59, 0x38, 0xbe, 0x1c, 0xf9, 0x79, 0x3e,
  0x2c, 0xaa, 0x48, 0xbe, 0xcc, 0xe9, 0x1f, 0xbe, 0xd8, 0x03, 0xe9, 0x3d,
  0x90, 0x4a, 0x8c, 0xbd, 0x4c, 0x6d, 0x46, 0x3e, 0x00, 0x44, 0xdc, 0x3c,
  0xa0, 0x27, 0x8b, 0x3d, 0xf0, 0xb7, 0x4b, 0xbe, 0xa4, 0x22, 0x3b, 0xbe,
  0x20, 0x57, 0xe0, 0x3c, 0x80, 0xff, 0x96, 0xbb, 0xa0, 0x96, 0x2d, 0x3d,
  0xb8, 0xbf, 0xf2, 0x3d, 0xf4, 0x58, 0x5d, 0xbe, 0x6c, 0x78, 0x07, 0xbe,
  0x60, 0x41, 0x99, 0x3d, 0x80, 0xac, 0x97, 0x3c, 0x40, 0x91, 0x99, 0x3c,
  0x80, 0xb9, 0xfd, 0x3d, 0x80, 0x44, 0xc4, 0xbc, 0xf8, 0x58, 0xb4, 0xbd,
  0x40, 0x98, 0xd7, 0xbd, 0x08, 0xdb, 0xbb, 0x3d, 0x58, 0x10, 0x21, 0x3e,
  0x1c, 0x5e, 0x77, 0x3e, 0x18, 0x2f, 0xa3, 0x3d, 0x08, 0xd4, 0xa7, 0x3d,
  0x54, 0xe4, 0x08, 0x3e, 0x18, 0x3c, 0x25, 0x3e, 0x80, 0x63, 0xac, 0xbb,
  0xcc, 0x24, 0x21, 0xbe, 0xc8, 0xcd, 0xf7, 0x3d, 0xa8, 0x78, 0x75, 0xbe,
  0x90, 0x3e, 0xb5, 0x3d, 0xb0, 0xa2, 0x22, 0x3e, 0xd0, 0xaf, 0xb0, 0xbd,
  0xe0, 0x16, 0xe2, 0x3c, 0x00, 0xa6, 0xb5, 0x3b, 0x58, 0x5d, 0x74, 0xbe,
  0x70, 0xe9, 0x45, 0x3e, 0xc4, 0x6f, 0x6f, 0xbe, 0x58, 0x12, 0x93, 0xbd,
  0xb4, 0xbe, 0x22, 0xbe, 0x84, 0xe3, 0x3d, 0xbe, 0xc0, 0x8b, 0x8c, 0x3c,
  0x00, 0x68, 0x4a, 0xbb, 0xe4, 0x19, 0x7c, 0xbe, 0xd0, 0xc0, 0x6f, 0x3d,
  0x40, 0x84, 0x21, 0xbe, 0x30, 0xc0, 0x39, 0xbe, 0x3c, 0x19, 0x7e, 0xbe,
  0xcc, 0xe8, 0x1f, 0x3e, 0x70, 0x39, 0x55, 0x3d, 0x84, 0x15, 0x1e, 0x3e,
  0x78, 0x12, 0xd2, 0xbd, 0x40, 0x4b, 0x45, 0xbd, 0x38, 0x1c, 0xfa, 0x3d,
  0xb0, 0x8a, 0xd4, 0x3d, 0x20, 0x36, 0xe0, 0x3c, 0x90, 0x0b, 0x5a, 0x3e,
  0xec, 0x46, 0x06, 0xbe, 0x88, 0x76, 0xf8, 0x3d, 0x2c, 0x70, 0x1b, 0xbe,
  0xc8, 0x7b, 0xf8, 0x3d, 0x38, 0x8e, 0x37, 0x3e, 0x20, 0xe0, 0x70, 0x3e,
  0xa8, 0xde, 0x55, 0xbe, 0x20, 0x07, 0xd3, 0xbd, 0x10, 0x0d, 0xa3, 0x3d,
  0x10, 0xb1, 0x3f, 0xbd, 0x40, 0x18, 0x39, 0xbc, 0x7c, 0xf6, 0x21, 0xbe,
  0x48, 0x6f, 0x5e, 0x3e, 0x68, 0x03, 0xc2, 0x3d, 0x4c, 0x6a, 0x7c, 0x3e,
  0xbc, 0xba, 0x5c, 0xbe, 0x20, 0xbf, 0xfb, 0x3c, 0x00, 0x98, 0xf6, 0xba,
  0x04, 0x36, 0x52, 0x3e, 0xd0, 0xfb, 0x8f, 0x3d, 0x60, 0x9c, 0x70, 0x3e,
  0x80, 0x9e, 0x8a, 0x3b, 0x14, 0x18, 0x7a, 0xbe, 0xc0, 0xe0, 0x0f, 0x3c,
  0xc0, 0x14, 0x32, 0x3d, 0xec, 0x8c, 0x26, 0x3e, 0x7c, 0xbf, 0x54, 0x3e,
  0x60, 0x4b, 0x74, 0x3e, 0x80, 0xce, 0x15, 0x3c, 0xe0, 0x3c, 0x63, 0xbe,
  0x80, 0x25, 0x59, 0xbd, 0x74, 0x9d, 0x01, 0xbe, 0xf0, 0x22, 0x3b, 0xbe,
  0x40, 0x1d, 0x84, 0x3d, 0x80, 0xbd, 0x90, 0x3c, 0xd4, 0xd2, 0x06, 0xbe,
  0x80, 0xb4, 0x00, 0xbc, 0x54, 0xfc, 0x75, 0xbe, 0xe0, 0x47, 0x04, 0xbe,
  0xa0, 0xf6, 0x64, 0xbd, 0x24, 0x59, 0x0f, 0xbe, 0x00, 0xf5, 0xdf, 0x3d,
  0xa8, 0x6a, 0x30, 0xbe, 0x90, 0xac, 0x07, 0x3e, 0x60, 0x3e, 0x45, 0xbe,
  0x50, 0xe6, 0x29, 0x3e, 0x20, 0x76, 0x20, 0xbe, 0x50, 0x8a, 0x76, 0x3e,
  0xd0, 0xd9, 0xe2, 0xbd, 0x10, 0x04, 0x40, 0xbd, 0x00, 0x11, 0xf3, 0xbd,
  0x3c, 0x6a, 0x0e, 0xbe, 0xb8, 0xe5, 0x8d, 0xbd, 0x78, 0x36, 0x1f, 0x3e,
  0x30, 0x59, 0xdc, 0x3d, 0x00, 0x7c, 0x6f, 0xbb, 0x04, 0x98, 0x3b, 0x3e,
  0x78, 0x78, 0xe2, 0xbd, 0x40, 0x12, 0x8b, 0xbd, 0xdc, 0x00, 0x7a, 0xbe,
  0xc0, 0x94, 0x81, 0x3d, 0x90, 0xde, 0x05, 0xbd, 0x94, 0x6a, 0x2c, 0x3e,
  0x70, 0x79, 0xee, 0x3d, 0x00, 0xf2, 0xd1, 0x3a, 0xc4, 0x21, 0x35, 0xbe,
  0x20, 0x4e, 0x45, 0x3e, 0x10, 0x8f, 0x70, 0xbd, 0xf0, 0x47, 0x42, 0x3d,
  0x88, 0x62, 0xe9, 0xbd, 0xb8, 0x67, 0xa7, 0x3d, 0xf0, 0x36, 0x79, 0x3d,
  0xf0, 0xd8, 0x23, 0x3e, 0x34, 0xda, 0x56, 0xbe, 0x18, 0x0f, 0x90, 0x3d,
  0x08, 0x3c, 0x2d, 0x3e, 0xe8, 0x62, 0x5f, 0x3e, 0x08, 0xc0, 0xc5, 0x3d,
  0xa0, 0x4f, 0xea, 0xbc, 0xdc, 0x9b, 0x1e, 0xbe, 0xe0, 0x2b, 0x3c, 0xbe,
  0x6c, 0x7d, 0x1b, 0xbe, 0xd0, 0x9e, 0xfd, 0x3d, 0x28, 0xc2, 0xb9, 0x3d,
  0x0c, 0x88, 0x3a, 0xbe, 0x68, 0x35, 0x32, 0x3e, 0xe0, 0x7a, 0xb3, 0xbc,
  0xe8, 0xe3, 0xdb, 0xbd, 0x98, 0x32, 0x15, 0x3e, 0x8c, 0xed, 0x2f, 0xbe,
  0xec, 0x65, 0x03, 0xbe, 0xe0, 0xd2, 0x66, 0xbd, 0x34, 0x9b, 0x0a, 0xbe,
  0xec, 0x14, 0x75, 0xbe, 0x5c, 0xe5, 0x51, 0x3e, 0x24, 0xdb, 0x42, 0x3e,
  0x38, 0xe8, 0xfa, 0xbd, 0xd8, 0xf6, 0x81, 0x3d, 0x20, 0x95, 0x76, 0xbd,
  0x80, 0xa6, 0x15, 0x3c, 0x14, 0x9e, 0x16, 0xbe, 0x4c, 0xeb, 0x59, 0xbe,
  0x88, 0xcb, 0xdb, 0x3d, 0x94, 0xb5, 0x66, 0x3e, 0x00, 0x5e, 0xa5, 0x3d,
  0x64, 0xd5, 0x0c, 0x3e, 0x40, 0xb4, 0xe0, 0x3d, 0x00, 0xb4, 0x89, 0xbb,
  0x8c, 0x96, 0x18, 0xbe, 0xc0, 0x21, 0xf3, 0xbc, 0xd8, 0x30, 0x5e, 0x3e,
  0xe0, 0xf0, 0xed, 0x3c, 0x40, 0xb0, 0xfc, 0x3d, 0x40, 0x92, 0x1f, 0xbc,
  0x40, 0x85, 0x3d, 0xbd, 0x10, 0x3b, 0x9e, 0xbd, 0xb0, 0xe0, 0x03, 0xbd,
  0x80, 0xd9, 0xf5, 0x3b, 0x28, 0x1c, 0x02, 0xbe, 0x88, 0xb6, 0xeb, 0xbd,
  0xa0, 0xbf, 0x12, 0xbd, 0x10, 0xd0, 0x31, 0xbd, 0x80, 0x84, 0x7d, 0x3e,
  0x80, 0xdd, 0x5e, 0xbd, 0x24, 0xd7, 0x7b, 0x3e, 0xf8, 0xd3, 0x6f, 0x3e,
  0x08, 0x09, 0xe4, 0x3d, 0x88, 0xa1, 0x99, 0x3d, 0x58, 0x2e, 0x83, 0xbd,
  0x48, 0x53, 0xe4, 0x3d, 0x40, 0x12, 0xc7, 0x3c, 0xd8, 0x6f, 0xb2, 0xbd,
  0x00, 0xed, 0x75, 0xbc, 0xc0, 0x75, 0x7f, 0xbd, 0xc0, 0xd8, 0xbe, 0x3d,
  0x00, 0xb7, 0xbe, 0x3d, 0xe0, 0x28, 0xbe, 0xbc, 0x28, 0x5a, 0x7a, 0xbe,
  0xd8, 0x41, 0x69, 0xbe, 0x18, 0xc9, 0x39, 0xbe, 0x9c, 0x11, 0x19, 0xbe,
  0xe8, 0xa9, 0xac, 0xbd, 0x6c, 0x50, 0x68, 0x3e, 0xe8, 0x4d, 0xe3, 0xbd,
  0xb4, 0xb6, 0x24, 0x3e, 0x88, 0x99, 0x26, 0x3e, 0xfc, 0x1a, 0x63, 0x3e,
  0x40, 0x8f, 0x76, 0xbe, 0x54, 0xe6, 0x4b, 0xbe, 0x34, 0x5d, 0x20, 0xbe,
  0xf0, 0x38, 0xa9, 0x3d, 0x00, 0xbc, 0x58, 0x3e, 0x10, 0x80, 0xbb, 0xbd,
  0x90, 0x0b, 0x1d, 0xbd, 0x5c, 0x63, 0x3f, 0x3e, 0x00, 0x48, 0x7d, 0xbb,
  0x14, 0xd8, 0x66, 0x3e, 0x88, 0x97, 0x75, 0x3e, 0xc0, 0xe0, 0x08, 0xbe,
  0x40, 0x80, 0x01, 0xbe, 0xd4, 0xa1, 0x59, 0x3e, 0x60, 0x6f, 0x38, 0xbd,
  0xc0, 0xc2, 0xce, 0x3d, 0x80, 0x17, 0x62, 0xbd, 0xbc, 0x91, 0x4f, 0x3e,
  0x20, 0x8f, 0x98, 0x3d, 0x40, 0x5b, 0xbe, 0x3c, 0x7c, 0xcd, 0x2a, 0xbe,
  0x74, 0x24, 0x29, 0x3e, 0xc8, 0x3a, 0xe1, 0x3d, 0x88, 0x4a, 0x54, 0x3e,
  0x08, 0x70, 0xbb, 0xbd, 0x70, 0x9f, 0x5d, 0xbe, 0x40, 0x32, 0xbd, 0x3d,
  0x74, 0xb0, 0x51, 0x3e, 0x40, 0xb6, 0x6b, 0x3d, 0x48, 0xea, 0x84, 0xbd,
  0x50, 0xcd, 0x64, 0x3e, 0xe0, 0x6f, 0x6a, 0x3d, 0x18, 0xbf, 0x8c, 0x3d,
  0xd0, 0x18, 0x50, 0x3d, 0x8c, 0xfb, 0x2e, 0xbe, 0x58, 0x10, 0x2b, 0x3e,
  0xa0, 0x5f, 0x3f, 0xbd, 0xe0, 0xb1, 0xf5, 0x3c, 0xe8, 0x0a, 0x9a, 0x3d,
  0x80, 0x98, 0x98, 0xbb, 0x80, 0xa6, 0xbb, 0x3c, 0xf0, 0x6e, 0x5a, 0x3e,
  0xb8, 0xdb, 0x51, 0xbe, 0x20, 0x9e, 0x25, 0x3d, 0xb0, 0xeb, 0x23, 0xbe,
  0x58, 0xae, 0x48, 0xbe, 0x50, 0x44, 0x5e, 0xbd, 0x30, 0xbf, 0x7d, 0xbe,
  0x74, 0x8d, 0x7e, 0x3e, 0x00, 0x93, 0xf1, 0x3b, 0x1c, 0x29, 0x40, 0xbe,
  0x68, 0x5d, 0xc2, 0x3d, 0xe0, 0x75, 0xa9, 0xbd, 0x74, 0x4e, 0x50, 0x3e,
  0x6c, 0xef, 0x0c, 0xbe, 0x28, 0x34, 0x35, 0xbe, 0x20, 0x9f, 0xe8, 0x3c,
  0x90, 0x88, 0xf9, 0x3d, 0x28, 0x7c, 0xd8, 0x3d, 0xc0, 0x92, 0x9d, 0xbd,
  0x08, 0x13, 0xce, 0xbd, 0xe4, 0x30, 0x7f, 0x3e, 0x28, 0x1b, 0xe6, 0x3d,
  0x68, 0xfd, 0x84, 0xbd, 0x40, 0xe0, 0x89, 0xbd, 0xc0, 0x45, 0x11, 0x3d,
  0x20, 0x3d, 0xf4, 0x3c, 0xf8, 0xb2, 0x81, 0x3d, 0x30, 0x0b, 0xd4, 0xbd,
  0x28, 0x4b, 0x8e, 0x3d, 0x44, 0x64, 0x6d, 0xbe, 0x60, 0x28, 0x60, 0xbd,
  0xb4, 0x14, 0x44, 0xbe, 0x80, 0xb6, 0x03, 0xbe, 0xd8, 0xb6, 0x00, 0x3e,
  0x70, 0xde, 0xf1, 0xbd, 0x20, 0x15, 0xf6, 0x3c, 0x80, 0xc6, 0xf0, 0xbb,
  0x00, 0xc5, 0x1b, 0xbe, 0x00, 0xac, 0x9f, 0x3b, 0x34, 0xdf, 0x66, 0xbe,
  0x50, 0x58, 0x46, 0x3e, 0x28, 0x3f, 0x48, 0xbe, 0x30, 0xc3, 0xfe, 0x3d,
  0x00, 0xa6, 0x84, 0x3a, 0x84, 0x8f, 0x2b, 0xbe, 0x84, 0xf4, 0x46, 0x3e,
  0x7c, 0x48, 0x2d, 0x3e, 0xe0, 0x5c, 0x80, 0xbd, 0x40, 0xf4, 0xe0, 0x3c,
  0x10, 0x92, 0xef, 0xbd, 0x60, 0xfa, 0x69, 0x3e, 0xd4, 0xfb, 0x71, 0xbe,
  0xd0, 0x2e, 0x7f, 0xbe, 0xf8, 0x4c, 0xda, 0xbd, 0x70, 0xb1, 0x4c, 0xbd,
  0x58, 0x31, 0xda, 0x3d, 0x40, 0xb9, 0x6b, 0xbe, 0xd8, 0x57, 0xf1, 0x3d,
  0x00, 0x51, 0x20, 0x3e, 0x84, 0x96, 0x4e, 0xbe, 0xc8, 0x3e, 0x7f, 0x3e,
  0xe0, 0x88, 0xef, 0x3c, 0x80, 0x33, 0xb8, 0xbb, 0x28, 0x2d, 0x34, 0x3e,
  0xb0, 0x52, 0xbd, 0x3d, 0xc0, 0x54, 0x0c, 0x3e, 0x58, 0x9c, 0xa1, 0xbd,
  0xc0, 0x21, 0x68, 0xbd, 0x00, 0x84, 0x07, 0xbb, 0x8c, 0x60, 0x0f, 0x3e,
  0x4c, 0x67, 0x38, 0xbe, 0xf0, 0xda, 0xe6, 0x3d, 0xbc, 0x35, 0x5e, 0x3e,
  0x80, 0x48, 0x90, 0x3d, 0xc0, 0xfa, 0x45, 0xbe, 0xe0, 0x69, 0x5e, 0x3e,
  0x60, 0xa5, 0x3a, 0xbd, 0x00, 0x3e, 0xc5, 0xba, 0x68, 0x15, 0x4d, 0xbe,
  0x60, 0x59, 0xef, 0x3d, 0x60, 0x72, 0xa0, 0x3d, 0x08, 0x07, 0xc9, 0xbd,
  0xe0, 0xc8, 0x7f, 0x3e, 0x04, 0xf1, 0x09, 0xbe, 0xb8, 0x9e, 0xab, 0xbd,
  0x54, 0xd4, 0x1e, 0x3e, 0x50, 0xe3, 0x03, 0x3d, 0x80, 0x19, 0xf9, 0xbd,
  0x00, 0xe7, 0xf7, 0x3b, 0xb0, 0xf1, 0x00, 0x3e, 0x14, 0x65, 0x6c, 0x3e,
  0x38, 0x21, 0x60, 0xbe, 0x88, 0x02, 0x62, 0xbe, 0x08, 0x98, 0xad, 0xbd,
  0x84, 0x51, 0x70, 0xbe, 0xa0, 0xa3, 0x05, 0x3e, 0xd0, 0x54, 0xb6, 0x3d,
  0x80, 0xe8, 0x98, 0xbd, 0x08, 0x7c, 0x43, 0x3e, 0x18, 0x05, 0xb8, 0xbd,
  0xe0, 0x53, 0x4e, 0x3d, 0x78, 0x61, 0x1e, 0x3e, 0x14, 0xc5, 0x02, 0x3e,
  0x40, 0x8e, 0x82, 0x3c, 0x18, 0xef, 0x1a, 0xbe, 0xc8, 0x09, 0xd0, 0xbd,
  0x64, 0xae, 0x5c, 0x3e, 0x1c, 0x38, 0x53, 0xbe, 0xdc, 0x8a, 0x1e, 0xbe,
  0x24, 0x4a, 0x01, 0xbe, 0xf0, 0x6f, 0x84, 0x3d, 0x28, 0xe9, 0xb1, 0xbd,
  0x10, 0x5e, 0xf1, 0x3d, 0xd0, 0x93, 0x37, 0x3d, 0xb0, 0x9e, 0xcd, 0x3d,
  0xb0, 0xa8, 0x98, 0xbd, 0xf0, 0x26, 0x39, 0xbd, 0xc0, 0xc2, 0xb0, 0x3c,
  0x50, 0x82, 0x0b, 0x3d, 0xd0, 0x40, 0x3c, 0x3d, 0x00, 0xfb, 0x56, 0xbb,
  0x08, 0x5f, 0xa5, 0xbd, 0x80, 0x1d, 0x67, 0xbd, 0x00, 0xde, 0x1c, 0xbd,
  0x80, 0x91, 0x72, 0xbc, 0x00, 0xdd, 0x78, 0xbb, 0xa0, 0xc4, 0xaa, 0xbd,
  0x30, 0x38, 0xb7, 0x3d, 0xd0, 0x5c, 0xfc, 0xbd, 0x3c, 0xf6, 0x4b, 0xbe,
  0x48, 0x68, 0xba, 0x3d, 0x60, 0x14, 0x5a, 0xbe, 0x00, 0x41, 0x8d, 0x3d,
  0x48, 0x2e, 0x8f, 0x3d, 0x4c, 0x09, 0x47, 0x3e, 0xe8, 0xa1, 0x35, 0xbe,
  0x90, 0x5e, 0x37, 0x3d, 0x78, 0xb4, 0x24, 0x3e, 0xc0, 0x2f, 0xf7, 0x3d,
  0x08, 0x4f, 0xf3, 0x3d, 0x10, 0x62, 0x51, 0xbe, 0xa0, 0xd9, 0x77, 0xbd,
  0xa0, 0x16, 0x98, 0xbc, 0x40, 0xe5, 0x04, 0xbe, 0x88, 0x2a, 0xbe, 0x3d,
  0x90, 0xdf, 0x1e, 0xbe, 0x00, 0x2d, 0x67, 0xbb, 0xc4, 0x1c, 0x6b, 0xbe,
  0x80, 0x00, 0xc5, 0xbd, 0xb0, 0xcb, 0x73, 0x3d, 0xd0, 0x10, 0x4d, 0xbe,
  0xc4, 0xc1, 0x09, 0xbe, 0x00, 0xb4, 0xca, 0xba, 0x70, 0xdf, 0x79, 0x3d,
  0xc0, 0x5a, 0x24, 0x3c, 0xc8, 0x40, 0x97, 0xbd, 0xc0, 0x25, 0xf3, 0x3d,
  0x50, 0xb3, 0x00, 0x3d, 0x08, 0x6f, 0xc7, 0x3d, 0x4c, 0xb6, 0x7c, 0x3e,
  0x04, 0xd8, 0x58, 0x3e, 0x00, 0x62, 0x3e, 0xbb, 0xb4, 0x11, 0x72, 0x3e,
  0x38, 0xa5, 0x72, 0x3e, 0xa0, 0x2f, 0xf2, 0x3c, 0xa0, 0x28, 0x2f, 0x3d,
  0x28, 0x75, 0x03, 0x3e, 0x70, 0xfb, 0xd1, 0x3d, 0x58, 0x23, 0xa1, 0x3d,
  0x38, 0x67, 0x9b, 0x3d, 0xcc, 0x3a, 0x12, 0x3e, 0xb4, 0x4c, 0x02, 0xbe,
  0xb0, 0x5d, 0xd6, 0x3d, 0x18, 0xad, 0xb3, 0x3d, 0x74, 0xc1, 0x35, 0x3e,
  0x00, 0x50, 0xef, 0xbb, 0x50, 0xb4, 0x08, 0x3e, 0x48, 0xd5, 0xe1, 0x3d,
  0x90, 0x23, 0xb5, 0x3d, 0x30, 0xef, 0x02, 0x3d, 0x88, 0x50, 0xae, 0xbd,
  0xd4, 0x32, 0x3c, 0xbe, 0x90, 0xd1, 0x71, 0xbe, 0xf8, 0xdc, 0x45, 0x3e,
  0xb0, 0xa2, 0xe1, 0x3d, 0x90, 0x8a, 0x6a, 0xbd, 0x2c, 0xaa, 0x6e, 0xbe,
  0xa0, 0x1e, 0xe0, 0xbc, 0x20, 0x37, 0xef, 0xbd, 0xa4, 0x6d, 0x64, 0x3e,
  0x60, 0xab, 0x94, 0xbd, 0xe4, 0x7e, 0x78, 0x3e, 0xe0, 0x06, 0xf0, 0x3d,
  0x80, 0x44, 0xb6, 0xbc, 0xf0, 0x42, 0xe7, 0x3d, 0x10, 0x58, 0x70, 0x3d,
  0x60, 0x70, 0x94, 0xbd, 0x28, 0xbc, 0x03, 0xbe, 0x80, 0x87, 0x87, 0xbd,
  0xd0, 0x4f, 0x7c, 0x3d, 0x60, 0xad, 0x79, 0x3e, 0x08, 0x71, 0x04, 0x3e,
  0x88, 0x5a, 0xef, 0x3d, 0x58, 0x1d, 0x45, 0xbe, 0x84, 0x3b, 0x72, 0x3e,
  0xf0, 0x96, 0x0b, 0xbe, 0x60, 0x3b, 0x59, 0xbe, 0x60, 0xc1, 0x45, 0xbe,
  0x80, 0x34, 0x1b, 0xbd, 0xc0, 0x9c, 0x2f, 0xbd, 0x00, 0x42, 0x45, 0x3b,
  0xac, 0x8a, 0x75, 0xbe, 0xc0, 0x63, 0xc8, 0x3d, 0xb0, 0xbe, 0x4d, 0x3e,
  0x4c, 0xa6, 0x08, 0x3e, 0x38, 0x7d, 0x73, 0xbe, 0x08, 0x31, 0x4c, 0xbe,
  0x50, 0x1f, 0xeb, 0x3d, 0xac, 0x46, 0x09, 0x3e, 0x20, 0x4f, 0xf6, 0xbd,
  0xc0, 0x55, 0x39, 0xbd, 0xc8, 0x5d, 0x88, 0x3d, 0x90, 0xd2, 0xcb, 0xbd,
  0x00, 0x20, 0xbb, 0xb9, 0x2c, 0xbf, 0x3f, 0xbe, 0x98, 0xea, 0x20, 0x3e,
  0x60, 0x6a, 0x19, 0xbd, 0x9c, 0x0c, 0x61, 0xbe, 0x30, 0x3d, 0x08, 0x3e,
  0x48, 0x02, 0x85, 0x3d, 0xf8, 0xab, 0xf1, 0xbd, 0x20, 0xaf, 0xa8, 0xbd,
  0xc0, 0xa4, 0x3d, 0x3d, 0x40, 0xd4, 0x6f, 0xbd, 0x08, 0x9b, 0xcc, 0x3d,
  0x78, 0x92, 0xda, 0xbd, 0xa4, 0x1b, 0x7c, 0xbe, 0xc0, 0xe6, 0x4f, 0x3c,
  0xe4, 0xe7, 0x52, 0x3e, 0xb0, 0x44, 0x6b, 0xbe, 0x90, 0xa9, 0xd8, 0xbd,
  0x60, 0xcb, 0x3d, 0xbd, 0xc0, 0x33, 0xc6, 0xbc, 0x88, 0xa6, 0x16, 0xbe,
  0x40, 0xcd, 0x9e, 0xbd, 0xf4, 0x32, 0x74, 0xbe, 0x64, 0xcc, 0x54, 0x3e,
  0xc0, 0x6b, 0x99, 0x3c, 0x74, 0xad, 0x2a, 0x3e, 0x40, 0xb8, 0x15, 0xbc,
  0xa0, 0xc0, 0x56, 0xbd, 0xd0, 0x48, 0x58, 0x3e, 0x00, 0xf0, 0x4e, 0xbc,
  0x30, 0x37, 0xe7, 0xbd, 0xf0, 0x72, 0xfe, 0xbd, 0x24, 0x14, 0x47, 0xbe,
  0x50, 0x38, 0x1b, 0x3e, 0x98, 0x49, 0x20, 0x3e, 0x50, 0x1d, 0x36, 0x3e,
  0x38, 0x54, 0x99, 0xbd, 0xd8, 0xe5, 0x03, 0x3e, 0x44, 0x21, 0x56, 0xbe,
  0x28, 0x42, 0xd3, 0xbd, 0x08, 0xd1, 0x99, 0x3d, 0x90, 0xa8, 0x0f, 0x3d,
  0x10, 0x07, 0x27, 0xbe, 0x10, 0xb5, 0x1b, 0xbd, 0x68, 0x98, 0x7b, 0xbe,
  0x30, 0x67, 0x7d, 0x3d, 0xd8, 0x17, 0x8d, 0xbd, 0x98, 0x9e, 0x61, 0x3e,
  0x64, 0x6f, 0x67, 0xbe, 0x94, 0xc4, 0x73, 0xbe, 0x20, 0xa5, 0xd3, 0x3d,
  0xac, 0xc9, 0x04, 0xbe, 0x8c, 0x8c, 0x72, 0xbe, 0xe8, 0x95, 0xeb, 0x3d,
  0x98, 0x32, 0xee, 0xbd, 0x80, 0x0e, 0xab, 0xbc, 0xb0, 0x54, 0xe3, 0xbd,
  0xa8, 0xe3, 0xfb, 0x3d, 0x90, 0xcf, 0xe8, 0xbd, 0x80, 0xce, 0xfc, 0xbd,
  0x18, 0xc0, 0xff, 0x3d, 0x60, 0x3a, 0xa8, 0xbd, 0xcc, 0x8a, 0x1e, 0xbe,
  0xa8, 0x2e, 0xce, 0xbd, 0x20, 0xc9, 0x36, 0x3d, 0x14, 0x0c, 0x3b, 0x3e,
  0x48, 0x2b, 0xcf, 0xbd, 0xa0, 0xfc, 0x73, 0x3d, 0x20, 0xfa, 0xbe, 0xbd,
  0x28, 0x09, 0xdf, 0xbd, 0x90, 0x77, 0xe4, 0x3d, 0x64, 0x81, 0x20, 0x3e,
  0x90, 0xa9, 0x27, 0xbd, 0x90, 0xb5, 0x66, 0x3e, 0xb0, 0x26, 0x56, 0x3e,
  0xe0, 0xd9, 0xa8, 0x3d, 0xf4, 0x74, 0x59, 0xbe, 0x20, 0x69, 0xbd, 0x3d,
  0x00, 0xaa, 0x4e, 0xbd, 0xd8, 0x26, 0xa4, 0xbd, 0xb8, 0xc3, 0xb0, 0xbd,
  0x68, 0xba, 0x06, 0x3e, 0x80, 0x11, 0xc0, 0x3b, 0xc0, 0xb4, 0x41, 0xbe,
  0xb0, 0xf6, 0xb5, 0xbd, 0xb0, 0xd9, 0x3d, 0x3e, 0x88, 0x75, 0x94, 0xbd,
  0x50, 0x5b, 0x57, 0x3e, 0x80, 0xf7, 0x18, 0x3e, 0xd0, 0x6c, 0x7b, 0xbe,
  0x90, 0xb2, 0xc5, 0xbd, 0x10, 0xf5, 0x6b, 0x3e, 0xc8, 0xf7, 0xe7, 0x3d,
  0xb8, 0x52, 0xda, 0x3d, 0x48, 0x6c, 0x21, 0xbe, 0x1c, 0x45, 0x58, 0xbe,
  0x80, 0xbd, 0x38, 0x3e, 0x60, 0x15, 0xc2, 0xbd, 0xa0, 0x15, 0x07, 0x3d,
  0xd4, 0x67, 0x0f, 0xbe, 0xc0, 0xe7, 0x4e, 0x3d, 0x78, 0x0b, 0x08, 0xbe,
  0xf0, 0x31, 0x0f, 0x3e, 0x00, 0xb3, 0x67, 0x3c, 0x20, 0x8f, 0x38, 0x3d,
  0xc0, 0x41, 0x0b, 0x3e, 0x18, 0xa1, 0xce, 0x3d, 0x0c, 0x5d, 0x0c, 0xbe,
  0x98, 0x27, 0xb7, 0x3d, 0x20, 0xaf, 0x3d, 0xbe, 0xc8, 0xed, 0x21, 0xbe,
  0x40, 0xb2, 0xaa, 0xbd, 0x60, 0x19, 0x6c, 0xbd, 0x00, 0x8c, 0x36, 0xbd,
  0x64, 0x46, 0x75, 0xbe, 0x38, 0x1b, 0xd0, 0x3d, 0x10, 0x80, 0x5b, 0x3e,
  0x88, 0x25, 0x87, 0xbd, 0xa0, 0x7e, 0x7c, 0xbd, 0x1c, 0xc3, 0x4b, 0x3e,
  0x80, 0xd7, 0xbb, 0x3c, 0x60, 0xf2, 0x70, 0xbd, 0x7c, 0x2f, 0x5b, 0x3e,
  0x04, 0x96, 0x49, 0xbe, 0x2c, 0xbc, 0x49, 0x3e, 0xf0, 0x36, 0x34, 0xbe,
  0xf4, 0x52, 0x15, 0xbe, 0xd8, 0x20, 0x86, 0xbd, 0x30, 0xf4, 0xdc, 0x3d,
  0x20, 0x03, 0x88, 0x3d, 0x60, 0x40, 0x6a, 0x3e, 0xd8, 0xef, 0xd1, 0x3d,
  0x40, 0x4d, 0x78, 0x3d, 0x40, 0xf0, 0x2c, 0x3e, 0x98, 0x24, 0xed, 0xbd,
  0x20, 0x6c, 0x3a, 0xbe, 0x38, 0x9e, 0x95, 0x3d, 0x40, 0x00, 0x5a, 0xbc,
  0x98, 0xcb, 0xe8, 0xbd, 0x7c, 0x04, 0x29, 0x3e, 0x6c, 0x4b, 0x6d, 0xbe,
  0xfc, 0x7e, 0x2b, 0x3e, 0xb8, 0xe2, 0x04, 0xbe, 0xb8, 0x34, 0x8b, 0x3d,
  0x10, 0xaf, 0xed, 0xbd, 0xd0, 0xb7, 0x2c, 0x3e, 0x08, 0x6c, 0x8f, 0x3d,
  0xc0, 0xbf, 0xc8, 0xbd, 0x70, 0x71, 0x44, 0x3e, 0x80, 0xed, 0x38, 0xbd,
  0x70, 0xba, 0x48, 0xbe, 0x00, 0x0d, 0x89, 0xbc, 0x78, 0x15, 0x73, 0xbe,
  0x10, 0xe6, 0x54, 0x3d, 0x00, 0x04, 0x29, 0x3e, 0xa8, 0x71, 0x79, 0xbe,
  0x00, 0x88, 0x0e, 0xbd, 0x80, 0x35, 0x26, 0xbd, 0x40, 0x79, 0xab, 0xbc,
  0xb8, 0xca, 0x48, 0x3e, 0x90, 0xed, 0x49, 0x3e, 0x4c, 0x67, 0x22, 0xbe,
  0xe0, 0x57, 0xb9, 0x3d, 0xc8, 0x14, 0x7a, 0xbe, 0x50, 0x22, 0x55, 0xbe,
  0x5c, 0xc8, 0x67, 0xbe, 0xd0, 0x5a, 0x45, 0xbe, 0xc8, 0x7e, 0x5d, 0x3e,
  0xb0, 0x6f, 0xba, 0x3d, 0x48, 0x03, 0x7b, 0xbe, 0x28, 0xd0, 0xf6, 0x3d,
  0x68, 0x27, 0xb8, 0x3d, 0xe4, 0xfc, 0x06, 0xbe, 0x24, 0x31, 0x09, 0xbe,
  0x60, 0xf8, 0xbe, 0x3d, 0x18, 0x7e, 0x4f, 0xbe, 0xbc, 0x74, 0x35, 0x3e,
  0xa0, 0x68, 0x68, 0xbd, 0xa0, 0x81, 0x25, 0x3d, 0x74, 0xc9, 0x57, 0x3e,
  0x84, 0x0f, 0x66, 0xbe, 0x58, 0xf4, 0xa8, 0x3d, 0x5c, 0xb9, 0x56, 0x3e,
  0xd0, 0x32, 0x69, 0x3e, 0x80, 0xf3, 0x9d, 0xbb, 0xb0, 0x8c, 0xe6, 0xbd,
  0xf8, 0x7f, 0x45, 0xbe, 0xc8, 0x96, 0xd8, 0x3d, 0xe4, 0xce, 0x64, 0x3e,
  0x18, 0x3a, 0x99, 0x3d, 0x20, 0x26, 0x1f, 0x3d, 0x10, 0x08, 0x7b, 0xbd,
  0x18, 0x3d, 0x38, 0x3e, 0x50, 0xb1, 0xe3, 0x3d, 0xa8, 0x9e, 0x92, 0xbd,
  0x50, 0x35, 0x67, 0xbe, 0x30, 0xeb, 0x2c, 0x3e, 0xe0, 0x2d, 0x91, 0x3c,
  0xb8, 0x91, 0xe4, 0x3d, 0xc0, 0xea, 0x82, 0xbd, 0x60, 0x63, 0xb1, 0x3d,
  0xc0, 0x0d, 0xd0, 0x3d, 0x80, 0xf8, 0xae, 0x3d, 0x30, 0x3c, 0xa6, 0x3d,
  0xf0, 0x28, 0x5e, 0x3e, 0x38, 0xd1, 0xb1, 0xbd, 0x28, 0x38, 0x63, 0xbe,
  0x48, 0x51, 0xa0, 0x3d, 0x50, 0x00, 0x0c, 0x3e, 0xf4, 0xe5, 0x2d, 0xbe,
  0xa0, 0x89, 0xbb, 0xbd, 0xa0, 0x74, 0x4a, 0xbe, 0x80, 0xcf, 0x2e, 0x3c,
  0x68, 0x68, 0x75, 0xbe, 0xe4, 0x99, 0x7b, 0xbe, 0xac, 0x2b, 0x0d, 0x3e,
  0x54, 0x6a, 0x7c, 0xbe, 0x4c, 0xf9, 0x32, 0x3e, 0x28, 0xad, 0xac, 0xbd,
  0x20, 0x4d, 0x19, 0x3d, 0xd0, 0xff, 0x12, 0xbe, 0x60, 0xf0, 0xa6, 0x3d,
  0xb0, 0xc9, 0x45, 0xbe, 0x6c, 0x58, 0x27, 0xbe, 0xc0, 0x5b, 0xed, 0x3c,
  0x44, 0x23, 0x26, 0xbe, 0xec, 0xfe, 0x20, 0xbe, 0x60, 0xfd, 0x6f, 0x3e,
  0x7c, 0xef, 0x40, 0x3e, 0x00, 0x44, 0x83, 0x3b, 0x08, 0xcb, 0x11, 0x3e,
  0x70, 0x62, 0x8b, 0xbd, 0xc0, 0x40, 0x1a, 0xbd, 0xa0, 0x39, 0xa5, 0xbc,
  0x70, 0x15, 0x43, 0xbd, 0x24, 0xb7, 0x51, 0x3e, 0x40, 0x66, 0xbf, 0x3d,
  0xc8, 0x86, 0x47, 0xbe, 0xb4, 0x39, 0x49, 0xbe, 0x68, 0xdc, 0x9a, 0xbd,
  0xd8, 0x8b, 0x7c, 0x3e, 0x70, 0xb3, 0x30, 0x3d, 0xc0, 0x34, 0x07, 0x3e,
  0xb4, 0x28, 0x35, 0x3e, 0x80, 0xdd, 0xb4, 0x3b, 0xb0, 0xad, 0x2a, 0x3e,
  0x00, 0xf6, 0x1c, 0x3d, 0xa0, 0x5f, 0x92, 0x3c, 0x00, 0x28, 0xc3, 0x3c,
  0xd0, 0x38, 0x70, 0xbe, 0x28, 0xdb, 0x74, 0xbe, 0xe0, 0xa9, 0x31, 0x3e,
  0xa0, 0x03, 0x50, 0xbe, 0xd0, 0x61, 0xd9, 0xbd, 0xa8, 0x7e, 0x2e, 0x3e,
  0xe8, 0x75, 0x3c, 0x3e, 0xc0, 0xc5, 0x0d, 0x3e, 0xac, 0x47, 0x76, 0x3e,
  0xb4, 0x9b, 0x52, 0xbe, 0x48, 0x0e, 0x00, 0xbe, 0xbc, 0x92, 0x20, 0x3e,
  0x28, 0x9b, 0x67, 0xbe, 0x50, 0x81, 0x21, 0xbd, 0x54, 0xfa, 0x53, 0xbe,
  0xc8, 0xde, 0xa9, 0x3d, 0x44, 0x55, 0x36, 0xbe, 0x00, 0x78, 0x16, 0xbc,
  0xe0, 0xff, 0x7e, 0xbe, 0x40, 0xd8, 0xa4, 0xbd, 0x40, 0x21, 0xa4, 0xbc,
  0xc0, 0xdb, 0x7a, 0x3c, 0xd0, 0x5f, 0xb3, 0xbd, 0x40, 0x8b, 0x85, 0x3d,
  0xb8, 0xd1, 0xb4, 0xbd, 0xd0, 0x64, 0x68, 0x3d, 0x80, 0xe4, 0x5a, 0x3e,
  0x28, 0x75, 0xca, 0x3d, 0x68, 0x3c, 0x68, 0xbe, 0x94, 0x0d, 0x7c, 0xbe,
  0xb4, 0xc7, 0x0e, 0x3e, 0xe0, 0x19, 0xe0, 0x3c, 0x18, 0x3e, 0x16, 0xbe,
  0xf4, 0x55, 0x0f, 0x3e, 0x70, 0x79, 0xe7, 0x3d, 0x80, 0x38, 0x84, 0xbb,
  0x70, 0x71, 0x3c, 0x3d, 0x20, 0xf5, 0xde, 0x3d, 0x40, 0xb0, 0xfd, 0xbd,
  0xe0, 0xa4, 0x85, 0x3d, 0x70, 0x5c, 0x3d, 0x3d, 0xc0, 0x98, 0x3b, 0xbc,
  0xb0, 0xbc, 0xf9, 0xbd, 0xf8, 0xb1, 0xdf, 0xbd, 0xe0, 0x05, 0xdf, 0xbc,
  0x08, 0x96, 0x2a, 0x3e, 0x60, 0x9c, 0x89, 0xbc, 0x08, 0x62, 0x0c, 0xbe,
  0xa8, 0x48, 0x97, 0x3d, 0x50, 0x6a, 0x52, 0xbe, 0x00, 0x95, 0x2d, 0xbd,
  0x18, 0x26, 0x00, 0xbe, 0xe0, 0x31, 0xf3, 0xbc, 0xe8, 0x8e, 0x9a, 0xbd,
  0x90, 0x57, 0xb7, 0xbd, 0x00, 0x23, 0xa1, 0x3c, 0x74, 0x79, 0x78, 0x3e,
  0x40, 0x87, 0x32, 0x3d, 0x30, 0xa9, 0xf2, 0x3d, 0x3c, 0xe7, 0x29, 0xbe,
  0x00, 0xe8, 0x7e, 0xbd, 0x44, 0x2c, 0x25, 0x3e, 0xa0, 0x91, 0x0c, 0x3d,
  0x38, 0x66, 0x37, 0x3e, 0x34, 0x33, 0x6b, 0x3e, 0x90, 0x50, 0xfc, 0x3d,
  0x44, 0x1a, 0x59, 0x3e, 0x44, 0x5c, 0x23, 0xbe, 0x7c, 0x70, 0x69, 0xbe,
  0xb4, 0xe7, 0x64, 0x3e, 0xc8, 0xa3, 0xd1, 0xbd, 0x30, 0xb7, 0xe1, 0xbd,
  0xac, 0x45, 0x7a, 0x3e, 0x90, 0x62, 0x59, 0x3e, 0x60, 0x63, 0x54, 0x3d,
  0x68, 0x4c, 0xe8, 0x3d, 0x74, 0x57, 0x59, 0x3e, 0x60, 0xef, 0x6d, 0xbe,
  0xf8, 0xd4, 0x47, 0x3e, 0x30, 0x3b, 0x30, 0x3d, 0x18, 0xc1, 0x42, 0xbe,
  0xa4, 0xa6, 0x32, 0x3e, 0x90, 0xdc, 0xa5, 0xbd, 0x88, 0x71, 0x94, 0x3d,
  0xf8, 0x52, 0x09, 0xbe, 0x28, 0x76, 0x68, 0xbe, 0x38, 0xc4, 0xcd, 0x3d,
  0x60, 0xc3, 0xcd, 0x3d, 0xc8, 0x9d, 0x3e, 0x3e, 0x00, 0xd0, 0x75, 0x3b,
  0x34, 0xc5, 0x3c, 0x3e, 0x80, 0x14, 0xfe, 0xbd, 0xe0, 0x76, 0xe6, 0xbd,
  0xe0, 0xd7, 0x84, 0x3c, 0x88, 0x40, 0x91, 0xbd, 0xc0, 0x3e, 0x60, 0x3c,
  0xe8, 0x14, 0x1f, 0x3e, 0x18, 0x3b, 0x14, 0xbe, 0xc8, 0x82, 0xa3, 0x3d,
  0xf0, 0x65, 0xa0, 0xbd, 0xe8, 0x23, 0xa4, 0xbd, 0x00, 0xcf, 0xb8, 0x3d,
  0x40, 0x77, 0x74, 0x3d, 0x00, 0xf8, 0xc0, 0x3b, 0x98, 0x3b, 0xc2, 0x3d,
  0x40, 0x9b, 0xe5, 0x3d, 0xd4, 0xc3, 0x1a, 0x3e, 0xdc, 0xdb, 0x44, 0xbe,
  0xa0, 0x2a, 0xc7, 0x3c, 0x10, 0xf5, 0x6f, 0xbe, 0x48, 0x5b, 0x85, 0xbd,
  0x00, 0x48, 0x14, 0xbc, 0x08, 0x61, 0x7c, 0x3e, 0xc0, 0x4a, 0x76, 0xbe,
  0xec, 0x69, 0x13, 0xbe, 0x14, 0xcd, 0x5b, 0xbe, 0x88, 0x48, 0x90, 0x3d,
  0x38, 0xd6, 0x7f, 0xbe, 0x80, 0x6f, 0x49, 0xbe, 0xc8, 0x21, 0xb8, 0x3d,
  0x90, 0x23, 0x6b, 0xbd, 0xf8, 0x84, 0x9a, 0xbd, 0xb0, 0xdc, 0x2f, 0xbd,
  0xa0, 0x1e, 0x08, 0x3d, 0xdc, 0xe0, 0x37, 0xbe, 0xcc, 0x29, 0x47, 0x3e,
  0x38, 0x4f, 0x6b, 0xbe, 0x24, 0x44, 0x12, 0xbe, 0x70, 0x0d, 0x07, 0x3e,
  0x20, 0xdf, 0x50, 0x3d, 0x50, 0x66, 0x22, 0x3d, 0x10, 0x61, 0x3d, 0x3d,
  0xb4, 0x2b, 0x61, 0x3e, 0x00, 0x11, 0xd3, 0x3d, 0xe4, 0xfe, 0x59, 0xbe,
  0x00, 0x22, 0x1f, 0x3e, 0xfc, 0x36, 0x1d, 0xbe, 0x98, 0xfc, 0xa3, 0x3d,
  0xf8, 0xd9, 0x82, 0x3d, 0xf4, 0x88, 0x11, 0x3e, 0x00, 0x48, 0x1f, 0x3a,
  0xa4, 0x23, 0x4f, 0xbe, 0x68, 0xdd, 0x5c, 0xbe, 0xd0, 0xd9, 0x40, 0xbd,
  0x20, 0x43, 0x8e, 0x3d, 0x60, 0xb8, 0x97, 0x3c, 0x60, 0x18, 0x8e, 0x3c,
  0xc8, 0x07, 0xfc, 0x3d, 0x00, 0x46, 0x2a, 0x3e, 0xa0, 0xb0, 0xde, 0xbc,
  0x68, 0xfa, 0xde, 0xbd, 0x5c, 0x60, 0x54, 0xbe, 0xe0, 0x01, 0x0c, 0xbe,
  0x00, 0x5d, 0xe1, 0x3d, 0x7c, 0xd6, 0x31, 0xbe, 0xf8, 0x62, 0xc9, 0xbd,
  0x90, 0xa6, 0x66, 0x3d, 0x64, 0xc0, 0x2f, 0x3e, 0x74, 0x62, 0x18, 0x3e,
  0x78, 0x73, 0xd2, 0xbd, 0x48, 0x51, 0x0f, 0xbe, 0xb8, 0xa3, 0x34, 0xbe,
  0xa4, 0x3e, 0x46, 0xbe, 0x00, 0xf7, 0x7b, 0xbe, 0x38, 0xaa, 0x6c, 0x3e,
  0x90, 0xa1, 0x4e, 0xbe, 0xd0, 0xf7, 0x20, 0x3d, 0x54, 0xe8, 0x51, 0x3e,
  0x40, 0x2c, 0xf7, 0xbd, 0xf0, 0x22, 0xa7, 0xbd, 0x08, 0x15, 0x8e, 0x3d,
  0x44, 0x55, 0x0b, 0x3e, 0x20, 0x09, 0xc2, 0x3c, 0x08, 0xb2, 0xfd, 0x3d,
  0x04, 0x3e, 0x1c, 0xbe, 0x00, 0x1c, 0x68, 0xbd, 0x4c, 0xb3, 0x39, 0xbe,
  0x84, 0x02, 0x2e, 0xbe, 0x34, 0x17, 0x63, 0xbe, 0x40, 0xec, 0x4e, 0x3c,
  0x08, 0x71, 0xc8, 0x3d, 0x88, 0x3a, 0x09, 0x3e, 0xe4, 0x41, 0x4e, 0xbe,
  0xb0, 0x39, 0x6e, 0xbd, 0x58, 0x3c, 0x7c, 0xbe, 0x00, 0xcc, 0xd1, 0xbb,
  0x0c, 0x4e, 0x7b, 0x3e, 0x88, 0xda, 0xaa, 0x3d, 0x64, 0x75, 0x23, 0xbe,
  0x48, 0xe7, 0x55, 0xbe, 0xb4, 0x2a, 0x4e, 0xbe, 0x9c, 0x1b, 0x1d, 0x3e,
  0xd0, 0x81, 0x09, 0xbd, 0x18, 0xfe, 0x4e, 0xbe, 0xa8, 0x63, 0x36, 0xbe,
  0xa8, 0x5d, 0x7f, 0x3e, 0xf8, 0xe1, 0x7c, 0x3e, 0x10, 0x99, 0xc4, 0x3d,
  0x90, 0xb7, 0x62, 0x3e, 0x00, 0xce, 0x15, 0xbb, 0x60, 0xfc, 0xd6, 0x3d,
  0xf0, 0x24, 0x79, 0x3e, 0x44, 0xa1, 0x18, 0xbe, 0x40, 0x75, 0xcd, 0x3d,
  0x20, 0x87, 0x34, 0xbe, 0xe8, 0xb1, 0xce, 0xbd, 0xd0, 0xc6, 0x71, 0xbd,
  0xc4, 0xbd, 0x31, 0xbe, 0x18, 0x64, 0x71, 0x3e, 0x34, 0x15, 0x70, 0x3e,
  0x20, 0xfc, 0x4d, 0x3d, 0x40, 0x77, 0x6d, 0x3e, 0xa0, 0x1a, 0x4c, 0x3d,
  0xe4, 0xe5, 0x10, 0xbe, 0xa0, 0x62, 0xb2, 0x3c, 0x28, 0x79, 0x51, 0x3e,
  0xc8, 0x82, 0x83, 0xbd, 0x30, 0x5a, 0xa9, 0x3d, 0x08, 0xea, 0x3e, 0xbe,
  0x70, 0x87, 0x68, 0x3e, 0x00, 0xf9, 0xe3, 0x3b, 0x90, 0x83, 0xb4, 0xbd,
  0x14, 0x02, 0x59, 0x3e, 0x90, 0x0f, 0xae, 0x3d, 0x40, 0x66, 0x1d, 0xbd,
  0xc0, 0x3c, 0x75, 0xbd, 0x9c, 0x3e, 0x34, 0xbe, 0x5c, 0xf0, 0x0c, 0x3e,
  0x84, 0xeb, 0x46, 0x3e, 0xb0, 0x38, 0x13, 0x3e, 0xd0, 0x16, 0x5d, 0xbd,
  0xd4, 0x55, 0x5f, 0x3e, 0x08, 0x08, 0xc8, 0xbd, 0x50, 0xad, 0x76, 0xbe,
  0x44, 0xec, 0x36, 0xbe, 0x00, 0x66, 0x13, 0x3d, 0x00, 0xcb, 0x1c, 0x3d,
  0x60, 0x74, 0x48, 0xbe, 0xe4, 0xb3, 0x1c, 0xbe, 0xc0, 0x33, 0xaa, 0x3d,
  0x78, 0xf5, 0xfa, 0x3d, 0x20, 0x68, 0xb7, 0xbc, 0xfc, 0x71, 0x49, 0xbe,
  0xa8, 0x83, 0xcb, 0xbd, 0xec, 0x63, 0x46, 0x3e, 0x10, 0xc7, 0x0a, 0x3e,
  0x38, 0x34, 0x46, 0x3e, 0x80, 0x3c, 0x3f, 0xbd, 0x80, 0xfb, 0xc1, 0x3c,
  0x90, 0x7c, 0xbd, 0x3d, 0xb4, 0xe4, 0x0f, 0xbe, 0x78, 0x62, 0x69, 0x3e,
  0x88, 0x03, 0xce, 0x3d, 0x78, 0x4e, 0x51, 0x3e, 0x60, 0x59, 0xbd, 0x3d,
  0xe0, 0xe0, 0xb5, 0x3c, 0x50, 0x24, 0x04, 0x3e, 0xe0, 0xa2, 0x72, 0x3d,
  0x20, 0x79, 0x60, 0x3d, 0x00, 0x2b, 0x6b, 0x3d, 0x40, 0xe4, 0x05, 0xbc,
  0x00, 0x5f, 0xe9, 0x3d, 0x9c, 0x6f, 0x48, 0x3e, 0x80, 0x98, 0xf7, 0x3b,
  0x4c, 0x45, 0x64, 0xbe, 0x60, 0x8e, 0x9e, 0xbc, 0x8c, 0x97, 0x45, 0xbe,
  0x10, 0xfa, 0xa4, 0xbd, 0x6c, 0x6c, 0x67, 0x3e, 0x5c, 0x22, 0x6c, 0x3e,
  0xd0, 0xb0, 0x54, 0xbe, 0xa8, 0xcd, 0x62, 0xbe, 0xa0, 0x17, 0x88, 0xbd,
  0xe0, 0x7b, 0x98, 0xbd, 0x28, 0xf2, 0x47, 0x3e, 0xb0, 0x0c, 0x01, 0x3e,
  0x4c, 0x79, 0x7d, 0x3e, 0x30, 0xcc, 0x73, 0xbd, 0x80, 0x5b, 0x6f, 0xbe,
  0x08, 0xfb, 0xb6, 0xbd, 0x54, 0x4b, 0x36, 0x3e, 0x98, 0x63, 0x88, 0x3d,
  0x34, 0x10, 0x46, 0xbe, 0xa0, 0xd7, 0x49, 0xbd, 0xe8, 0xae, 0xf8, 0xbd,
  0x80, 0xbe, 0xd7, 0x3d, 0xb4, 0x8e, 0x5c, 0xbe, 0x98, 0x8f, 0xd8, 0x3d,
  0x40, 0xee, 0x0d, 0xbd, 0x9c, 0x3d, 0x58, 0xbe, 0x94, 0x1c, 0x34, 0xbe,
  0xf0, 0xd3, 0x4f, 0x3d, 0xf0, 0xbb, 0xd5, 0xbd, 0xd0, 0xb4, 0x84, 0x3d,
  0x80, 0x87, 0xf4, 0x3c, 0x48, 0x10, 0xcc, 0x3d, 0x08, 0x91, 0xd1, 0x3d,
  0x40, 0x36, 0x41, 0xbe, 0x08, 0xdb, 0x62, 0x3e, 0xf4, 0x5b, 0x11, 0x3e,
  0x28, 0xe4, 0x47, 0x3e, 0xd8, 0x1e, 0x50, 0xbe, 0x88, 0xa4, 0x24, 0xbe,
  0xc8, 0x87, 0x1b, 0x3e, 0x88, 0xf4, 0x16, 0xbe, 0x60, 0xe7, 0x64, 0xbd,
  0xa4, 0xd1, 0x3b, 0x3e, 0x00, 0x8e, 0xac, 0x3a, 0xf0, 0x3e, 0xdd, 0x3d,
  0x48, 0x1f, 0x5c, 0xbe, 0x40, 0x32, 0x94, 0x3d, 0xc8, 0xb3, 0x82, 0x3d,
  0x54, 0x04, 0x10, 0xbe, 0x48, 0xe2, 0xa5, 0x3d, 0x88, 0x48, 0xa4, 0xbd,
  0xdc, 0x5a, 0x50, 0xbe, 0x00, 0xe9, 0x64, 0x3c, 0x58, 0x0e, 0xb5, 0x3d,
  0xa8, 0xcb, 0xa2, 0xbd, 0x70, 0x8e, 0x44, 0xbd, 0x50, 0xe0, 0x08, 0x3e,
  0xe0, 0xa4, 0xba, 0x3c, 0xa0, 0x76, 0xf2, 0x3c, 0xc0, 0xbc, 0x86, 0x3c,
  0x98, 0x04, 0x28, 0xbe, 0x50, 0xde, 0xa3, 0x3d, 0x40, 0xc5, 0x34, 0x3d,
  0x80, 0x19, 0x11, 0xbe, 0xc8, 0xc7, 0xea, 0xbd, 0x44, 0xda, 0x41, 0x3e,
  0xe8, 0x12, 0x51, 0xbe, 0x30, 0xda, 0x6c, 0xbe, 0x2c, 0x91, 0x7f, 0xbe,
  0x28, 0xda, 0x46, 0x3e, 0x58, 0x94, 0x23, 0xbe, 0xf0, 0x92, 0xe9, 0x3d,
  0x88, 0xf1, 0x47, 0x3e, 0x88, 0x52, 0x45, 0x3e, 0x68, 0x09, 0x92, 0x3d,
  0x18, 0xdb, 0x27, 0xbe, 0xb0, 0x86, 0x0b, 0xbe, 0xc4, 0x9b, 0x75, 0x3e,
  0x90, 0xc7, 0x8b, 0xbd, 0x58, 0xf5, 0x97, 0x3d, 0x40, 0x9f, 0x47, 0x3c,
  0x98, 0xbd, 0xb8, 0x3d, 0x4c, 0x67, 0x47, 0xbe, 0xe0, 0x67, 0x1f, 0x3e,
  0xe8, 0x01, 0x77, 0xbe, 0xc8, 0x27, 0x73, 0xbe, 0xe0, 0x9e, 0x28, 0xbe,
  0x1c, 0xa8, 0x1f, 0xbe, 0x50, 0x3d, 0xb5, 0xbd, 0x38, 0x85, 0x59, 0x3e,
  0x18, 0x0c, 0x35, 0x3e, 0xe8, 0xa5, 0x49, 0x3e, 0x70, 0xe0, 0x46, 0xbd,
  0x68, 0x64, 0xda, 0x3d, 0x90, 0x82, 0x54, 0x3d, 0x20, 0x08, 0x0e, 0x3e,
  0xb0, 0xb1, 0xa3, 0x3d, 0x9c, 0xbd, 0x22, 0x3e, 0x38, 0xfa, 0x69, 0x3e,
  0x98, 0x2b, 0x8b, 0xbd, 0xa4, 0xaf, 0x70, 0xbe, 0x34, 0xcf, 0x0f, 0x3e,
  0x00, 0x9c, 0x23, 0xbd, 0x40, 0x22, 0x2a, 0xbc, 0x00, 0x60, 0x87, 0xba,
  0x20, 0x0a, 0x2f, 0xbd, 0x38, 0x38, 0x3c, 0x3e, 0x54, 0xfc, 0x7e, 0x3e,
  0x38, 0x06, 0xc0, 0xbd, 0xf4, 0x13, 0x6f, 0x3e, 0x6c, 0x1d, 0x11, 0x3e,
  0xd0, 0x13, 0x3a, 0x3d, 0x74, 0x06, 0x0b, 0xbe, 0x94, 0xc2, 0x20, 0xbe,
  0xc0, 0x9b, 0x6b, 0xbd, 0xe8, 0x9c, 0xe3, 0x3d, 0x60, 0x87, 0x27, 0xbe,
  0x28, 0x33, 0x19, 0x3e, 0x44, 0xf1, 0x4c, 0xbe, 0xf0, 0x43, 0x6f, 0x3d,
  0xb0, 0x36, 0x08, 0xbe, 0x18, 0x1f, 0xc5, 0xbd, 0x04, 0x9e, 0x0b, 0x3e,
  0x70, 0x30, 0x72, 0x3e, 0xb0, 0xce, 0xc7, 0x3d, 0x48, 0x77, 0x20, 0x3e,
  0x80, 0x4f, 0x50, 0x3c, 0x00, 0x4a, 0x9e, 0xba, 0x54, 0xa8, 0x6e, 0xbe,
  0xc0, 0x58, 0xd1, 0xbc, 0x24, 0x11, 0x07, 0x3e, 0xa0, 0x2f, 0xe1, 0xbd,
  0x60, 0x16, 0x07, 0x3d, 0xe8, 0x0b, 0x04, 0xbe, 0xf0, 0x8a, 0x42, 0x3e,
  0xcc, 0xfb, 0x56, 0x3e, 0xd4, 0xb7, 0x7c, 0xbe, 0x90, 0xd1, 0x9b, 0x3d,
  0xd4, 0x3f, 0x74, 0x3e, 0x18, 0xf2, 0x23, 0xbe, 0x50, 0x90, 0xe9, 0xbd,
  0x04, 0x1c, 0x45, 0xbe, 0xf4, 0x99, 0x5a, 0x3e, 0x9c, 0x6b, 0x2f, 0xbe,
  0x68, 0x18, 0x0e, 0x3e, 0xa8, 0x26, 0x48, 0xbe, 0xc0, 0x95, 0x5e, 0xbd,
  0x60, 0xc0, 0xb0, 0xbc, 0x00, 0xf4, 0xac, 0xbd, 0x00, 0x2f, 0xa9, 0x3d,
  0xac, 0x80, 0x22, 0xbe, 0xe0, 0x59, 0xcf, 0xbc, 0x80, 0x80, 0x8d, 0xbc,
  0xdc, 0xf8, 0x47, 0x3e, 0x78, 0xd7, 0xb7, 0xbd, 0x50, 0x63, 0xc2, 0xbd,
  0x40, 0x4b, 0x37, 0xbc, 0xe8, 0xb1, 0x77, 0xbe, 0x98, 0xb0, 0xeb, 0xbd,
  0xf8, 0x07, 0x88, 0xbd, 0x58, 0x35, 0x48, 0xbe, 0x00, 0x68, 0x8f, 0x39,
  0x28, 0x71, 0xbe, 0x3d, 0xcc, 0x0a, 0x33, 0x3e, 0xf4, 0x35, 0x48, 0xbe,
  0xe0, 0x43, 0x61, 0x3e, 0x20, 0x7f, 0xd4, 0xbc, 0x40, 0x39, 0x17, 0xbe,
  0xe0, 0x6f, 0xab, 0xbd, 0x70, 0x2e, 0x35, 0x3d, 0xb0, 0x7c, 0x09, 0xbd,
  0xc0, 0x98, 0xfa, 0x3d, 0xe0, 0x23, 0xed, 0x3c, 0x48, 0x97, 0xa8, 0x3d,
  0x48, 0x67, 0x86, 0xbd, 0x78, 0x16, 0x36, 0xbe, 0x40, 0xc7, 0xd1, 0xbc,
  0x38, 0x85, 0xbf, 0xbd, 0x64, 0x22, 0x41, 0x3e, 0x90, 0x54, 0xf9, 0xbd,
  0x08, 0x8b, 0xdf, 0xbd, 0x54, 0xdf, 0x02, 0x3e, 0x00, 0x8d, 0x96, 0x3d,
  0xc8, 0xd3, 0xe4, 0xbd, 0x00, 0x7a, 0xb3, 0xbb, 0x6c, 0xa7, 0x03, 0xbe,
  0x1c, 0x4a, 0x76, 0x3e, 0xf0, 0xa3, 0x6f, 0xbe, 0x94, 0x91, 0x0f, 0xbe,
  0x94, 0xb3, 0x5f, 0xbe, 0x58, 0xed, 0x52, 0x3e, 0xd0, 0xe5, 0x21, 0xbe,
  0x5c, 0xd1, 0x20, 0x3e, 0x58, 0xb0, 0x5f, 0x3e, 0xd4, 0xe0, 0x6d, 0xbe,
  0x80, 0xa2, 0x40, 0x3e, 0xb0, 0x10, 0xe1, 0xbd, 0xc0, 0xf2, 0xf0, 0xbd,
  0x30, 0xd2, 0xc8, 0xbd, 0x38, 0x2d, 0x7f, 0x3e, 0xc0, 0x38, 0x1e, 0xbc,
  0x78, 0xaa, 0xa6, 0x3d, 0xb0, 0x98, 0xe5, 0xbd, 0xdc, 0xe4, 0x6e, 0xbe,
  0xb0, 0x9d, 0xb9, 0xbd, 0x00, 0x81, 0x9a, 0xbc, 0xd0, 0x53, 0x19, 0xbe,
  0x30, 0xf6, 0x6d, 0xbe, 0x18, 0x20, 0xf8, 0xbd, 0x48, 0x36, 0x06, 0x3e,
  0xe8, 0x6a, 0xf9, 0x3d, 0xc0, 0x19, 0xff, 0x3c, 0x80, 0xe8, 0x45, 0x3c,
  0x50, 0x6c, 0x6a, 0x3d, 0xc8, 0x56, 0xad, 0xbd, 0x18, 0x00, 0xda, 0xbd,
  0x90, 0xc9, 0x7e, 0x3d, 0x80, 0x9c, 0xaa, 0x3b, 0x58, 0x8b, 0x1e, 0x3e,
  0xd4, 0x89, 0x58, 0x3e, 0xa0, 0xc8, 0xdc, 0x3c, 0x38, 0xbe, 0x54, 0x3e,
  0xf8, 0xb6, 0xc2, 0xbd, 0x00, 0x94, 0xd1, 0x3d, 0x30, 0xb7, 0xbc, 0x3d,
  0xb8, 0xf5, 0x25, 0xbe, 0xa4, 0xe8, 0x24, 0x3e, 0xa8, 0x1e, 0xd9, 0x3d,
  0x4c, 0xa5, 0x01, 0xbe, 0x6c, 0x9d, 0x62, 0xbe, 0xf8, 0xce, 0xee, 0x3d,
  0x44, 0xc5, 0x40, 0xbe, 0x38, 0x8c, 0x65, 0xbe, 0xa8, 0xfe, 0xd5, 0xbd,
  0xd8, 0x3f, 0x8a, 0xbd, 0x40, 0x7a, 0xe7, 0xbd, 0x98, 0x01, 0xb7, 0xbd,
  0x78, 0x2d, 0xa2, 0xbd, 0xf0, 0x4f, 0x49, 0x3e, 0x80, 0x8e, 0x7d, 0x3e,
  0x88, 0x4b, 0xda, 0x3d, 0x18, 0x1b, 0x0d, 0x3e, 0x3c, 0x48, 0x71, 0xbe,
  0xe8, 0x34, 0x56, 0x3e, 0x18, 0x54, 0xfe, 0x3d, 0x68, 0x9f, 0x58, 0xbe,
  0x34, 0x93, 0x2a, 0x3e, 0x30, 0x9f, 0xd7, 0x3d, 0xa0, 0x0e, 0x64, 0x3e,
  0x94, 0x5d, 0x38, 0x3e, 0x70, 0xb5, 0x92, 0x3d, 0x68, 0xbe, 0xaa, 0x3d,
  0xc8, 0x6b, 0x1d, 0xbe, 0x70, 0x5e, 0x0c, 0x3d, 0xb4, 0xf4, 0x3d, 0xbe,
  0x00, 0xe2, 0xe4, 0x3b, 0x40, 0xe6, 0xcd, 0xbc, 0xa0, 0x2d, 0x20, 0xbd,
  0xec, 0xdb, 0x08, 0x3e, 0x40, 0xfe, 0xe6, 0xbc, 0x40, 0x77, 0x7b, 0xbc,
  0x50, 0xba, 0x66, 0xbd, 0x58, 0xf6, 0x20, 0x3e, 0x24, 0xfc, 0x5d, 0x3e,
  0xdc, 0x41, 0x4d, 0xbe, 0x64, 0x80, 0x2f, 0x3e, 0x30, 0x5f, 0x6c, 0xbd,
  0x80, 0x46, 0x24, 0x3c, 0x6c, 0xd2, 0x1e, 0x3e, 0x60, 0x67, 0x79, 0x3e,
  0x98, 0x56, 0xb2, 0x3d, 0x40, 0x6c, 0x69, 0x3d, 0x20, 0xbf, 0x67, 0xbe,
  0xf8, 0xf1, 0x0f, 0xbe, 0x40, 0x5e, 0xa6, 0xbc, 0xb0, 0xf0, 0x06, 0x3e,
  0x80, 0x3b, 0xff, 0x3c, 0x8c, 0xea, 0x13, 0xbe, 0x2c, 0xe5, 0x09, 0x3e,
  0xa0, 0x91, 0x32, 0xbe, 0x70, 0xe5, 0x5a, 0xbe, 0x60, 0xb6, 0x26, 0xbe,
  0x48, 0xb3, 0x39, 0xbe, 0xbc, 0x59, 0x6d, 0xbe, 0xe8, 0x92, 0x79, 0xbe,
  0xb0, 0xe9, 0x43, 0xbd, 0x20, 0x1a, 0xcc, 0xbc, 0x78, 0xcd, 0xca, 0x3d,
  0xb8, 0x00, 0xe5, 0x3d, 0xa0, 0x9c, 0xa9, 0xbd, 0x70, 0x79, 0xc5, 0x3d,
  0x88, 0x68, 0x12, 0x3e, 0x7c, 0x30, 0x42, 0x3e, 0x8c, 0x40, 0x61, 0xbe,
  0xc4, 0xa1, 0x19, 0x3e, 0xf0, 0xd1, 0x44, 0x3d, 0x80, 0x8c, 0x23, 0x3d,
  0x30, 0x87, 0x25, 0xbd, 0x30, 0xa6, 0x76, 0x3e, 0x90, 0xdc, 0xbe, 0x3d,
  0x44, 0xdc, 0x4a, 0x3e, 0x30, 0xda, 0x5f, 0x3d, 0x00, 0x8a, 0xd4, 0xbb,
  0xe0, 0xd1, 0xe0, 0x3d, 0xf4, 0x50, 0x4d, 0xbe, 0xa0, 0xa6, 0x0f, 0xbe,
  0x88, 0x8a, 0x5a, 0x3e, 0xa0, 0xcd, 0xd8, 0xbc, 0x70, 0x2e, 0x2a, 0x3e,
  0xc8, 0xf4, 0xd6, 0x3d, 0xfc, 0xe5, 0x16, 0x3e, 0x40, 0xd8, 0x54, 0xbe,
  0x74, 0x72, 0x64, 0x3e, 0x3c, 0x0c, 0x18, 0xbe, 0x48, 0xc9, 0x26, 0xbe,
  0x50, 0xd8, 0x67, 0xbd, 0x00, 0x2c, 0xc3, 0xba, 0xa0, 0x66, 0xb3, 0xbc,
  0xc0, 0x3f, 0x4f, 0xbc, 0x20, 0x0e, 0x2b, 0xbe, 0x80, 0x05, 0x5c, 0x3c,
  0x8c, 0x15, 0x59, 0xbe, 0x00, 0x1c, 0x56, 0xbe, 0xf0, 0xfc, 0x48, 0xbe,
  0xac, 0x62, 0x22, 0x3e, 0x90, 0x20, 0x23, 0x3d, 0x10, 0x21, 0xf0, 0x3d,
  0xb0, 0x0c, 0xdc, 0xbd, 0x3c, 0x9f, 0x51, 0xbe, 0xe0, 0xb5, 0xf1, 0xbc,
  0x00, 0x8c, 0xa0, 0x3b, 0x40, 0xbf, 0xe1, 0xbc, 0x1c, 0x33, 0x3b, 0xbe,
  0x8c, 0x68, 0x0d, 0x3e, 0xa0, 0xeb, 0x30, 0x3e, 0xac, 0x72, 0x46, 0x3e,
  0xf0, 0x0d, 0x2d, 0xbe, 0xdc, 0x68, 0x36, 0x3e, 0xf0, 0xed, 0x59, 0x3d,
  0x40, 0xc6, 0x7a, 0x3d, 0x68, 0xb6, 0x5a, 0x3e, 0x44, 0x7c, 0x76, 0x3e,
  0x0c, 0x94, 0x31, 0x3e, 0x60, 0xd0, 0xfb, 0xbc, 0xf8, 0x3d, 0x77, 0xbe,
  0xb8, 0xd0, 0x39, 0xbe, 0xd4, 0xaf, 0x5e, 0xbe, 0x28, 0x93, 0x46, 0xbe,
  0x64, 0x8b, 0x1d, 0xbe, 0xe8, 0x70, 0x1f, 0xbe, 0xc0, 0xa0, 0x0a, 0x3e,
  0x78, 0xa0, 0x32, 0xbe, 0x88, 0x3a, 0x0a, 0xbe, 0x94, 0x2b, 0x16, 0x3e,
  0xe0, 0x42, 0x38, 0xbe, 0x10, 0x0e, 0xb8, 0xbd, 0x68, 0xa2, 0x7a, 0xbe,
  0xc0, 0x16, 0xd9, 0xbc, 0x40, 0x5c, 0x4f, 0xbd, 0x58, 0x7d, 0x5d, 0xbe,
  0xc0, 0x6a, 0x08, 0xbc, 0x00, 0x71, 0x1a, 0x3d, 0xf0, 0xa4, 0x0a, 0xbe,
  0x38, 0x8a, 0xd1, 0xbd, 0x00, 0x4d, 0x24, 0xbc, 0xc8, 0x7b, 0x8f, 0x3d,
  0x80, 0xdb, 0x47, 0x3e, 0x58, 0x3e, 0xf4, 0x3d, 0x00, 0x56, 0xed, 0x3b,
  0x0c, 0xd0, 0x66, 0x3e, 0xd0, 0x8d, 0x78, 0xbd, 0xfc, 0x90, 0x4a, 0x3e,
  0x10, 0x11, 0x05, 0xbd, 0xc0, 0xba, 0x77, 0xbe, 0xa0, 0x5e, 0x1d, 0xbd,
  0x00, 0xf9, 0x2b, 0xbc, 0xb0, 0xfc, 0x1e, 0x3d, 0x20, 0x10, 0xa8, 0xbd,
  0xac, 0xae, 0x3d, 0x3e, 0x20, 0xb6, 0x3b, 0xbe, 0x60, 0x33, 0xd9, 0xbd,
  0x28, 0x91, 0x91, 0x3d, 0x1c, 0x24, 0x79, 0x3e, 0x00, 0x00, 0x16, 0xb8,
  0xc0, 0xb4, 0xc8, 0xbc, 0xd0, 0x7c, 0x16, 0xbe, 0xcc, 0x18, 0x3d, 0x3e,
  0x10, 0x79, 0x05, 0xbd, 0x14, 0xd9, 0x77, 0xbe, 0x00, 0xbc, 0x59, 0xba,
  0x40, 0x59, 0x28, 0x3c, 0x34, 0x64, 0x2e, 0xbe, 0x40, 0x68, 0xb6, 0x3d,
  0x88, 0x64, 0xf0, 0xbd, 0xc0, 0x61, 0x07, 0x3e, 0xa0, 0xba, 0x4c, 0x3e,
  0x90, 0xfb, 0x4a, 0x3e, 0x4c, 0x31, 0x16, 0x3e, 0xa0, 0xf2, 0x6b, 0x3d,
  0x1c, 0x6c, 0x3e, 0xbe, 0x80, 0x10, 0x05, 0x3d, 0x10, 0x76, 0x9a, 0x3d,
  0x1c, 0x0f, 0x66, 0x3e, 0x30, 0x15, 0xa3, 0xbd, 0x84, 0xc0, 0x48, 0xbe,
  0x1c, 0x15, 0x14, 0xbe, 0x40, 0x58, 0x28, 0xbd, 0x64, 0x79, 0x6a, 0xbe,
  0xec, 0x9a, 0x1a, 0xbe, 0x40, 0x53, 0x38, 0xbe, 0x0c, 0x4a, 0x22, 0xbe,
  0xf0, 0xcd, 0x35, 0x3d, 0xe0, 0x3c, 0x39, 0x3e, 0x54, 0x95, 0x40, 0xbe,
  0xe0, 0x3b, 0x07, 0xbd, 0x54, 0x3f, 0x0f, 0x3e, 0xe0, 0xc3, 0x18, 0xbe,
  0xf4, 0x0c, 0x3e, 0x3e, 0xc8, 0x0f, 0xc1, 0xbd, 0x88, 0x03, 0x73, 0xbe,
  0xe0, 0x43, 0xe9, 0xbc, 0x00, 0x0c, 0x96, 0xba, 0x18, 0xda, 0x4d, 0x3e,
  0x58, 0x7e, 0x8a, 0x3d, 0x2c, 0xdb, 0x27, 0x3e, 0x38, 0x26, 0x79, 0x3e,
  0x60, 0x6d, 0xc6, 0x3c, 0x70, 0x62, 0xe3, 0xbd, 0xd8, 0xe7, 0x4a, 0xbe,
  0x64, 0x4b, 0x4f, 0xbe, 0x60, 0xf7, 0x3b, 0x3d, 0xd8, 0x93, 0x2c, 0x3e,
  0x28, 0xda, 0x2a, 0xbe, 0x00, 0x7e, 0x32, 0x3c, 0xe0, 0xf7, 0x2c, 0x3e,
  0x40, 0x47, 0x81, 0x3c, 0x40, 0x87, 0x9a, 0xbc, 0x00, 0x75, 0x71, 0x3b,
  0x44, 0xb5, 0x43, 0x3e, 0x00, 0x5f, 0xe2, 0x3c, 0x78, 0x43, 0x25, 0xbe,
  0x70, 0x21, 0xd6, 0xbd, 0x94, 0x3c, 0x6e, 0xbe, 0x80, 0xed, 0xd0, 0x3d,
  0xac, 0x93, 0x3f, 0x3e, 0x80, 0x2f, 0x60, 0xbd, 0x00, 0xb9, 0x81, 0xbb,
  0x80, 0xb0, 0x2e, 0x3c, 0x80, 0x6f, 0x3d, 0x3d, 0x88, 0x30, 0xf3, 0x3d,
  0x1c, 0xf6, 0x31, 0xbe, 0xc4, 0xc1, 0x72, 0x3e, 0x00, 0xf3, 0xda, 0x3b,
  0x28, 0xe7, 0x2c, 0xbe, 0xa0, 0x59, 0x49, 0xbe, 0xc0, 0xb9, 0x83, 0x3d,
  0xe4, 0xd8, 0x2a, 0x3e, 0x20, 0x1e, 0x93, 0x3d, 0x8c, 0xe1, 0x37, 0x3e,
  0x80, 0x35, 0xcc, 0x3d, 0xac, 0xc8, 0x7b, 0x3e, 0x30, 0x21, 0xca, 0x3d,
  0x28, 0x5b, 0x34, 0xbe, 0x38, 0xda, 0x53, 0x3e, 0xa4, 0x32, 0x4c, 0xbe,
  0x14, 0xb2, 0x75, 0xbe, 0xe4, 0xee, 0x21, 0x3e, 0xc0, 0x46, 0xdc, 0xbd,
  0x80, 0x05, 0x28, 0x3e, 0x70, 0xf4, 0xe1, 0xbd, 0x14, 0xa0, 0x1a, 0xbe,
  0x98, 0x35, 0xc7, 0xbd, 0x74, 0xad, 0x0e, 0xbe, 0xe8, 0xe8, 0xb2, 0x3d,
  0xe4, 0xaf, 0x4d, 0xbe, 0x28, 0x5b, 0xbe, 0x3d, 0xe4, 0x26, 0x61, 0x3e,
  0x4c, 0x83, 0x43, 0x3e, 0x10, 0xdd, 0x13, 0xbd, 0x00, 0xb8, 0x18, 0x3e,
  0xb0, 0x20, 0x5a, 0xbe, 0xf0, 0x0a, 0xe4, 0x3d, 0xd8, 0xcd, 0xb5, 0x3d,
  0x00, 0xda, 0x5a, 0x3b, 0xa8, 0xb2, 0x35, 0x3e, 0x18, 0x33, 0xdb, 0xbd,
  0x7c, 0xc1, 0x2e, 0x3e, 0xc0, 0x98, 0x87, 0x3c, 0xe0, 0x0e, 0x1d, 0x3e,
  0xe8, 0xb2, 0xb7, 0xbd, 0x00, 0xaa, 0xc9, 0xbc, 0x20, 0x1d, 0x99, 0x3c,
  0x60, 0x53, 0x80, 0x3d, 0x58, 0x0a, 0xcc, 0x3d, 0x80, 0x1b, 0xc7, 0xbd,
  0x60, 0x8d, 0x48, 0xbd, 0x00, 0xb4, 0x32, 0x3a, 0x84, 0xe1, 0x2b, 0xbe,
  0x2c, 0x5b, 0x13, 0x3e, 0xd0, 0xf7, 0x45, 0xbe, 0xc0, 0x1d, 0x12, 0x3c,
  0x40, 0xcc, 0xa8, 0xbd, 0xac, 0x16, 0x46, 0x3e, 0xfc, 0x33, 0x39, 0x3e,
  0x10, 0xae, 0xeb, 0xbd, 0x78, 0x18, 0xac, 0xbd, 0xb0, 0x6a, 0x39, 0xbd,
  0x28, 0x1a, 0x24, 0x3e, 0x28, 0xc0, 0x76, 0xbe, 0xd4, 0xb2, 0x31, 0x3e,
  0x00, 0x99, 0xf9, 0xbd, 0x60, 0xaf, 0xd3, 0x3c, 0xa8, 0x2b, 0x17, 0x3e,
  0x00, 0xb6, 0x3e, 0x3e, 0xc0, 0xf7, 0x7f, 0xbc, 0xd4, 0xd9, 0x5d, 0x3e,
  0x60, 0x22, 0xf3, 0x3c, 0xe8, 0x4c, 0x7b, 0x3e, 0xa8, 0x01, 0x6b, 0xbe,
  0x1c, 0x85, 0x7a, 0xbe, 0xd0, 0x16, 0x52, 0x3d, 0x08, 0x1e, 0x6c, 0xbe,
  0x00, 0x66, 0x11, 0xbb, 0x70, 0x22, 0x5b, 0x3d, 0x00, 0xbe, 0x4d, 0x3d,
  0x40, 0x4f, 0xe5, 0x3d, 0x30, 0x5b, 0x1c, 0x3d, 0x68, 0x8d, 0x4d, 0xbe,
  0xa8, 0xb7, 0x3a, 0x3e, 0xc4, 0x9f, 0x46, 0x3e, 0xb8, 0x41, 0x31, 0x3e,
  0x50, 0x50, 0x2d, 0x3d, 0x08, 0x08, 0x57, 0xbe, 0xc0, 0x8a, 0x64, 0x3d,
  0xdc, 0x0c, 0x68, 0x3e, 0xcc, 0x6b, 0x24, 0x3e, 0xb8, 0x3d, 0x8e, 0xbd,
  0xac, 0xb3, 0x4d, 0x3e, 0xe4, 0xd9, 0x75, 0x3e, 0xbc, 0x4d, 0x6e, 0x3e,
  0xe0, 0x85, 0x3c, 0x3e, 0xa0, 0xc2, 0x3a, 0xbd, 0xe0, 0x6e, 0x44, 0xbe,
  0x00, 0x6e, 0xd1, 0x3c, 0x3c, 0xe9, 0x60, 0x3e, 0x3c, 0x1f, 0x03, 0xbe,
  0xd0, 0x8f, 0xce, 0xbd, 0x00, 0x3a, 0x90, 0xbb, 0xd4, 0xde, 0x6d, 0xbe,
  0x00, 0x24, 0x5f, 0xbc, 0x0c, 0xdb, 0x20, 0x3e, 0x34, 0x08, 0x2f, 0xbe,
  0x10, 0xff, 0x29, 0xbe, 0x00, 0xb5, 0xca, 0xbc, 0x98, 0xb1, 0xe7, 0xbd,
  0x70, 0x8a, 0x51, 0xbd, 0x0c, 0x1a, 0x7c, 0xbe, 0x40, 0x10, 0xf9, 0x3d,
  0x40, 0xb0, 0x03, 0x3e, 0x68, 0x25, 0x6d, 0x3e, 0xe0, 0x90, 0x1f, 0x3d,
  0x10, 0x81, 0x08, 0xbe, 0x10, 0x8d, 0x23, 0x3d, 0xdc, 0xa6, 0x29, 0xbe,
  0x38, 0x3e, 0x40, 0xbe, 0x58, 0xad, 0xe5, 0xbd, 0x24, 0x10, 0x2f, 0xbe,
  0xf8, 0x67, 0x84, 0xbd, 0xe0, 0xcb, 0x11, 0xbd, 0xd0, 0xd1, 0x16, 0xbd,
  0x70, 0x15, 0x49, 0xbe, 0xa8, 0xa0, 0xf5, 0xbd, 0x28, 0x31, 0x40, 0xbe,
  0x10, 0x90, 0x79, 0xbd, 0xa0, 0xa9, 0x6c, 0xbe, 0x9c, 0xdf, 0x23, 0x3e,
  0xfc, 0x31, 0x75, 0xbe, 0x40, 0x4a, 0x7b, 0xbe, 0x30, 0xe5, 0xab, 0x3d,
  0xb0, 0x5e, 0x97, 0x3d, 0x50, 0x79, 0xd8, 0xbd, 0xb0, 0x7d, 0x34, 0x3d,
  0xd8, 0x8e, 0x74, 0xbe, 0x24, 0x75, 0x34, 0xbe, 0x90, 0x5c, 0x73, 0xbe,
  0x80, 0x1b, 0xa6, 0xbc, 0x90, 0x20, 0x41, 0x3e, 0x90, 0xc5, 0x88, 0xbd,
  0xa0, 0x31, 0xa9, 0xbd, 0x40, 0x7c, 0xb7, 0xbd, 0xd0, 0x21, 0x5c, 0x3d,
  0x10, 0x60, 0x6f, 0xbd, 0x68, 0x82, 0x66, 0xbe, 0xfc, 0x24, 0x2b, 0xbe,
  0x50, 0xf1, 0xe5, 0x3d, 0xa0, 0xed, 0x95, 0xbd, 0x74, 0xc6, 0x1f, 0xbe,
  0x3c, 0x2e, 0x30, 0x3e, 0xb8, 0xf3, 0x9c, 0xbd, 0x38, 0x9c, 0x23, 0x3e,
  0x60, 0xd6, 0xb9, 0x3d, 0xfc, 0xfc, 0x16, 0x3e, 0xe0, 0xef, 0x3a, 0x3d,
  0x60, 0xbd, 0xcf, 0x3d, 0x50, 0x14, 0x1b, 0xbe, 0x3c, 0x93, 0x73, 0x3e,
  0xe0, 0xae, 0xb1, 0x3d, 0x4c, 0x11, 0x1d, 0x3e, 0x54, 0x0a, 0x17, 0xbe,
  0x58, 0xfe, 0xfa, 0x3d, 0x70, 0xea, 0xb2, 0x3d, 0x44, 0xbf, 0x51, 0xbe,
  0x60, 0x76, 0x52, 0xbd, 0x6c, 0x57, 0x1e, 0x3e, 0x1c, 0x62, 0x68, 0x3e,
  0xe0, 0x85, 0x96, 0xbd, 0x38, 0x86, 0xb3, 0x3d, 0x98, 0x02, 0x8d, 0xbd,
  0x08, 0xd5, 0xd2, 0xbd, 0x18, 0xe2, 0xc0, 0x3d, 0xd4, 0x07, 0x36, 0x3e,
  0xbc, 0xb5, 0x40, 0x3e, 0x24, 0xe7, 0x29, 0xbe, 0x80, 0xeb, 0x3d, 0xbc,
  0x80, 0x0e, 0xeb, 0x3d, 0xc4, 0x9b, 0x78, 0x3e, 0x90, 0x55, 0x9a, 0x3d,
  0x30, 0xd8, 0x1a, 0x3e, 0xc0, 0xe3, 0x3f, 0x3d, 0x84, 0x47, 0x54, 0x3e,
  0xdc, 0xef, 0x0c, 0x3e, 0x94, 0x0b, 0x3d, 0xbe, 0x80, 0x16, 0x88, 0xbd,
  0x6c, 0x32, 0x68, 0x3e, 0x70, 0xe7, 0x20, 0x3e, 0x0c, 0xd4, 0x45, 0x3e,
  0x80, 0xeb, 0x70, 0x3e, 0xc0, 0x31, 0xbc, 0x3c, 0xa0, 0xce, 0xa8, 0x3d,
  0xd8, 0x99, 0x0e, 0x3e, 0x78, 0x67, 0x72, 0xbe, 0x20, 0x0f, 0xef, 0xbc,
  0x7c, 0xec, 0x0d, 0xbe, 0x78, 0x2b, 0xff, 0xbd, 0x70, 0x9a, 0xc1, 0x3d,
  0x68, 0xb3, 0xe1, 0x3d, 0x40, 0xc4, 0xde, 0xbd, 0x58, 0x8d, 0x7b, 0xbe,
  0x2c, 0x5f, 0x18, 0x3e, 0xcc, 0xa9, 0x62, 0xbe, 0x80, 0x37, 0xd4, 0xbb,
  0x00, 0x69, 0x08, 0xbc, 0x7c, 0xcf, 0x74, 0xbe, 0x70, 0x47, 0x84, 0xbd,
  0xf4, 0x09, 0x51, 0x3e, 0x80, 0x29, 0x55, 0xbe, 0xf8, 0xd7, 0x7d, 0xbe,
  0x90, 0x1b, 0x74, 0xbd, 0xa4, 0x12, 0x52, 0x3e, 0x40, 0x93, 0x0c, 0x3e,
  0xb4, 0xfa, 0x16, 0x3e, 0xc0, 0xa2, 0x4c, 0x3e, 0xc8, 0xfc, 0x34, 0xbe,
  0x64, 0x76, 0x3a, 0xbe, 0x80, 0x4f, 0x55, 0x3e, 0x70, 0x23, 0x58, 0x3e,
  0x78, 0x8b, 0x61, 0xbe, 0x64, 0xd0, 0x42, 0xbe, 0x84, 0x4a, 0x2c, 0x3e,
  0xe0, 0x73, 0xb5, 0xbd, 0x10, 0xe4, 0xb2, 0xbd, 0x08, 0x5e, 0x60, 0x3e,
  0xe0, 0x7d, 0x93, 0x3d, 0x88, 0x39, 0x6a, 0x3e, 0x80, 0x4e, 0xf2, 0x3c,
  0x38, 0xcc, 0xe0, 0x3d, 0x80, 0xc6, 0x83, 0xbc, 0x28, 0x43, 0xad, 0xbd,
  0x9c, 0x95, 0x00, 0x3e, 0x80, 0x9e, 0x6b, 0xbc, 0xe8, 0x77, 0x60, 0xbe,
  0x98, 0x9e, 0x86, 0xbd, 0xf8, 0x58, 0xdd, 0x3d, 0x98, 0x44, 0x89, 0xbd,
  0x8c, 0xe9, 0x1c, 0xbe, 0xbc, 0x5b, 0x26, 0xbe, 0x64, 0x9b, 0x28, 0x3e,
  0x38, 0x46, 0x0d, 0x3e, 0x00, 0xa3, 0xb6, 0xbd, 0xd8, 0xec, 0xf9, 0x3d,
  0xe0, 0xe9, 0x20, 0xbd, 0x40, 0x7a, 0x5e, 0xbc, 0x18, 0x6f, 0x6b, 0xbe,
  0xa0, 0xb6, 0xbc, 0xbc, 0x90, 0x0c, 0x67, 0xbe, 0x30, 0x85, 0x11, 0xbe,
  0xa8, 0xf2, 0x62, 0x3e, 0x40, 0xa9, 0x7a, 0x3c, 0x30, 0xee, 0x72, 0xbd,
  0x04, 0x32, 0x6c, 0x3e, 0x08, 0x2d, 0xa8, 0x3d, 0xb0, 0xcf, 0x82, 0x3d,
  0xa8, 0x31, 0x36, 0x3e, 0x30, 0x7e, 0x64, 0x3d, 0x00, 0x5e, 0x83, 0x3b,
  0xd0, 0x8b, 0xde, 0x3d, 0xb4, 0x7b, 0x6f, 0x3e, 0x80, 0x6b, 0x1d, 0x3e,
  0x40, 0x32, 0x2c, 0xbe, 0x0c, 0x6e, 0x30, 0x3e, 0xb8, 0xaa, 0x18, 0xbe,
  0x4c, 0xd8, 0x3a, 0x3e, 0x20, 0xed, 0xfc, 0xbc, 0xc0, 0x69, 0xab, 0xbc,
  0xb0, 0xe4, 0x38, 0xbd, 0xa4, 0xa0, 0x33, 0xbe, 0x80, 0x81, 0x23, 0x3d,
  0xb4, 0x44, 0x25, 0xbe, 0x4c, 0xfb, 0x7b, 0x3e, 0x08, 0x19, 0x4c, 0x3e,
  0xb0, 0xb0, 0x81, 0xbd, 0x00, 0x15, 0xde, 0x3b, 0x54, 0x70, 0x5e, 0xbe,
  0x88, 0x9f, 0xc0, 0x3d, 0x78, 0x32, 0xa6, 0x3d, 0x5c, 0xac, 0x64, 0xbe,
  0xb0, 0x79, 0x09, 0x3e, 0x68, 0x65, 0xcc, 0x3d, 0xd0, 0xd8, 0x41, 0x3e,
  0xc0, 0x98, 0x6f, 0xbc, 0xc8, 0x78, 0x36, 0xbe, 0x00, 0xf1, 0x0f, 0xbc,
  0x38, 0x97, 0xb8, 0xbd, 0xf4, 0xc8, 0x03, 0x3e, 0xa8, 0xff, 0x3e, 0xbe,
  0x20, 0xbc, 0x75, 0x3d, 0xe0, 0x59, 0x59, 0x3d, 0x38, 0x6a, 0x71, 0x3e,
  0x60, 0x07, 0xb9, 0xbd, 0x58, 0xff, 0xa3, 0x3d, 0xf8, 0xd2, 0x54, 0xbe,
  0x48, 0x54, 0x5c, 0x3e, 0x50, 0x03, 0xd6, 0xbd, 0xe0, 0xc4, 0x08, 0x3e,
  0x34, 0x57, 0x6a, 0xbe, 0xb0, 0xd9, 0x60, 0xbe, 0x54, 0xde, 0x12, 0xbe,
  0x20, 0xfe, 0x5a, 0xbd, 0x40, 0x6b, 0x5d, 0x3c, 0x88, 0x5f, 0x21, 0xbe,
  0xe8, 0x3b, 0x55, 0xbe, 0xa0, 0xd2, 0x35, 0x3d, 0xd8, 0xbd, 0x47, 0x3e,
  0x98, 0x31, 0x51, 0x3e, 0x40, 0xf6, 0x4c, 0xbc, 0x00, 0x57, 0x52, 0x3d,
  0xe0, 0xff, 0x65, 0x3e, 0xec, 0xfc, 0x17, 0x3e, 0xb8, 0x27, 0x80, 0x3d,
  0x90, 0x6e, 0xd1, 0x3d, 0xcc, 0x9b, 0x37, 0xbe, 0xe8, 0xae, 0x29, 0x3e,
  0x94, 0xc0, 0x3c, 0x3e, 0x30, 0x16, 0xfc, 0x3d, 0xb8, 0x90, 0x1e, 0xbe,
  0x84, 0x60, 0x4b, 0xbe, 0xcc, 0x5b, 0x57, 0xbe, 0xf0, 0x41, 0x71, 0xbe,
  0x14, 0x72, 0x08, 0x3e, 0xf0, 0x18, 0x43, 0x3e, 0x18, 0xd5, 0x45, 0xbe,
  0x80, 0x24, 0x7e, 0xbc, 0x10, 0x17, 0x1a, 0x3d, 0xf0, 0xe5, 0xdf, 0x3d,
  0x88, 0xa9, 0x00, 0xbe, 0xd0, 0xee, 0x96, 0x3d, 0x98, 0x14, 0x91, 0x3d,
  0x30, 0xda, 0x66, 0xbd, 0x00, 0x84, 0xbe, 0x3c, 0xf4, 0x11, 0x04, 0xbe,
  0x74, 0x7d, 0x67, 0x3e, 0x10, 0xbe, 0xc9, 0xbd, 0x68, 0x11, 0x37, 0xbe,
  0x80, 0x8d, 0xe6, 0x3b, 0x5c, 0x92, 0x4a, 0x3e, 0xa0, 0xe3, 0x5f, 0xbe,
  0xf0, 0x59, 0xee, 0xbd, 0xc0, 0x83, 0x8f, 0xbc, 0xc0, 0x97, 0x10, 0xbe,
  0x30, 0x68, 0x6f, 0xbe, 0xa4, 0x4f, 0x16, 0xbe, 0xdc, 0x5d, 0x64, 0x3e,
  0x14, 0x6f, 0x10, 0x3e, 0xa0, 0x9f, 0xcf, 0x3d, 0xa0, 0x58, 0x04, 0x3e,
  0x80, 0xc5, 0x70, 0x3d, 0x20, 0xac, 0xc1, 0xbc, 0x68, 0xde, 0x48, 0x3e,
  0x70, 0x10, 0x25, 0x3d, 0xc0, 0x06, 0x31, 0x3c, 0x50, 0xfe, 0x3e, 0x3e,
  0x10, 0x6a, 0x10, 0x3e, 0x68, 0x0d, 0xec, 0x3d, 0xb0, 0xca, 0x83, 0x3d,
  0x40, 0xb9, 0xb6, 0xbc, 0x70, 0xf1, 0x7a, 0x3e, 0x40, 0x63, 0x94, 0x3c,
  0xec, 0x78, 0x57, 0xbe, 0x00, 0x21, 0x69, 0x3c, 0x60, 0xcc, 0x7c, 0xbe,
  0x30, 0x55, 0x9a, 0x3d, 0xd0, 0x47, 0x1c, 0xbe, 0x00, 0xbc, 0xf8, 0xbc,
  0x64, 0x32, 0x7d, 0xbe, 0x00, 0xaf, 0x84, 0xbc, 0xc8, 0x58, 0xae, 0xbd,
  0x00, 0xe1, 0xc5, 0xbd, 0x80, 0x4a, 0x90, 0x3c, 0x4c, 0x3a, 0x06, 0xbe,
  0x50, 0x16, 0x4b, 0x3d, 0x44, 0x81, 0x17, 0xbe, 0x7c, 0x48, 0x47, 0x3e,
  0x64, 0xb2, 0x04, 0xbe, 0x40, 0xeb, 0xf3, 0x3c, 0x08, 0xf6, 0x27, 0xbe,
  0x30, 0x89, 0x20, 0xbe, 0x78, 0x8d, 0x95, 0xbd, 0x40, 0x0d, 0x9c, 0xbc,
  0x24, 0xd7, 0x56, 0x3e, 0x34, 0x1f, 0x05, 0xbe, 0x98, 0xdf, 0xec, 0x3d,
  0x00, 0x00, 0x06, 0x00, 0x08, 0x00, 0x04, 0x00, 0x06, 0x00, 0x00, 0x00,
  0x04, 0x00, 0x00, 0x00, 0x80, 0x00, 0x00, 0x00, 0x28, 0x07, 0xbd, 0x3e,
  0xcb, 0x1a, 0xbc, 0xbe, 0x02, 0xbc, 0x45, 0xbe, 0x68, 0xf0, 0x27, 0x3e,
  0x66, 0x12, 0x9b, 0xbe, 0xf1, 0xe2, 0xd3, 0xbe, 0x95, 0x23, 0xb4, 0xbe,
  0x28, 0x33, 0x44, 0x3e, 0x4a, 0x8a, 0x34, 0xbe, 0x69, 0x8e, 0xd7, 0xbe,
  0x7c, 0x7c, 0xaf, 0x3e, 0xec, 0x21, 0x45, 0x3e, 0x1c, 0x57, 0x43, 0x3e,
  0xe4, 0xdc, 0x1e, 0x3e, 0xb0, 0x01, 0x84, 0x3e, 0x92, 0x1f, 0x8d, 0x3e,
  0xe0, 0x1b, 0xfb, 0xbc, 0x84, 0x7c, 0xa2, 0x3e, 0xf0, 0xe8, 0xb6, 0x3e,
  0xc0, 0x8c, 0xe2, 0xbc, 0x76, 0xdb, 0xbd, 0xbe, 0xfc, 0x8a, 0xb3, 0xbd,
  0x50, 0xc4, 0x0b, 0xbd, 0xd6, 0x5a, 0x1b, 0xbe, 0x20, 0x4b, 0xaf, 0x3e,
  0xdc, 0xae, 0xaa, 0x3e, 0xa2, 0x72, 0x98, 0xbe, 0xda, 0xb1, 0x8f, 0xbe,
  0xc5, 0x63, 0xc6, 0xbe, 0xa4, 0x9b, 0x94, 0xbe, 0x48, 0x8f, 0x9b, 0x3d,
  0x00, 0xff, 0xf6, 0x3b, 0x24, 0xfc, 0xff, 0xff, 0x28, 0xfc, 0xff, 0xff,
  0x0f, 0x00, 0x00, 0x00, 0x4d, 0x4c, 0x49, 0x52, 0x20, 0x43, 0x6f, 0x6e,
  0x76, 0x65, 0x72, 0x74, 0x65, 0x64, 0x2e, 0x00, 0x01, 0x00, 0x00, 0x00,
  0x14, 0x00, 0x00, 0x00, 0x00, 0x00, 0x0e, 0x00, 0x18, 0x00, 0x14, 0x00,
  0x10, 0x00, 0x0c, 0x00, 0x08, 0x00, 0x04, 0x00, 0x0e, 0x00, 0x00, 0x00,
  0x14, 0x00, 0x00, 0x00, 0x1c, 0x00, 0x00, 0x00, 0xdc, 0x00, 0x00, 0x00,
  0xe0, 0x00, 0x00, 0x00, 0xe4, 0x00, 0x00, 0x00, 0x04, 0x00, 0x00, 0x00,
  0x6d, 0x61, 0x69, 0x6e, 0x00, 0x00, 0x00, 0x00, 0x03, 0x00, 0x00, 0x00,
  0x84, 0x00, 0x00, 0x00, 0x3c, 0x00, 0x00, 0x00, 0x04, 0x00, 0x00, 0x00,
  0x96, 0xff, 0xff, 0xff, 0x10, 0x00, 0x00, 0x00, 0x00, 0x00, 0x00, 0x08,
  0x10, 0x00, 0x00, 0x00, 0x14, 0x00, 0x00, 0x00, 0x86, 0xff, 0xff, 0xff,
  0x00, 0x00, 0x00, 0x01, 0x01, 0x00, 0x00, 0x00, 0x06, 0x00, 0x00, 0x00,
  0x03, 0x00, 0x00, 0x00, 0x05, 0x00, 0x00, 0x00, 0x01, 0x00, 0x00, 0x00,
  0xff, 0xff, 0xff, 0xff, 0xca, 0xff, 0xff, 0xff, 0x10, 0x00, 0x00, 0x00,
  0x00, 0x00, 0x00, 0x08, 0x10, 0x00, 0x00, 0x00, 0x14, 0x00, 0x00, 0x00,
  0xba, 0xff, 0xff, 0xff, 0x00, 0x00, 0x00, 0x01, 0x01, 0x00, 0x00, 0x00,
  0x05, 0x00, 0x00, 0x00, 0x03, 0x00, 0x00, 0x00, 0x04, 0x00, 0x00, 0x00,
  0x02, 0x00, 0x00, 0x00, 0xff, 0xff, 0xff, 0xff, 0x00, 0x00, 0x0e, 0x00,
  0x16, 0x00, 0x00, 0x00, 0x10, 0x00, 0x0c, 0x00, 0x0b, 0x00, 0x04, 0x00,
  0x0e, 0x00, 0x00, 0x00, 0x18, 0x00, 0x00, 0x00, 0x00, 0x00, 0x00, 0x08,
  0x18, 0x00, 0x00, 0x00, 0x1c, 0x00, 0x00, 0x00, 0x00, 0x00, 0x06, 0x00,
  0x08, 0x00, 0x07, 0x00, 0x06, 0x00, 0x00, 0x00, 0x00, 0x00, 0x00, 0x01,
  0x01, 0x00, 0x00, 0x00, 0x04, 0x00, 0x00, 0x00, 0x03, 0x00, 0x00, 0x00,
  0x00, 0x00, 0x00, 0x00, 0x03, 0x00, 0x00, 0x00, 0xff, 0xff, 0xff, 0xff,
  0x01, 0x00, 0x00, 0x00, 0x06, 0x00, 0x00, 0x00, 0x01, 0x00, 0x00, 0x00,
  0x00, 0x00, 0x00, 0x00, 0x07, 0x00, 0x00, 0x00, 0x84, 0x02, 0x00, 0x00,
  0x2c, 0x02, 0x00, 0x00, 0xd4, 0x01, 0x00, 0x00, 0x88, 0x01, 0x00, 0x00,
  0xf8, 0x00, 0x00, 0x00, 0x60, 0x00, 0x00, 0x00, 0x04, 0x00, 0x00, 0x00,
  0xae, 0xfd, 0xff, 0xff, 0x00, 0x00, 0x00, 0x01, 0x14, 0x00, 0x00, 0x00,
  0x1c, 0x00, 0x00, 0x00, 0x1c, 0x00, 0x00, 0x00, 0x07, 0x00, 0x00, 0x00,
  0x34, 0x00, 0x00, 0x00, 0x02, 0x00, 0x00, 0x00, 0xff, 0xff, 0xff, 0xff,
  0x01, 0x00, 0x00, 0x00, 0x98, 0xfd, 0xff, 0xff, 0x1b, 0x00, 0x00, 0x00,
  0x53, 0x74, 0x61, 0x74, 0x65, 0x66, 0x75, 0x6c, 0x50, 0x61, 0x72, 0x74,
  0x69, 0x74, 0x69, 0x6f, 0x6e, 0x65, 0x64, 0x43, 0x61, 0x6c, 0x6c, 0x5f,
  0x31, 0x3a, 0x30, 0x00, 0x02, 0x00, 0x00, 0x00, 0x01, 0x00, 0x00, 0x00,
  0x01, 0x00, 0x00, 0x00, 0x06, 0xfe, 0xff, 0xff, 0x00, 0x00, 0x00, 0x01,
  0x14, 0x00, 0x00, 0x00, 0x1c, 0x00, 0x00, 0x00, 0x1c, 0x00, 0x00, 0x00,
  0x06, 0x00, 0x00, 0x00, 0x70, 0x00, 0x00, 0x00, 0x02, 0x00, 0x00, 0x00,
  0xff, 0xff, 0xff, 0xff, 0x20, 0x00, 0x00, 0x00, 0xf0, 0xfd, 0xff, 0xff,
  0x54, 0x00, 0x00, 0x00, 0x73, 0x65, 0x71, 0x75, 0x65, 0x6e, 0x74, 0x69,
  0x61, 0x6c, 0x5f, 0x31, 0x2f, 0x64, 0x65, 0x6e, 0x73, 0x65, 0x5f, 0x31,
  0x5f, 0x32, 0x2f, 0x4d, 0x61, 0x74, 0x4d, 0x75, 0x6c, 0x3b, 0x73, 0x65,
  0x71, 0x75, 0x65, 0x6e, 0x74, 0x69, 0x61, 0x6c, 0x5f, 0x31, 0x2f, 0x64,
  0x65, 0x6e, 0x73, 0x65, 0x5f, 0x31, 0x5f, 0x32, 0x2f, 0x52, 0x65, 0x6c,
  0x75, 0x3b, 0x73, 0x65, 0x71, 0x75, 0x65, 0x6e, 0x74, 0x69, 0x61, 0x6c,
  0x5f, 0x31, 0x2f, 0x64, 0x65, 0x6e, 0x73, 0x65, 0x5f, 0x31, 0x5f, 0x32,
  0x2f, 0x41, 0x64, 0x64, 0x00, 0x00, 0x00, 0x00, 0x02, 0x00, 0x00, 0x00,
  0x01, 0x00, 0x00, 0x00, 0x20, 0x00, 0x00, 0x00, 0x9a, 0xfe, 0xff, 0xff,
  0x00, 0x00, 0x00, 0x01, 0x14, 0x00, 0x00, 0x00, 0x1c, 0x00, 0x00, 0x00,
  0x1c, 0x00, 0x00, 0x00, 0x05, 0x00, 0x00, 0x00, 0x68, 0x00, 0x00, 0x00,
  0x02, 0x00, 0x00, 0x00, 0xff, 0xff, 0xff, 0xff, 0x40, 0x00, 0x00, 0x00,
  0x84, 0xfe, 0xff, 0xff, 0x4e, 0x00, 0x00, 0x00, 0x73, 0x65, 0x71, 0x75,
  0x65, 0x6e, 0x74, 0x69, 0x61, 0x6c, 0x5f, 0x31, 0x2f, 0x64, 0x65, 0x6e,
  0x73, 0x65, 0x5f, 0x31, 0x2f, 0x4d, 0x61, 0x74, 0x4d, 0x75, 0x6c, 0x3b,
  0x73, 0x65, 0x71, 0x75, 0x65, 0x6e, 0x74, 0x69, 0x61, 0x6c, 0x5f, 0x31,
  0x2f, 0x64, 0x65, 0x6e, 0x73, 0x65, 0x5f, 0x31, 0x2f, 0x52, 0x65, 0x6c,
  0x75, 0x3b, 0x73, 0x65, 0x71, 0x75, 0x65, 0x6e, 0x74, 0x69, 0x61, 0x6c,
  0x5f, 0x31, 0x2f, 0x64, 0x65, 0x6e, 0x73, 0x65, 0x5f, 0x31, 0x2f, 0x41,
  0x64, 0x64, 0x00, 0x00, 0x02, 0x00, 0x00, 0x00, 0x01, 0x00, 0x00, 0x00,
  0x40, 0x00, 0x00, 0x00, 0x7a, 0xff, 0xff, 0xff, 0x00, 0x00, 0x00, 0x01,
  0x10, 0x00, 0x00, 0x00, 0x10, 0x00, 0x00, 0x00, 0x04, 0x00, 0x00, 0x00,
  0x28, 0x00, 0x00, 0x00, 0x00, 0xff, 0xff, 0xff, 0x1b, 0x00, 0x00, 0x00,
  0x73, 0x65, 0x71, 0x75, 0x65, 0x6e, 0x74, 0x69, 0x61, 0x6c, 0x5f, 0x31,
  0x2f, 0x64, 0x65, 0x6e, 0x73, 0x65, 0x5f, 0x31, 0x2f, 0x4d, 0x61, 0x74,
  0x4d, 0x75, 0x6c, 0x00, 0x02, 0x00, 0x00, 0x00, 0x40, 0x00, 0x00, 0x00,
  0x03, 0x00, 0x00, 0x00, 0xc2, 0xff, 0xff, 0xff, 0x00, 0x00, 0x00, 0x01,
  0x10, 0x00, 0x00, 0x00, 0x10, 0x00, 0x00, 0x00, 0x03, 0x00, 0x00, 0x00,
  0x1c, 0x00, 0x00, 0x00, 0x48, 0xff, 0xff, 0xff, 0x0f, 0x00, 0x00, 0x00,
  0x61, 0x72, 0x69, 0x74, 0x68, 0x2e, 0x63, 0x6f, 0x6e, 0x73, 0x74, 0x61,
  0x6e, 0x74, 0x31, 0x00, 0x02, 0x00, 0x00, 0x00, 0x20, 0x00, 0x00, 0x00,
  0x40, 0x00, 0x00, 0x00, 0x00, 0x00, 0x16, 0x00, 0x18, 0x00, 0x14, 0x00,
  0x00, 0x00, 0x10, 0x00, 0x0c, 0x00, 0x08, 0x00, 0x00, 0x00, 0x00, 0x00,
  0x00, 0x00, 0x07, 0x00, 0x16, 0x00, 0x00, 0x00, 0x00, 0x00, 0x00, 0x01,
  0x10, 0x00, 0x00, 0x00, 0x10, 0x00, 0x00, 0x00, 0x02, 0x00, 0x00, 0x00,
  0x1c, 0x00, 0x00, 0x00, 0x9c, 0xff, 0xff, 0xff, 0x0e, 0x00, 0x00, 0x00,
  0x61, 0x72, 0x69, 0x74, 0x68, 0x2e, 0x63, 0x6f, 0x6e, 0x73, 0x74, 0x61,
  0x6e, 0x74, 0x00, 0x00, 0x02, 0x00, 0x00, 0x00, 0x01, 0x00, 0x00, 0x00,
  0x20, 0x00, 0x00, 0x00, 0x00, 0x00, 0x16, 0x00, 0x1c, 0x00, 0x18, 0x00,
  0x00, 0x00, 0x14, 0x00, 0x10, 0x00, 0x0c, 0x00, 0x00, 0x00, 0x00, 0x00,
  0x08, 0x00, 0x07, 0x00, 0x16, 0x00, 0x00, 0x00, 0x00, 0x00, 0x00, 0x01,
  0x14, 0x00, 0x00, 0x00, 0x20, 0x00, 0x00, 0x00, 0x20, 0x00, 0x00, 0x00,
  0x01, 0x00, 0x00, 0x00, 0x3c, 0x00, 0x00, 0x00, 0x02, 0x00, 0x00, 0x00,
  0xff, 0xff, 0xff, 0xff, 0x03, 0x00, 0x00, 0x00, 0x04, 0x00, 0x04, 0x00,
  0x04, 0x00, 0x00, 0x00, 0x1e, 0x00, 0x00, 0x00, 0x73, 0x65, 0x72, 0x76,
  0x69, 0x6e, 0x67, 0x5f, 0x64, 0x65, 0x66, 0x61, 0x75, 0x6c, 0x74, 0x5f,
  0x6b, 0x65, 0x72, 0x61, 0x73, 0x5f, 0x74, 0x65, 0x6e, 0x73, 0x6f, 0x72,
  0x3a, 0x30, 0x00, 0x00, 0x02, 0x00, 0x00, 0x00, 0x01, 0x00, 0x00, 0x00,
  0x03, 0x00, 0x00, 0x00, 0x01, 0x00, 0x00, 0x00, 0x10, 0x00, 0x00, 0x00,
  0x0c, 0x00, 0x0c, 0x00, 0x0b, 0x00, 0x00, 0x00, 0x00, 0x00, 0x04, 0x00,
  0x0c, 0x00, 0x00, 0x00, 0x09, 0x00, 0x00, 0x00, 0x00, 0x00, 0x00, 0x09
};
unsigned int anomaly_detection_model_tflite_len = 10680;
