unsigned char anomaly_detection_model_tflite[] = {
  0x1c, 0x00, 0x00, 0x00, 0x54, 0x46, 0x4c, 0x33, 0x14, 0x00, 0x20, 0x00,
  0x1c, 0x00, 0x18, 0x00, 0x14, 0x00, 0x10, 0x00, 0x0c, 0x00, 0x00, 0x00,
  0x08, 0x00, 0x04, 0x00, 0x14, 0x00, 0x00, 0x00, 0x1c, 0x00, 0x00, 0x00,
  0x98, 0x00, 0x00, 0x00, 0xf0, 0x00, 0x00, 0x00, 0x14, 0x27, 0x00, 0x00,
  0x24, 0x27, 0x00, 0x00, 0x0c, 0x2c, 0x00, 0x00, 0x03, 0x00, 0x00, 0x00,
  0x01, 0x00, 0x00, 0x00, 0x10, 0x00, 0x00, 0x00, 0x00, 0x00, 0x0a, 0x00,
  0x10, 0x00, 0x0c, 0x00, 0x08, 0x00, 0x04, 0x00, 0x0a, 0x00, 0x00, 0x00,
  0x0c, 0x00, 0x00, 0x00, 0x1c, 0x00, 0x00, 0x00, 0x3c, 0x00, 0x00, 0x00,
  0x0f, 0x00, 0x00, 0x00, 0x73, 0x65, 0x72, 0x76, 0x69, 0x6e, 0x67, 0x5f,
  0x64, 0x65, 0x66, 0x61, 0x75, 0x6c, 0x74, 0x00, 0x01, 0x00, 0x00, 0x00,
  0x04, 0x00, 0x00, 0x00, 0x90, 0xff, 0xff, 0xff, 0x09, 0x00, 0x00, 0x00,
  0x04, 0x00, 0x00, 0x00, 0x08, 0x00, 0x00, 0x00, 0x6f, 0x75, 0x74, 0x70,
  0x75, 0x74, 0x5f, 0x30, 0x00, 0x00, 0x00, 0x00, 0x01, 0x00, 0x00, 0x00,
  0x04, 0x00, 0x00, 0x00, 0xfa, 0xd9, 0xff, 0xff, 0x04, 0x00, 0x00, 0x00,
  0x0f, 0x00, 0x00, 0x00, 0x6b, 0x65, 0x72, 0x61, 0x73, 0x5f, 0x74, 0x65,
  0x6e, 0x73, 0x6f, 0x72, 0x5f, 0x32, 0x38, 0x00, 0x02, 0x00, 0x00, 0x00,
  0x34, 0x00, 0x00, 0x00, 0x04, 0x00, 0x00, 0x00, 0xdc, 0xff, 0xff, 0xff,
  0x0c, 0x00, 0x00, 0x00, 0x04, 0x00, 0x00, 0x00, 0x13, 0x00, 0x00, 0x00,
  0x43, 0x4f, 0x4e, 0x56, 0x45, 0x52, 0x53, 0x49, 0x4f, 0x4e, 0x5f, 0x4d,
  0x45, 0x54, 0x41, 0x44, 0x41, 0x54, 0x41, 0x00, 0x08, 0x00, 0x0c, 0x00,
  0x08, 0x00, 0x04, 0x00, 0x08, 0x00, 0x00, 0x00, 0x0b, 0x00, 0x00, 0x00,
  0x04, 0x00, 0x00, 0x00, 0x13, 0x00, 0x00, 0x00, 0x6d, 0x69, 0x6e, 0x5f,
  0x72, 0x75, 0x6e, 0x74, 0x69, 0x6d, 0x65, 0x5f, 0x76, 0x65, 0x72, 0x73,
  0x69, 0x6f, 0x6e, 0x00, 0x0d, 0x00, 0x00, 0x00, 0x20, 0x26, 0x00, 0x00,
  0x18, 0x26, 0x00, 0x00, 0x88, 0x25, 0x00, 0x00, 0x70, 0x05, 0x00, 0x00,
  0x5c, 0x05, 0x00, 0x00, 0xcc, 0x04, 0x00, 0x00, 0xbc, 0x03, 0x00, 0x00,
  0xac, 0x00, 0x00, 0x00, 0xa4, 0x00, 0x00, 0x00, 0x9c, 0x00, 0x00, 0x00,
  0x94, 0x00, 0x00, 0x00, 0x74, 0x00, 0x00, 0x00, 0x04, 0x00, 0x00, 0x00,
  0xaa, 0xda, 0xff, 0xff, 0x04, 0x00, 0x00, 0x00, 0x60, 0x00, 0x00, 0x00,
  0x10, 0x00, 0x00, 0x00, 0x00, 0x00, 0x00, 0x00, 0x08, 0x00, 0x0e, 0x00,
  0x08, 0x00, 0x04, 0x00, 0x08, 0x00, 0x00, 0x00, 0x10, 0x00, 0x00, 0x00,
  0x24, 0x00, 0x00, 0x00, 0x00, 0x00, 0x06, 0x00, 0x08, 0x00, 0x04, 0x00,
  0x06, 0x00, 0x00, 0x00, 0x04, 0x00, 0x00, 0x00, 0x00, 0x00, 0x00, 0x00,
  0x0c, 0x00, 0x18, 0x00, 0x14, 0x00, 0x10, 0x00, 0x0c, 0x00, 0x04, 0x00,
  0x0c, 0x00, 0x00, 0x00, 0x81, 0x03, 0x64, 0xf9, 0x06, 0x2c, 0x12, 0x5c,
  0x02, 0x00, 0x00, 0x00, 0x02, 0x00, 0x00, 0x00, 0x04, 0x00, 0x00, 0x00,
  0x06, 0x00, 0x00, 0x00, 0x32, 0x2e, 0x31, 0x37, 0x2e, 0x30, 0x00, 0x00,
  0x16, 0xdb, 0xff, 0xff, 0x04, 0x00, 0x00, 0x00, 0x10, 0x00, 0x00, 0x00,
  0x31, 0x2e, 0x35, 0x2e, 0x30, 0x00, 0x00, 0x00, 0x00, 0x00, 0x00, 0x00,
  0x00, 0x00, 0x00, 0x00, 0xd4, 0xd5, 0xff, 0xff, 0xd8, 0xd5, 0xff, 0xff,
  0xdc, 0xd5, 0xff, 0xff, 0x3e, 0xdb, 0xff, 0xff, 0x04, 0x00, 0x00, 0x00,
  0x00, 0x03, 0x00, 0x00, 0x21, 0xc8, 0x1f, 0x3d, 0x94, 0xc3, 0x09, 0xbe,
  0x20, 0x21, 0x11, 0xbe, 0xaa, 0xeb, 0xb5, 0xbd, 0xb0, 0xe4, 0xad, 0xbc,
  0xf6, 0xaf, 0x04, 0xbe, 0x44, 0xf7, 0x89, 0xbe, 0x9d, 0x41, 0x75, 0xbe,
  0x9c, 0xe9, 0xdb, 0xbd, 0xf6, 0xd4, 0x7c, 0xbe, 0xe1, 0x1a, 0x8b, 0xbe,
  0x08, 0xe5, 0x2a, 0xbd, 0xe2, 0x27, 0x08, 0xbe, 0x44, 0x98, 0x12, 0xbe,
  0x9c, 0x49, 0x26, 0xbe, 0x90, 0x54, 0xdb, 0x3c, 0xa4, 0x79, 0xe1, 0xbd,
  0x61, 0x02, 0xaa, 0xbd, 0x3c, 0x9b, 0x95, 0xbe, 0xf2, 0xf5, 0x94, 0xbe,
  0xe0, 0x5a, 0x26, 0x3e, 0xdb, 0x6b, 0xe3, 0xbc, 0x07, 0x85, 0x23, 0x3e,
  0xc6, 0xf7, 0x9c, 0x3c, 0xc4, 0xf9, 0xd0, 0xbb, 0x9c, 0xc5, 0x1e, 0xbe,
  0x98, 0xea, 0xb3, 0x3d, 0xd4, 0x23, 0xf4, 0xbd, 0xaf, 0x80, 0x35, 0x3d,
  0x27, 0x96, 0x38, 0x3e, 0x7b, 0xac, 0x0b, 0xbd, 0x80, 0xef, 0x1e, 0x3e,
  0x4a, 0x01, 0x4b, 0x3d, 0x90, 0xf2, 0x46, 0xbe, 0x34, 0x9f, 0x7a, 0xbe,
  0x3c, 0x68, 0x55, 0x3e, 0x85, 0xaf, 0x22, 0xbe, 0x86, 0xfc, 0x05, 0x3e,
  0x28, 0x4f, 0x1b, 0x3e, 0x04, 0xbb, 0x02, 0xbd, 0xd7, 0x99, 0xd2, 0xbd,
  0xe1, 0x18, 0x68, 0x3d, 0xf4, 0x2c, 0x18, 0x3e, 0xc2, 0xe9, 0x52, 0x3d,
  0x2c, 0xf5, 0xa5, 0xbd, 0x9b, 0x34, 0x26, 0xbe, 0x44, 0xe6, 0x2f, 0x3f,
  0x08, 0x60, 0xa6, 0x3e, 0xc8, 0x77, 0x95, 0xbe, 0xc4, 0xf7, 0x8a, 0x3e,
  0x53, 0xd0, 0x3c, 0xbe, 0x31, 0xbe, 0x93, 0x3d, 0xa1, 0x48, 0xf1, 0xbd,
  0x61, 0xe1, 0x92, 0xbe, 0xdf, 0x51, 0x06, 0x3e, 0x80, 0x91, 0x3d, 0xbf,
  0x2b, 0x68, 0x39, 0xbe, 0xf7, 0x04, 0x0c, 0xbd, 0xf6, 0x05, 0x1e, 0x3d,
  0xf2, 0x56, 0x39, 0x3c, 0x89, 0x9d, 0x05, 0xbe, 0x75, 0xfb, 0x04, 0xc0,
  0xa4, 0x5e, 0x9c, 0x3e, 0xcc, 0x01, 0xe2, 0xbd, 0xe8, 0xcf, 0x1f, 0xbd,
  0xf8, 0xe6, 0x04, 0xbe, 0x1d, 0xa0, 0x28, 0xbc, 0x7b, 0x8f, 0x3d, 0xbe,
  0x7e, 0xb2, 0xac, 0x3c, 0x2a, 0xb3, 0xca, 0x3d, 0xe8, 0x8f, 0x05, 0x3f,
  0x7e, 0x32, 0x13, 0xbf, 0x84, 0x16, 0xf3, 0xbd, 0x04, 0x3b, 0x9b, 0xbd,
  0x34, 0x12, 0x1b, 0x3e, 0x1e, 0xf2, 0x09, 0x3e, 0xb2, 0x8d, 0x16, 0xbf,
  0x32, 0xe8, 0x88, 0xbe, 0x5b, 0xcb, 0x8c, 0xbe, 0xe0, 0xc4, 0xda, 0xbc,
  0x88, 0xd6, 0x35, 0x3e, 0x1f, 0x48, 0xc4, 0x3d, 0xcf, 0x29, 0xd2, 0xbe,
  0xed, 0x99, 0x8d, 0xbe, 0x3f, 0xc8, 0x08, 0xbe, 0xb8, 0x8a, 0x2d, 0x3e,
  0xc0, 0x0f, 0xb6, 0x3c, 0xa3, 0x8e, 0x19, 0x3d, 0x82, 0x81, 0x1f, 0x3e,
  0x2d, 0x9a, 0x86, 0xbe, 0xd2, 0x26, 0x98, 0xbd, 0xb4, 0x43, 0x5e, 0xbe,
  0x2c, 0xc3, 0xe0, 0x3d, 0x00, 0x03, 0xd4, 0xba, 0x7c, 0x5c, 0xd2, 0xbd,
  0x78, 0x81, 0x30, 0xbd, 0xce, 0xe5, 0x91, 0x3d, 0xeb, 0x50, 0x19, 0x3f,
  0xd5, 0x0d, 0xea, 0xbe, 0x97, 0x2f, 0x01, 0xbe, 0x9c, 0x2e, 0x2f, 0xbf,
  0x01, 0x18, 0xaf, 0x3e, 0x10, 0xa9, 0x3d, 0xbd, 0xe6, 0x07, 0x9a, 0x3e,
  0x36, 0x34, 0x03, 0x3d, 0xf2, 0xa9, 0x96, 0xbe, 0x08, 0xbc, 0xb7, 0xbd,
  0xc4, 0x93, 0x75, 0x3e, 0x6b, 0xf9, 0x84, 0xbe, 0xec, 0x09, 0x81, 0x3d,
  0xcc, 0xab, 0x77, 0x3e, 0x28, 0x60, 0x94, 0x3b, 0xa8, 0x9f, 0xca, 0x3d,
  0x4f, 0x4f, 0x82, 0xbd, 0xed, 0x99, 0xc6, 0xbd, 0xf1, 0x46, 0xef, 0xbe,
  0x93, 0xa6, 0x1e, 0x3e, 0x6f, 0xd9, 0xac, 0x3d, 0xe9, 0x26, 0x02, 0xbf,
  0x21, 0xd0, 0x3d, 0xbe, 0x64, 0xb4, 0xc7, 0xbd, 0x30, 0xb4, 0xc7, 0xbc,
  0xa6, 0x49, 0x0e, 0x3e, 0x7c, 0xdb, 0x30, 0x3e, 0x7e, 0x9d, 0x5e, 0xbf,
  0x88, 0x70, 0x9a, 0xbe, 0x23, 0x40, 0xa3, 0x3d, 0x5b, 0x10, 0x4f, 0xbf,
  0x50, 0x20, 0x19, 0x3c, 0x92, 0xd4, 0x36, 0xbe, 0x32, 0xf8, 0x06, 0xbe,
  0x90, 0x5f, 0x96, 0x3e, 0x1d, 0x15, 0xd9, 0x3c, 0x5e, 0x66, 0x52, 0xbd,
  0x38, 0xed, 0x1f, 0xbe, 0xae, 0xea, 0x7c, 0xbc, 0x47, 0x88, 0x7a, 0x3e,
  0xb4, 0xe3, 0x68, 0xbd, 0x00, 0x61, 0x43, 0x3d, 0xd9, 0x0a, 0x77, 0xbe,
  0x09, 0x1a, 0x17, 0xbe, 0x6c, 0x41, 0x7d, 0xbd, 0x53, 0x22, 0x8d, 0xbe,
  0x00, 0x68, 0xd1, 0xbc, 0x66, 0x6d, 0x91, 0xbe, 0xc9, 0x26, 0x13, 0xbe,
  0xe0, 0xdc, 0x97, 0xbe, 0x5a, 0x27, 0x6a, 0xbe, 0x00, 0xce, 0xf0, 0x3d,
  0xfa, 0x4f, 0x59, 0xbe, 0x16, 0xdb, 0x5a, 0xbe, 0xb0, 0xd9, 0xa5, 0x3d,
  0x18, 0x25, 0x68, 0x3e, 0x12, 0xdd, 0x95, 0xbe, 0x74, 0x3a, 0x80, 0x3e,
  0x10, 0x68, 0x5e, 0xbd, 0x23, 0x0f, 0x75, 0xbc, 0x8b, 0x1d, 0x5a, 0x3d,
  0xc4, 0xfc, 0xdd, 0x3c, 0x66, 0xbb, 0x97, 0xbe, 0xb8, 0xb7, 0x61, 0x3e,
  0x4f, 0xfd, 0x8a, 0xbe, 0x94, 0xca, 0x96, 0xbd, 0x26, 0x09, 0x3d, 0xbf,
  0x7a, 0x51, 0x76, 0x3e, 0x7e, 0x29, 0x3c, 0xbe, 0xe1, 0x6a, 0x8a, 0xbe,
  0x2c, 0xf8, 0xf8, 0x3d, 0xd5, 0x13, 0x37, 0x3e, 0xc1, 0x61, 0x47, 0xbf,
  0xe0, 0x14, 0xa1, 0xbe, 0xbc, 0x42, 0x88, 0x3a, 0x5a, 0x2f, 0x01, 0x3d,
  0xdb, 0x4b, 0x86, 0xbc, 0x27, 0x10, 0x61, 0xbe, 0xa0, 0x4f, 0xfa, 0xbc,
  0x9e, 0x52, 0x8c, 0xbe, 0x8e, 0x12, 0x4b, 0xbe, 0x50, 0x23, 0xfa, 0xbc,
  0x4a, 0xa1, 0x40, 0xbe, 0x0e, 0x07, 0xf3, 0x3c, 0xca, 0x7d, 0x9a, 0xbe,
  0xb8, 0xeb, 0x85, 0xbd, 0x92, 0x6a, 0xb6, 0xbc, 0x4a, 0xfb, 0x03, 0x3b,
  0x6b, 0xdc, 0x00, 0x3d, 0x32, 0xe8, 0x49, 0xbe, 0x1a, 0x93, 0x2c, 0x3e,
  0x8e, 0x93, 0x96, 0x3e, 0xde, 0x72, 0x12, 0x3e, 0xcd, 0xed, 0x0d, 0xbe,
  0x61, 0x27, 0xfc, 0xbe, 0x4a, 0xde, 0xff, 0xff, 0x04, 0x00, 0x00, 0x00,
  0x00, 0x01, 0x00, 0x00, 0x3a, 0x32, 0x1e, 0xbd, 0x00, 0x00, 0x00, 0x00,
  0x00, 0x00, 0x00, 0x00, 0x00, 0x00, 0x00, 0x00, 0x00, 0x00, 0x00, 0x00,
  0xb4, 0xd7, 0x2e, 0xbd, 0x00, 0x00, 0x00, 0x00, 0x4f, 0x3b, 0x71, 0xbe,
  0x78, 0x2f, 0xbc, 0xbe, 0x39, 0x72, 0x00, 0xbc, 0x5e, 0x2c, 0x4b, 0xbc,
  0x00, 0x00, 0x00, 0x00, 0x00, 0x00, 0x00, 0x00, 0xd7, 0xc1, 0x22, 0xbe,
  0xed, 0xf6, 0x16, 0xbe, 0x08, 0x2a, 0x41, 0x3e, 0x00, 0x00, 0x00, 0x00,
  0xf8, 0xd4, 0x39, 0xbe, 0xac, 0xa8, 0x5e, 0xbe, 0xaa, 0x86, 0x2a, 0xbe,
  0x5a, 0xfd, 0x60, 0x3d, 0x00, 0x00, 0x00, 0x00, 0xac, 0x18, 0x6a, 0xbe,
  0xbc, 0x4e, 0x0c, 0xbf, 0x00, 0x00, 0x00, 0x00, 0x3c, 0x8c, 0xcb, 0xbd,
  0x00, 0x00, 0x00, 0x00, 0xa8, 0x11, 0xcd, 0xbd, 0x00, 0x00, 0x00, 0x00,
  0xfd, 0x17, 0x3a, 0xbc, 0x00, 0x00, 0x00, 0x00, 0x00, 0x00, 0x00, 0x00,
  0x2a, 0x81, 0xff, 0xbe, 0xac, 0xb5, 0x03, 0x3f, 0x5c, 0xff, 0xb8, 0xbd,
  0x00, 0x00, 0x00, 0x00, 0x00, 0x00, 0x00, 0x00, 0x60, 0xa1, 0x4c, 0xbe,
  0x42, 0x0f, 0x3e, 0xbd, 0x09, 0xfc, 0xa2, 0xbe, 0x00, 0x00, 0x00, 0x00,
  0xf9, 0x79, 0xbf, 0xbc, 0x60, 0x2d, 0xe3, 0xbe, 0x6a, 0xbb, 0x82, 0xbb,
  0x73, 0x93, 0x69, 0xbe, 0xa7, 0x73, 0xbd, 0xbd, 0xbb, 0x0f, 0x02, 0xbd,
  0x00, 0x00, 0x00, 0x00, 0x00, 0x00, 0x00, 0x00, 0x00, 0x00, 0x00, 0x00,
  0x00, 0x00, 0x00, 0x00, 0x00, 0x00, 0x00, 0x00, 0x58, 0x83, 0x49, 0xbe,
  0x00, 0x00, 0x00, 0x00, 0x9c, 0xd7, 0xd2, 0x3d, 0x00, 0x00, 0x00, 0x00,
  0x48, 0xc1, 0x76, 0xbd, 0xc2, 0xdf, 0x92, 0xbe, 0x00, 0x00, 0x00, 0x00,
  0x00, 0x00, 0x00, 0x00, 0xf3, 0x60, 0xce, 0xbd, 0x54, 0x37, 0x7c, 0xbd,
  0x00, 0x00, 0x00, 0x00, 0xa4, 0xbc, 0x4b, 0xbe, 0x56, 0xdf, 0xff, 0xff,
  0x04, 0x00, 0x00, 0x00, 0x80, 0x00, 0x00, 0x00, 0x2a, 0xae, 0x87, 0xbe,
  0x66, 0x66, 0x1f, 0xbd, 0x36, 0x47, 0x92, 0xbd, 0x0d, 0xe3, 0x84, 0xbd,
  0x62, 0x4e, 0x64, 0xbe, 0xcc, 0xde, 0x3f, 0xbe, 0x22, 0xb0, 0xaa, 0x3d,
  0x57, 0xd8, 0xc3, 0xbd, 0x7a, 0xc9, 0x8c, 0x3e, 0xfe, 0x7b, 0xe4, 0xbc,
  0xa2, 0xf7, 0x9f, 0xbd, 0x53, 0x14, 0x81, 0xbd, 0xec, 0x3d, 0xd4, 0xbd,
  0xd7, 0x4f, 0x1f, 0xbc, 0x9f, 0xb4, 0x83, 0xbd, 0xc3, 0x03, 0x02, 0xbd,
  0x00, 0x00, 0x00, 0x00, 0x5c, 0xb6, 0xea, 0x3c, 0x84, 0x8e, 0x06, 0xbe,
  0xd2, 0x6e, 0x42, 0xbd, 0x00, 0x00, 0x00, 0x00, 0x70, 0xa9, 0x6f, 0xbe,
  0xf5, 0x6b, 0x30, 0xbe, 0x27, 0x44, 0x91, 0xbd, 0xaa, 0x07, 0x23, 0xbe,
  0x39, 0x41, 0xa4, 0xbd, 0x34, 0x0a, 0x88, 0x3a, 0x7d, 0x9c, 0xcb, 0xbd,
  0x00, 0x00, 0x00, 0x00, 0x7d, 0xf0, 0x40, 0xbd, 0x00, 0x00, 0x00, 0x00,
  0xb9, 0xc2, 0xa7, 0x3d, 0xe2, 0xdf, 0xff, 0xff, 0x04, 0x00, 0x00, 0x00,
  0x04, 0x00, 0x00, 0x00, 0x85, 0xbe, 0x13, 0xbe, 0xf2, 0xdf, 0xff, 0xff,
  0x04, 0x00, 0x00, 0x00, 0x00, 0x20, 0x00, 0x00, 0x06, 0x50, 0xff, 0x3d,
  0x0c, 0x7b, 0x7a, 0xbe, 0xf0, 0x53, 0x63, 0xbe, 0xd0, 0x0c, 0x10, 0xbe,
  0xa8, 0xb6, 0xca, 0xbd, 0x10, 0xe8, 0x74, 0xbe, 0x70, 0xd6, 0x87, 0x3d,
  0x94, 0x91, 0xe9, 0x3d, 0x72, 0x7a, 0x2f, 0x3d, 0xe6, 0x43, 0xf3, 0x3d,
  0x2d, 0x65, 0x4a, 0x3d, 0xa0, 0x3f, 0xa0, 0xbd, 0xb0, 0x66, 0x68, 0xbe,
  0xff, 0x1a, 0x88, 0xbc, 0xec, 0x48, 0x13, 0xbe, 0x61, 0x5e, 0x44, 0xbe,
  0x04, 0xfc, 0x3f, 0xbe, 0x3f, 0x03, 0x40, 0xbd, 0xc1, 0xb3, 0x32, 0x3e,
  0x00, 0xa8, 0x10, 0x3e, 0x33, 0x7a, 0x40, 0xbb, 0x40, 0xee, 0xfc, 0x3c,
  0x92, 0xa3, 0x2c, 0xbe, 0xea, 0x9b, 0xd7, 0x3d, 0x00, 0x26, 0x58, 0x3d,
  0x49, 0x0f, 0xce, 0xbe, 0xc0, 0x8b, 0x84, 0xbd, 0x10, 0x25, 0x61, 0xbf,
  0x20, 0xb5, 0x81, 0x3c, 0xbe, 0x74, 0x97, 0x3d, 0xe0, 0xee, 0xbc, 0x3d,
  0xc4, 0x37, 0x2c, 0xbe, 0x42, 0x14, 0x5b, 0xbe, 0xe7, 0x40, 0x8e, 0x3e,
  0x71, 0xaa, 0xfd, 0x3d, 0x80, 0xc5, 0x9c, 0x3b, 0x30, 0x47, 0x07, 0x3e,
  0x45, 0xd7, 0x0f, 0x3e, 0x13, 0x66, 0x59, 0xbd, 0x87, 0x21, 0x56, 0xbe,
  0xb8, 0x6e, 0xb9, 0xbd, 0x87, 0x08, 0x3b, 0xbf, 0x2d, 0xa9, 0x18, 0x3e,
  0x99, 0xc5, 0x05, 0xbe, 0x71, 0x49, 0x83, 0xbc, 0x57, 0x80, 0xb6, 0xbc,
  0xb3, 0x59, 0x72, 0x3d, 0x14, 0xec, 0x40, 0x3e, 0x80, 0xe1, 0x86, 0x3d,
  0xe0, 0xb4, 0xa2, 0x3d, 0xc0, 0x0b, 0x52, 0x3e, 0x50, 0x7d, 0x0d, 0x3e,
  0x41, 0xc6, 0x25, 0x3e, 0xa0, 0xbf, 0x07, 0x3d, 0x1c, 0xd7, 0x6a, 0x3e,
  0x48, 0x26, 0x11, 0xbe, 0xe9, 0x3f, 0xda, 0xbf, 0xfc, 0x2d, 0xe8, 0xbd,
  0x60, 0x34, 0x5b, 0xbd, 0x44, 0x69, 0x4e, 0xbe, 0x32, 0x5d, 0x9b, 0xbd,
  0x75, 0x6f, 0x8b, 0xbd, 0x50, 0xf6, 0x6c, 0x3d, 0xac, 0x93, 0x59, 0xbc,
  0x80, 0x24, 0xcd, 0x3c, 0x68, 0x85, 0x73, 0x3e, 0x2c, 0xeb, 0x74, 0x3e,
  0xdc, 0xc5, 0x3a, 0xbe, 0x14, 0x7a, 0x46, 0xbe, 0xa0, 0x0c, 0x89, 0xbd,
  0xc4, 0x06, 0x32, 0xbe, 0x93, 0x9e, 0x75, 0xbe, 0x5d, 0x94, 0x3a, 0x3e,
  0x00, 0x11, 0xd8, 0x3d, 0xf0, 0x93, 0x7f, 0xbd, 0x24, 0xf3, 0x00, 0x3e,
  0x50, 0xba, 0x99, 0x3d, 0x90, 0x40, 0x18, 0xbe, 0x0b, 0xe5, 0x88, 0xbe,
  0x20, 0xbc, 0x3d, 0xbe, 0x48, 0x07, 0xc7, 0xbd, 0x74, 0x05, 0x0f, 0xbe,
  0x33, 0xff, 0x89, 0xbd, 0xf8, 0x9f, 0x62, 0xbe, 0xe9, 0x3a, 0x96, 0xbd,
  0x38, 0xf1, 0xdc, 0x3d, 0x90, 0xb1, 0x13, 0x3e, 0x3c, 0x70, 0x46, 0xbe,
  0x44, 0x2e, 0x1c, 0xbe, 0x71, 0x19, 0x82, 0xbd, 0xb0, 0xb8, 0x79, 0x3d,
  0xe1, 0x62, 0x45, 0x3d, 0x68, 0x07, 0xcb, 0x3d, 0x8c, 0x81, 0x30, 0xbe,
  0x04, 0x71, 0x01, 0x3e, 0xfc, 0x9b, 0x65, 0xbe, 0xa4, 0xdf, 0x08, 0xbe,
  0x6e, 0xb6, 0x17, 0xbc, 0xec, 0x48, 0x40, 0xbe, 0x40, 0xa2, 0x72, 0xbd,
  0xb0, 0x8c, 0x1d, 0x3e, 0x27, 0x66, 0x7c, 0xbe, 0x98, 0x40, 0x08, 0x3e,
  0x30, 0xd3, 0x03, 0xbe, 0x10, 0xb0, 0x51, 0xbd, 0xa0, 0x3c, 0x91, 0xbe,
  0x29, 0x09, 0x11, 0x3d, 0x80, 0xfb, 0xdc, 0x3d, 0x10, 0x25, 0xef, 0xbd,
  0xa0, 0xcd, 0xc7, 0x3c, 0x60, 0x90, 0xe7, 0xbc, 0x98, 0x15, 0x7f, 0x3e,
  0xa8, 0x8b, 0x8f, 0x3d, 0xfc, 0x72, 0x26, 0xbe, 0xa0, 0xde, 0x33, 0xbe,
  0x88, 0x59, 0x5d, 0x3e, 0x5c, 0x17, 0x7c, 0xbe, 0x40, 0x84, 0x58, 0x3d,
  0x13, 0x63, 0xf7, 0x3d, 0x64, 0x30, 0x33, 0x3e, 0x8f, 0x71, 0x2e, 0xbd,
  0x45, 0xe6, 0x39, 0xbd, 0xf0, 0xe4, 0xb0, 0xbd, 0xb4, 0xb5, 0x62, 0xbe,
  0x7b, 0xa2, 0xe7, 0x3d, 0x20, 0x4f, 0x67, 0x3d, 0x30, 0x7c, 0x58, 0xbe,
  0xe7, 0x38, 0xfb, 0x3d, 0x8e, 0x28, 0xc2, 0x3d, 0x80, 0x92, 0x3a, 0x3d,
  0xfc, 0x26, 0x5a, 0xbe, 0xc8, 0x7a, 0x44, 0x3e, 0x20, 0x32, 0x84, 0xbc,
  0x2e, 0x92, 0x23, 0x3d, 0x80, 0xfd, 0x3a, 0xbc, 0xfe, 0x9a, 0xb2, 0xbc,
  0xb5, 0xbb, 0x98, 0x3b, 0x33, 0x53, 0xb9, 0xbc, 0xf5, 0xa2, 0xf5, 0xbd,
  0x40, 0x64, 0xb5, 0x3c, 0x98, 0x51, 0x21, 0x3e, 0x17, 0x09, 0x33, 0x3e,
  0x3e, 0x84, 0x86, 0xbe, 0x92, 0x2b, 0xe1, 0xbd, 0xa0, 0x25, 0x2f, 0x3e,
  0x94, 0xe6, 0x2e, 0xbe, 0xf2, 0x12, 0x10, 0x3e, 0x1c, 0x09, 0xa8, 0x3c,
  0x17, 0xcc, 0x97, 0x3c, 0x00, 0x1c, 0xe1, 0xba, 0x58, 0xd0, 0xe0, 0xbc,
  0x36, 0x21, 0x6a, 0x3d, 0x80, 0x69, 0xe9, 0xbd, 0x98, 0x19, 0x84, 0x3d,
  0x88, 0xbc, 0xc7, 0x3d, 0xd3, 0xb3, 0x1c, 0x3e, 0x6c, 0xe3, 0x19, 0x3e,
  0x00, 0x01, 0x30, 0x3e, 0x08, 0x70, 0xdc, 0xbd, 0x40, 0xa8, 0x6d, 0x3d,
  0x0d, 0xf0, 0x9a, 0xbd, 0xe0, 0x46, 0x44, 0x3e, 0xc3, 0xc7, 0x62, 0x3b,
  0xa8, 0xaa, 0xa5, 0x3d, 0x60, 0x16, 0xab, 0xbc, 0x43, 0x4a, 0x86, 0xbe,
  0xf9, 0x6a, 0x52, 0xbe, 0x2c, 0xe2, 0x2c, 0x3e, 0x2c, 0xc5, 0x4e, 0x3e,
  0x13, 0x32, 0x29, 0x3e, 0xd1, 0xa2, 0x1b, 0x3e, 0xba, 0xbd, 0x3b, 0x3e,
  0xd1, 0x53, 0x49, 0x3b, 0x8c, 0xd8, 0x51, 0xbe, 0x21, 0xd9, 0x03, 0x3e,
  0x3c, 0x9e, 0x06, 0xbe, 0x28, 0x45, 0xcd, 0xbd, 0x24, 0x6f, 0x48, 0xbe,
  0xa4, 0x29, 0x39, 0x3e, 0xd0, 0xcb, 0x90, 0xbd, 0x64, 0x96, 0x41, 0xbd,
  0x54, 0xf5, 0x2e, 0xbe, 0xc5, 0xf6, 0x62, 0xbe, 0xcc, 0xce, 0x46, 0xbe,
  0x15, 0x7b, 0x40, 0x3d, 0xf6, 0x22, 0x36, 0xbe, 0xa0, 0x51, 0xbc, 0xbc,
  0x30, 0xbe, 0x31, 0x3e, 0x9c, 0x2f, 0x02, 0x3e, 0x66, 0x02, 0x82, 0xbe,
  0x80, 0xfb, 0x86, 0xbb, 0x39, 0x09, 0x35, 0xbe, 0x30, 0xc7, 0xf7, 0xbd,
  0x10, 0xb4, 0xea, 0x3d, 0x48, 0xf8, 0x4a, 0xbe, 0x10, 0x75, 0xfa, 0x3d,
  0x40, 0xd7, 0xf2, 0xbc, 0x90, 0xaf, 0x78, 0xbd, 0x50, 0x4e, 0x19, 0x3e,
  0x85, 0xa1, 0x21, 0x3d, 0xc0, 0x76, 0x85, 0xbd, 0x18, 0xff, 0x7a, 0x3e,
  0x50, 0x59, 0x17, 0x3e, 0xf8, 0xc9, 0x3e, 0xbe, 0xc0, 0xd9, 0xe4, 0xbd,
  0xc4, 0xe9, 0x6a, 0x3e, 0x53, 0x3c, 0x8d, 0xbe, 0x02, 0x45, 0x96, 0x3d,
  0x98, 0x7f, 0x3e, 0x3e, 0xa8, 0xf6, 0x56, 0x3e, 0x88, 0x9f, 0x3d, 0xbe,
  0xc0, 0xdb, 0x35, 0xbe, 0xdd, 0x95, 0xe8, 0xbd, 0x64, 0xcb, 0x4e, 0xbe,
  0x6f, 0xb1, 0xba, 0x3d, 0xd8, 0x69, 0x41, 0x3e, 0x7c, 0x20, 0x6d, 0xbe,
  0xe4, 0x72, 0x37, 0x3e, 0x60, 0xf9, 0x87, 0x3d, 0xea, 0x9d, 0x6b, 0xbe,
  0x28, 0x2d, 0xdf, 0xbd, 0x08, 0x19, 0xb5, 0xbd, 0x38, 0xa1, 0x55, 0xbe,
  0xd0, 0x77, 0x64, 0x3d, 0x60, 0xf1, 0x24, 0x3e, 0x41, 0x9c, 0xf6, 0x3d,
  0x78, 0x25, 0x0e, 0xbe, 0xc4, 0xd8, 0x11, 0x3e, 0x90, 0x7c, 0xef, 0x3d,
  0x53, 0xb2, 0x8d, 0xbc, 0xc1, 0x63, 0x30, 0x3d, 0xf4, 0xf2, 0x6e, 0xbe,
  0x94, 0x3c, 0x79, 0xbe, 0xb8, 0xe1, 0x4e, 0xbe, 0x23, 0xb1, 0x30, 0x3e,
  0xec, 0x12, 0x15, 0x3e, 0x50, 0xb6, 0x39, 0xbe, 0x5c, 0x94, 0x0e, 0x3e,
  0x30, 0xf1, 0xf6, 0x3d, 0xc0, 0x4a, 0xf4, 0xbd, 0x00, 0xa5, 0xa6, 0x3b,
  0xc8, 0x4e, 0xce, 0x3d, 0x18, 0xc3, 0x41, 0x3e, 0xf8, 0x28, 0xc6, 0x3d,
  0xdc, 0xba, 0x2f, 0x3e, 0x60, 0xbf, 0x50, 0xbe, 0xac, 0x6a, 0x0d, 0xbe,
  0xe8, 0xb8, 0xc9, 0x3d, 0x60, 0xa8, 0x04, 0xbd, 0x39, 0x54, 0x36, 0xbe,
  0x9c, 0x8b, 0x69, 0xbe, 0x74, 0x89, 0x7c, 0x3e, 0xc0, 0x5c, 0x88, 0xbe,
  0x40, 0x6b, 0xc2, 0xbd, 0x18, 0x78, 0xa8, 0xbd, 0xeb, 0x05, 0x87, 0xbe,
  0x18, 0x68, 0x47, 0x3c, 0xd0, 0x1c, 0x6e, 0x3d, 0xa4, 0xc8, 0x29, 0xbe,
  0x98, 0xd4, 0x22, 0xbe, 0x70, 0xf2, 0x04, 0x3e, 0x39, 0x7b, 0xbe, 0xbd,
  0x80, 0x34, 0xab, 0x3d, 0xfd, 0xf3, 0x54, 0xbe, 0x87, 0x63, 0xe2, 0xbd,
  0xf0, 0xf2, 0x2f, 0x3d, 0xa0, 0x6e, 0x69, 0xbe, 0xd8, 0xd8, 0x31, 0x3e,
  0x10, 0x7a, 0x37, 0x3e, 0xdc, 0xf8, 0x25, 0xbe, 0x5e, 0xd8, 0x8f, 0x3c,
  0x26, 0x41, 0xc7, 0xbd, 0x20, 0xd7, 0x00, 0x3e, 0xfe, 0x58, 0x5a, 0x3a,
  0xee, 0xd3, 0x22, 0x3e, 0x80, 0x8f, 0x30, 0xbe, 0x36, 0x1e, 0x18, 0x3e,
  0x80, 0xce, 0x2c, 0xbc, 0x26, 0x32, 0x79, 0xbe, 0xaf, 0xf2, 0x53, 0xbe,
  0xc8, 0x4f, 0xc6, 0x3d, 0x9d, 0xa8, 0x1b, 0xbb, 0x30, 0x21, 0x38, 0xbd,
  0xbf, 0xb3, 0x22, 0xbe, 0x7c, 0xd5, 0x7f, 0x3e, 0x24, 0xd8, 0x1d, 0xbe,
  0x40, 0x26, 0x3f, 0xbc, 0xe0, 0x00, 0x1c, 0xbe, 0x70, 0xbe, 0xc0, 0xbc,
  0xa3, 0xdc, 0x75, 0x3d, 0xff, 0x92, 0xdc, 0xbd, 0x40, 0xa1, 0x0c, 0x3c,
  0x38, 0xfb, 0xdd, 0xbd, 0x1f, 0x5d, 0x82, 0xbe, 0x86, 0x0d, 0x3e, 0xbc,
  0x36, 0x2c, 0x1f, 0xbd, 0xd8, 0x08, 0x15, 0xbe, 0x61, 0x31, 0x0f, 0x3e,
  0x86, 0x3a, 0xc3, 0xbe, 0x24, 0xe4, 0x10, 0xbe, 0x88, 0x5c, 0x4a, 0x3e,
  0x32, 0x20, 0xa5, 0x3d, 0x66, 0xba, 0xc6, 0xbd, 0x98, 0x44, 0xfc, 0x3d,
  0x28, 0xa4, 0xe6, 0x3d, 0xa0, 0x5f, 0x48, 0xbd, 0xe0, 0x31, 0xe4, 0xbc,
  0xe8, 0x86, 0x74, 0xbe, 0xf0, 0x8d, 0x86, 0xbd, 0xac, 0xc6, 0x55, 0xbe,
  0x67, 0xf1, 0xe8, 0xbd, 0x7c, 0x53, 0x76, 0xbe, 0x94, 0x69, 0x7a, 0xbe,
  0x44, 0x13, 0x30, 0xbd, 0xa8, 0x3c, 0x6f, 0x3e, 0xe4, 0xb6, 0x71, 0xbe,
  0x34, 0xac, 0x9f, 0xbe, 0xdb, 0x62, 0xc2, 0xbd, 0x10, 0x27, 0x47, 0xbd,
  0x6b, 0x92, 0x8e, 0xbe, 0xd6, 0xb2, 0x33, 0xbe, 0x80, 0x92, 0xdd, 0x3c,
  0x20, 0x79, 0x3b, 0x3d, 0xf0, 0x8b, 0xad, 0x3d, 0xb0, 0x56, 0x76, 0xbe,
  0x0a, 0x44, 0x63, 0xbd, 0xc0, 0x1c, 0xa2, 0x3c, 0x36, 0x6e, 0x43, 0x3e,
  0x9a, 0x8e, 0x5e, 0xbe, 0x2a, 0x82, 0x71, 0xbe, 0xfc, 0x69, 0xb0, 0x3e,
  0x10, 0xca, 0x04, 0xbe, 0x58, 0x1e, 0x1d, 0x3e, 0x9e, 0x0f, 0x3d, 0xbe,
  0x37, 0x2b, 0x12, 0x3e, 0x4f, 0x50, 0x02, 0x3f, 0x50, 0xf2, 0x79, 0x3e,
  0x20, 0x52, 0x15, 0xbe, 0xd0, 0xb4, 0xb3, 0xbe, 0x09, 0xc3, 0x9e, 0x3d,
  0xb6, 0x10, 0x06, 0x3f, 0x78, 0xeb, 0x8a, 0x3d, 0x25, 0x79, 0x20, 0x3e,
  0x2a, 0x8d, 0x56, 0xbd, 0x98, 0x70, 0x8c, 0xbd, 0x1e, 0x37, 0x73, 0xbe,
  0xdc, 0xfe, 0x32, 0xbe, 0x6e, 0x2f, 0x7e, 0xbc, 0x44, 0xef, 0x77, 0x3e,
  0xec, 0x2f, 0x0f, 0x3e, 0x28, 0x24, 0xc0, 0x3d, 0x14, 0xb5, 0x0d, 0xbe,
  0x52, 0x24, 0xa1, 0x3e, 0xae, 0x46, 0x1a, 0xbd, 0x51, 0xb0, 0x37, 0x3e,
  0x30, 0xfd, 0x5c, 0xbd, 0x00, 0xa0, 0x5c, 0xbe, 0xd6, 0x11, 0xad, 0x3d,
  0x26, 0x99, 0x82, 0xbe, 0x0b, 0x45, 0x91, 0x3e, 0xec, 0x9a, 0x6c, 0xbe,
  0x73, 0x42, 0x9d, 0xbe, 0xfe, 0xb4, 0xb8, 0xbe, 0xaf, 0xd6, 0xbd, 0xbd,
  0xda, 0xf0, 0xcc, 0xbc, 0x14, 0x74, 0xe4, 0x3d, 0x12, 0x03, 0x8a, 0x3d,
  0x5c, 0x1c, 0x75, 0xbe, 0xbc, 0xf6, 0x32, 0xbe, 0x60, 0x72, 0x73, 0xbe,
  0xa4, 0x47, 0x78, 0x3e, 0x78, 0x72, 0x11, 0xbe, 0xa8, 0x36, 0x55, 0x3e,
  0xfc, 0x6e, 0x48, 0x3e, 0x59, 0x3c, 0xeb, 0x3c, 0xb0, 0x82, 0x35, 0x3d,
  0xb7, 0xcd, 0x97, 0xbe, 0xc6, 0xd8, 0x78, 0x3d, 0x18, 0x71, 0xc6, 0xbd,
  0x30, 0xb6, 0x65, 0x3e, 0x4d, 0xc4, 0xab, 0x3d, 0xb3, 0x8c, 0x80, 0x3d,
  0x60, 0x67, 0xf2, 0xbd, 0x5a, 0x92, 0xd3, 0x3c, 0x8c, 0xb9, 0x9c, 0xbd,
  0x00, 0xc2, 0x80, 0x3d, 0x90, 0x7e, 0x26, 0xbd, 0x28, 0x30, 0xd3, 0x3d,
  0x00, 0x60, 0xd0, 0x3d, 0xd1, 0x4b, 0xd6, 0x3d, 0x80, 0x98, 0xf4, 0xbd,
  0x6f, 0x81, 0x6e, 0x3d, 0xa1, 0x0f, 0x43, 0x3e, 0x91, 0x63, 0x31, 0xbe,
  0xbd, 0x22, 0x11, 0xbe, 0xe8, 0xaa, 0x3d, 0xbe, 0x0c, 0xc7, 0x63, 0xbe,
  0x31, 0xb7, 0x67, 0x3e, 0xa9, 0x2e, 0x03, 0x3e, 0x96, 0xd8, 0x94, 0x3e,
  0x48, 0x47, 0x14, 0x3e, 0xd9, 0xf9, 0x3e, 0xbb, 0xd6, 0xb4, 0xc2, 0xbe,
  0x2d, 0x88, 0x3f, 0xbe, 0xd1, 0xc8, 0x3f, 0xbe, 0x30, 0x9d, 0x0d, 0x3d,
  0xd9, 0x4e, 0x72, 0xbe, 0x2e, 0x1f, 0x7e, 0x3e, 0x60, 0x1e, 0x87, 0xbc,
  0xb9, 0x89, 0xb2, 0xbe, 0x60, 0xb5, 0x1a, 0xbe, 0xfd, 0x89, 0xe8, 0xbd,
  0x9c, 0xb1, 0x55, 0x3e, 0x0d, 0x3c, 0x28, 0x3e, 0x38, 0x1c, 0x0e, 0x3e,
  0x74, 0x3a, 0x53, 0x3e, 0x81, 0x58, 0x89, 0x3e, 0x56, 0x04, 0xb5, 0xbe,
  0xa0, 0x33, 0x3d, 0x3e, 0xf0, 0xd3, 0xfa, 0x3d, 0x98, 0xb1, 0x03, 0xbe,
  0xf4, 0x15, 0xd3, 0x3d, 0x0f, 0xab, 0x12, 0xbc, 0xd5, 0xb6, 0x84, 0x3d,
  0xa8, 0xf5, 0x6c, 0xbe, 0x66, 0x92, 0x24, 0xbf, 0x7f, 0x60, 0x39, 0xbd,
  0xfd, 0x79, 0x01, 0xbe, 0xb7, 0xa2, 0x54, 0xbe, 0xb5, 0x2f, 0xa3, 0xbd,
  0x20, 0x3f, 0x8f, 0x3c, 0xd0, 0xb5, 0x39, 0xbe, 0x90, 0x10, 0xf8, 0xbd,
  0x00, 0x20, 0xca, 0xb8, 0xf8, 0xea, 0x24, 0xbe, 0xc4, 0x18, 0x11, 0xbe,
  0x58, 0xfe, 0x1e, 0x3d, 0xc8, 0x1f, 0x2a, 0xbe, 0x54, 0x8e, 0xcd, 0x3d,
  0x20, 0x66, 0x02, 0x3e, 0x37, 0x57, 0xa9, 0xbe, 0x04, 0x90, 0xf6, 0xbc,
  0xa0, 0x12, 0x87, 0xbd, 0x28, 0x3b, 0x47, 0xbe, 0xbd, 0x1d, 0x47, 0xbe,
  0xdb, 0xff, 0x86, 0x3c, 0x48, 0x79, 0xe6, 0xbd, 0xfe, 0x0d, 0x87, 0xbe,
  0x29, 0xe3, 0x22, 0x3e, 0x4c, 0x2f, 0x6b, 0x3e, 0x2c, 0x00, 0x4a, 0xbe,
  0x18, 0x90, 0xc4, 0xbd, 0xf4, 0x74, 0x74, 0x3e, 0x8d, 0x09, 0xa7, 0xbd,
  0x60, 0x3e, 0x52, 0x3e, 0x1d, 0x43, 0x0e, 0x3a, 0xbb, 0xab, 0x6f, 0xbe,
  0x84, 0x34, 0x1d, 0xbd, 0x68, 0xbf, 0x03, 0x3e, 0xc4, 0x0b, 0x36, 0xbe,
  0x98, 0x46, 0xf1, 0x3d, 0x06, 0x23, 0x86, 0xbd, 0x1c, 0x39, 0x1b, 0xbd,
  0x9b, 0x8f, 0xcc, 0xbd, 0x84, 0xd3, 0x47, 0x3e, 0x1b, 0xfa, 0x90, 0xbd,
  0xad, 0x54, 0xb2, 0xbb, 0x7b, 0x8a, 0x85, 0x3d, 0x04, 0xad, 0x3a, 0x3d,
  0xdc, 0xc2, 0x31, 0xbe, 0xce, 0xf8, 0x8d, 0xbe, 0x12, 0x75, 0x7d, 0x3c,
  0xf8, 0x17, 0xbd, 0xbd, 0x2b, 0xb0, 0x71, 0xbe, 0xa4, 0xee, 0x0b, 0x3e,
  0x84, 0xa4, 0x05, 0x3e, 0xd0, 0xc1, 0x52, 0xbd, 0xa9, 0x17, 0x3a, 0xbe,
  0x98, 0xfc, 0x0b, 0x3e, 0xe0, 0xfc, 0x15, 0xbe, 0xb5, 0xfd, 0x45, 0xbe,
  0x03, 0x95, 0xca, 0xbd, 0x7a, 0x96, 0xc5, 0xbd, 0x90, 0x6a, 0x0d, 0x3d,
  0x78, 0x74, 0x57, 0x3e, 0xc2, 0x39, 0x6b, 0xbc, 0x80, 0x7d, 0x35, 0x3e,
  0xe1, 0x97, 0x23, 0x3e, 0xc0, 0x41, 0x15, 0x3e, 0xfe, 0x91, 0x84, 0xbd,
  0x8b, 0xef, 0x0e, 0x3c, 0x30, 0xbc, 0x5d, 0xbe, 0xcd, 0xac, 0x81, 0xbe,
  0x7d, 0x69, 0x1f, 0x3e, 0x79, 0x8a, 0xdc, 0x3b, 0x34, 0x5c, 0x1a, 0x3e,
  0xc0, 0x81, 0x49, 0xbd, 0x10, 0xbf, 0xc7, 0x3d, 0xdc, 0xe5, 0x46, 0x3e,
  0x30, 0xd6, 0xb8, 0x3d, 0x1a, 0xb9, 0x66, 0xbd, 0x28, 0x71, 0x9d, 0xbd,
  0x85, 0x0f, 0x5b, 0xbe, 0x20, 0xf5, 0xb0, 0xbd, 0xe5, 0xe0, 0xb4, 0x3c,
  0xf3, 0x24, 0xc3, 0xbd, 0x74, 0x4a, 0x4f, 0xbe, 0x80, 0x3f, 0x45, 0x3c,
  0x1b, 0x0c, 0x04, 0xbe, 0xc5, 0xdf, 0x6d, 0x3d, 0x00, 0xfc, 0xb7, 0xba,
  0xa0, 0xfc, 0xe1, 0xbd, 0xec, 0x47, 0xb0, 0xbc, 0xf0, 0xeb, 0x5a, 0xbe,
  0x00, 0x2d, 0xe6, 0x3c, 0x68, 0x14, 0x06, 0x3e, 0xe4, 0x1c, 0x23, 0x3e,
  0xf4, 0x85, 0xc8, 0xbc, 0xa0, 0x93, 0x35, 0xbe, 0x1f, 0xa2, 0x6d, 0x3e,
  0xac, 0x7f, 0x15, 0xbe, 0x51, 0xa5, 0xf9, 0xbd, 0xb9, 0x3a, 0x3c, 0xbe,
  0x5c, 0x2f, 0x06, 0xbe, 0x20, 0x2f, 0x45, 0x3e, 0x25, 0xde, 0x2b, 0x3e,
  0x88, 0x4e, 0x30, 0xbc, 0xe4, 0xf1, 0xde, 0xbf, 0x30, 0x73, 0xe6, 0x3d,
  0xa5, 0xb5, 0x62, 0xbe, 0xf7, 0x8f, 0x07, 0x3e, 0x5a, 0xe5, 0x9d, 0x3d,
  0x28, 0x2c, 0x9b, 0xbf, 0xa0, 0xc9, 0x64, 0xbd, 0xc3, 0xfe, 0x00, 0x3e,
  0x82, 0xdb, 0xb1, 0xbd, 0x14, 0xe1, 0x44, 0x3e, 0x4e, 0x19, 0x9c, 0x3d,
  0x70, 0x7c, 0x41, 0x3e, 0xb7, 0x54, 0x53, 0x3b, 0xc0, 0x5f, 0x3b, 0xbc,
  0x6c, 0x10, 0xe2, 0x3d, 0x64, 0x18, 0x3d, 0xbe, 0xe0, 0xe5, 0xcd, 0xbd,
  0xc1, 0xdc, 0xf8, 0x3b, 0x57, 0x39, 0x29, 0x3f, 0x91, 0x72, 0x53, 0x3c,
  0xb8, 0x78, 0xe5, 0xbd, 0xf4, 0xdc, 0x23, 0xbe, 0xf6, 0x3f, 0x24, 0x3e,
  0x7f, 0x6b, 0x7b, 0x3d, 0x88, 0x22, 0x8c, 0xbe, 0x7c, 0x89, 0x20, 0xbe,
  0xc1, 0xec, 0x1d, 0x3d, 0xda, 0x31, 0x35, 0x3e, 0x9d, 0x05, 0xd4, 0x3d,
  0x8a, 0xc7, 0xc1, 0xbd, 0x3f, 0x5c, 0x39, 0x3e, 0xdd, 0x29, 0x3f, 0x3d,
  0x5c, 0xef, 0x09, 0x3e, 0x20, 0xbe, 0x88, 0x3c, 0xb0, 0x9c, 0x7d, 0x3d,
  0x40, 0x4d, 0x44, 0xbc, 0xfc, 0x2c, 0x1c, 0x3e, 0x3f, 0xfc, 0x5b, 0x3e,
  0x10, 0xa2, 0x7d, 0x3d, 0xd3, 0xee, 0x9e, 0xbe, 0x60, 0x45, 0x0c, 0xbe,
  0xd9, 0xcb, 0x85, 0x3e, 0x85, 0x92, 0x0a, 0xbe, 0xb0, 0xc3, 0x43, 0x3d,
  0xc4, 0xcb, 0x1e, 0xbe, 0x8f, 0x85, 0x9c, 0x3d, 0xc1, 0xe4, 0x52, 0x3e,
  0xe8, 0x5a, 0xe2, 0xbd, 0x53, 0x30, 0xe4, 0xbd, 0x20, 0x40, 0xfc, 0xbc,
  0xc0, 0x8d, 0x55, 0x3c, 0xb0, 0xf9, 0x7e, 0xbe, 0x10, 0xc7, 0x2d, 0x3d,
  0xf8, 0xff, 0xd8, 0x3d, 0x78, 0x28, 0x88, 0x3d, 0xe0, 0x1f, 0x47, 0x3e,
  0x30, 0x1e, 0xec, 0x3d, 0x4c, 0xc8, 0x3e, 0xbe, 0x58, 0xe3, 0x62, 0xbe,
  0xa4, 0x69, 0x19, 0xbe, 0x74, 0x7a, 0x19, 0xbe, 0xb0, 0x31, 0xfc, 0x3d,
  0x68, 0x5f, 0x1d, 0xbe, 0xd6, 0x94, 0xa9, 0xbd, 0x57, 0xd3, 0x12, 0xbe,
  0x00, 0xcb, 0xd3, 0xbc, 0xa8, 0xbd, 0xbe, 0x3d, 0xde, 0xe0, 0xd4, 0x3d,
  0xe8, 0xaa, 0xd6, 0x3d, 0x44, 0x4f, 0x47, 0xbe, 0x84, 0x90, 0x37, 0xbe,
  0x3c, 0x3a, 0x37, 0xbe, 0xca, 0xe0, 0x41, 0xbc, 0x70, 0x0d, 0x5d, 0xbd,
  0x6a, 0x2e, 0x67, 0xbe, 0x58, 0x8e, 0x7d, 0xbe, 0xaf, 0xb1, 0xb3, 0xbd,
  0x80, 0x37, 0xcd, 0xbb, 0x50, 0xab, 0xec, 0xbd, 0x00, 0x10, 0x59, 0xbc,
  0x80, 0xca, 0xcb, 0x3b, 0x2b, 0x66, 0x13, 0x3e, 0x08, 0xfb, 0x1d, 0x3e,
  0x58, 0x6c, 0x0a, 0xbe, 0x90, 0xc3, 0xe9, 0x3d, 0x00, 0xa1, 0xc9, 0x3b,
  0xd0, 0x17, 0x1f, 0x3d, 0x88, 0x3c, 0x02, 0xbe, 0x48, 0xb9, 0x28, 0x3e,
  0x60, 0x1e, 0x55, 0x3e, 0xdd, 0x19, 0x90, 0xbe, 0x9c, 0x10, 0x13, 0xbe,
  0x78, 0x5f, 0x96, 0xbd, 0xc0, 0x2f, 0x39, 0x3d, 0x5c, 0xc1, 0x6c, 0x3e,
  0x14, 0x8f, 0x65, 0x3e, 0x00, 0x33, 0xb5, 0xbd, 0xe0, 0x0b, 0x9b, 0x3d,
  0x68, 0xc6, 0x3a, 0xbe, 0xd4, 0x8c, 0x4c, 0x3e, 0x90, 0x4d, 0x2f, 0x3e,
  0xd0, 0x04, 0xae, 0xbd, 0x40, 0xf8, 0xbe, 0x3c, 0x00, 0x55, 0x1e, 0x3e,
  0xc0, 0xeb, 0x22, 0xbc, 0x84, 0x8a, 0x8b, 0x3d, 0x80, 0xe5, 0xf5, 0xbb,
  0x88, 0x45, 0x7a, 0xbe, 0x28, 0x3a, 0xc7, 0xbd, 0x34, 0xd9, 0x5f, 0x3e,
  0xc0, 0x14, 0xe0, 0x3c, 0xd0, 0x38, 0xae, 0x3d, 0x22, 0x57, 0xe8, 0xbc,
  0xe4, 0xdc, 0x75, 0xbe, 0x2c, 0xc0, 0x51, 0x3e, 0x70, 0xdb, 0x0c, 0xbe,
  0x08, 0xa0, 0x63, 0xbe, 0xf8, 0xfc, 0xb0, 0x3d, 0x13, 0x6f, 0x86, 0xbe,
  0x50, 0x8c, 0x74, 0x3d, 0x11, 0xb1, 0x7d, 0xbe, 0xd5, 0x73, 0x7e, 0x3d,
  0xc8, 0x7a, 0x63, 0x3e, 0xa6, 0x97, 0x4d, 0xbe, 0xf0, 0x9d, 0x11, 0x3d,
  0x00, 0x7c, 0x54, 0xbc, 0xd0, 0x9d, 0x86, 0xbe, 0x19, 0x5b, 0x77, 0xbe,
  0xc2, 0xc2, 0x47, 0xbe, 0xe8, 0xe7, 0xb1, 0x3d, 0x67, 0xff, 0xca, 0xbd,
  0xa0, 0xd2, 0x8f, 0xbc, 0xc6, 0xe5, 0x52, 0x3e, 0x55, 0x03, 0x36, 0x3e,
  0x00, 0x4b, 0x9b, 0xbd, 0x48, 0xb1, 0xa1, 0xbe, 0x7f, 0x97, 0x80, 0xbe,
  0x74, 0x33, 0x7d, 0xbe, 0xac, 0x4a, 0x11, 0x3e, 0x48, 0xe1, 0xb6, 0xbd,
  0x28, 0x35, 0x54, 0x3e, 0x94, 0xf9, 0x71, 0xbe, 0x9a, 0x4b, 0x58, 0xbe,
  0x00, 0xd2, 0x91, 0x3d, 0x20, 0x4c, 0xe8, 0xbd, 0xa8, 0xc1, 0x11, 0xbe,
  0xcb, 0x6d, 0xf3, 0x3c, 0x22, 0x13, 0x02, 0xbe, 0xc0, 0xd7, 0x17, 0x3c,
  0x60, 0x84, 0x77, 0xbe, 0x3e, 0x54, 0x58, 0xbe, 0xcf, 0xb2, 0xb2, 0xbc,
  0x54, 0xb2, 0x4c, 0x3e, 0x40, 0xea, 0x2e, 0xbc, 0xef, 0x59, 0xc5, 0xbc,
  0x25, 0x24, 0xe8, 0x3d, 0x38, 0x98, 0x24, 0x3e, 0xf1, 0x05, 0x16, 0x3e,
  0x69, 0x87, 0xe4, 0xbd, 0x4d, 0x58, 0xab, 0xbc, 0x80, 0x3c, 0xb9, 0x3d,
  0x68, 0x6f, 0xc5, 0xbd, 0xf8, 0x3d, 0x58, 0xbe, 0xf8, 0x51, 0x14, 0x3e,
  0x04, 0xbf, 0x6b, 0x3e, 0x92, 0x91, 0x05, 0x3e, 0xb4, 0x7a, 0x21, 0xbe,
  0xd6, 0xec, 0x36, 0x3d, 0xb4, 0x69, 0x6f, 0x3e, 0x84, 0x6f, 0x90, 0xbe,
  0x57, 0xbb, 0x97, 0xbe, 0x78, 0x63, 0xb9, 0xbd, 0x80, 0x48, 0xa8, 0x3d,
  0xd4, 0x84, 0x34, 0xbd, 0x96, 0xff, 0x92, 0x3d, 0xe4, 0x44, 0x28, 0xbe,
  0x4e, 0xc2, 0xf9, 0x3d, 0xd0, 0xbc, 0x73, 0xbe, 0x00, 0xb8, 0x66, 0xbb,
  0xf0, 0x9a, 0xc5, 0x3d, 0xb8, 0x0e, 0x14, 0xbe, 0xf0, 0x91, 0x34, 0x3e,
  0x6c, 0x1b, 0x0f, 0xbe, 0xd4, 0x9a, 0x4d, 0x3e, 0x48, 0x63, 0x7a, 0xbe,
  0x1a, 0x44, 0x67, 0x3d, 0x20, 0x52, 0xd1, 0x3c, 0x90, 0xfa, 0x7e, 0xbe,
  0x88, 0x59, 0xc4, 0x3d, 0x98, 0xe0, 0x0a, 0xbe, 0xa4, 0x22, 0x28, 0xbe,
  0xf8, 0x28, 0xfa, 0xbc, 0xc2, 0x73, 0x8c, 0xbe, 0x84, 0xc5, 0x43, 0x3e,
  0x40, 0xa9, 0x0b, 0xbe, 0xae, 0x07, 0x1c, 0xbc, 0x20, 0x58, 0xfc, 0xbd,
  0x30, 0x11, 0xc8, 0x3d, 0x84, 0x3d, 0x16, 0xbe, 0x1c, 0x0a, 0x86, 0xbe,
  0x90, 0x6d, 0x0c, 0x3d, 0x20, 0x88, 0xbc, 0x3c, 0xe6, 0x62, 0x72, 0xbd,
  0x9c, 0x72, 0x52, 0x3e, 0x12, 0xde, 0x8a, 0xbe, 0x88, 0x5d, 0x4a, 0x3e,
  0x80, 0xaa, 0x60, 0x3e, 0xf8, 0x5c, 0xfa, 0xbd, 0x38, 0xc8, 0xfa, 0x3d,
  0x1c, 0x26, 0x4e, 0xbe, 0xb0, 0xe3, 0xe2, 0xbd, 0x80, 0x16, 0xc2, 0x3c,
  0x40, 0xca, 0xc0, 0xbd, 0xf8, 0x00, 0x81, 0x3d, 0x14, 0x32, 0x27, 0xbe,
  0xa0, 0x7f, 0x18, 0xbd, 0x65, 0x7c, 0x4a, 0x3d, 0xa8, 0x9b, 0xfb, 0xbd,
  0x59, 0xf3, 0xe0, 0x3d, 0x30, 0x1c, 0x18, 0xbe, 0x70, 0x9b, 0x40, 0x3d,
  0x70, 0x6e, 0xaa, 0xbd, 0xf0, 0xbb, 0x3f, 0xbe, 0xd0, 0xd0, 0x53, 0xbe,
  0xf0, 0xa6, 0x4b, 0xbd, 0x78, 0x48, 0xa3, 0x3d, 0xc8, 0xee, 0xef, 0xbd,
  0xe4, 0xb2, 0x66, 0x3e, 0xa8, 0x19, 0x6d, 0x3e, 0x9c, 0x05, 0x41, 0xbe,
  0xdc, 0xba, 0x32, 0xbe, 0x84, 0xd7, 0x06, 0xbe, 0x68, 0x0b, 0x99, 0xbd,
  0x0f, 0xa9, 0x23, 0xbe, 0x0f, 0xbb, 0x19, 0xbd, 0x70, 0x48, 0x86, 0xbd,
  0x1c, 0x2c, 0x16, 0x3e, 0xc0, 0x87, 0x72, 0x3c, 0x54, 0x58, 0x4e, 0xbe,
  0x0c, 0x46, 0x6b, 0xbe, 0x9f, 0xb7, 0x72, 0xbe, 0x7a, 0x3d, 0x5e, 0xbe,
  0x80, 0xc4, 0xc2, 0xbb, 0x00, 0x4b, 0x48, 0x3b, 0x10, 0xbf, 0x02, 0xbd,
  0x78, 0x0d, 0xab, 0x3d, 0xf4, 0x20, 0x3e, 0x3e, 0xc8, 0x2e, 0x0a, 0x3e,
  0x7e, 0x65, 0x9d, 0x3d, 0x86, 0xef, 0xcb, 0xbd, 0xd8, 0xdf, 0x95, 0x3d,
  0x35, 0x55, 0x2e, 0x3e, 0x54, 0xb0, 0x69, 0xbe, 0x00, 0x80, 0x51, 0xbe,
  0xe2, 0x98, 0x9c, 0x3d, 0xc3, 0x95, 0x09, 0xbd, 0xff, 0xba, 0x9a, 0xbd,
  0x88, 0x97, 0x3e, 0xbe, 0x64, 0xa2, 0x9e, 0xbe, 0x42, 0x37, 0xc2, 0x3d,
  0x76, 0xdf, 0x8a, 0xbe, 0xd8, 0x7f, 0x2a, 0xbe, 0xac, 0xc4, 0x24, 0x3e,
  0x68, 0x01, 0x8f, 0xbe, 0x24, 0x40, 0xcd, 0xbd, 0x08, 0x64, 0xfd, 0x3d,
  0x7e, 0x9b, 0x5c, 0x3d, 0x28, 0xec, 0x36, 0x3e, 0x8b, 0x93, 0x91, 0xbe,
  0x34, 0xe4, 0x54, 0xbe, 0xe0, 0x66, 0x5f, 0x3e, 0x88, 0xc4, 0x87, 0xbd,
  0x08, 0x11, 0x39, 0xbe, 0x8d, 0x69, 0x1e, 0xbe, 0xf4, 0xbe, 0x41, 0x3e,
  0xa6, 0x7a, 0x54, 0xbe, 0x50, 0x4d, 0x3c, 0xbe, 0x98, 0x8f, 0x2b, 0x3e,
  0x86, 0xff, 0x69, 0x3d, 0xff, 0x98, 0x92, 0x3d, 0xe3, 0x98, 0x6e, 0xbd,
  0x38, 0xeb, 0x44, 0xbe, 0xf1, 0x47, 0x9b, 0xbd, 0xc3, 0xa8, 0x8f, 0xbe,
  0x73, 0xda, 0x1c, 0x3e, 0x4d, 0x60, 0xac, 0xbd, 0xbf, 0xd5, 0x3a, 0x3d,
  0xb0, 0x3a, 0x41, 0xbe, 0x78, 0x8c, 0x33, 0xbe, 0xd0, 0xf0, 0x2a, 0xbe,
  0x80, 0xcb, 0x53, 0xbe, 0x30, 0x1d, 0x2a, 0xbe, 0x30, 0x52, 0x6e, 0x3d,
  0x74, 0x9c, 0x40, 0x3d, 0x30, 0x4d, 0x3f, 0xbd, 0x1e, 0xd2, 0x11, 0x3e,
  0xc0, 0x81, 0x9d, 0xbc, 0x63, 0xf8, 0xcd, 0x3c, 0x64, 0x51, 0x11, 0xbd,
  0x00, 0xc4, 0x52, 0x3a, 0x0c, 0xd2, 0x05, 0xbe, 0x83, 0x3f, 0x1d, 0x3e,
  0x66, 0x81, 0x88, 0xbe, 0xf0, 0xe4, 0xf4, 0xbd, 0x3b, 0x4b, 0x04, 0x3e,
  0x76, 0x41, 0x64, 0xbe, 0xb0, 0x9a, 0xd8, 0xbd, 0x80, 0x33, 0x49, 0xbd,
  0xb4, 0x43, 0x76, 0x3e, 0x2c, 0x9b, 0x2c, 0x3e, 0x99, 0x39, 0x9e, 0x3c,
  0x24, 0x4c, 0x2b, 0xbe, 0xdb, 0x5e, 0xe2, 0x3d, 0x6d, 0xbd, 0x43, 0xbe,
  0x40, 0x20, 0xc2, 0x3d, 0x85, 0x42, 0x85, 0x3d, 0x40, 0x61, 0x99, 0xbd,
  0x20, 0x87, 0x0d, 0xbe, 0x60, 0xaf, 0x3b, 0xbd, 0x0c, 0x51, 0x55, 0xbe,
  0x00, 0x2a, 0x89, 0xba, 0x70, 0x2b, 0x51, 0x3e, 0xf2, 0xd1, 0x0a, 0x3e,
  0x03, 0x12, 0xf6, 0xbd, 0x41, 0xfd, 0x82, 0xbe, 0xf3, 0x67, 0xbb, 0x3d,
  0xbc, 0x53, 0x4b, 0x3e, 0x5e, 0x27, 0xe7, 0x3c, 0x91, 0x26, 0x7c, 0xbd,
  0x08, 0xfa, 0xff, 0xbd, 0x59, 0x1a, 0x64, 0x3e, 0x1c, 0xb0, 0x39, 0x3e,
  0x48, 0x9b, 0x80, 0xbe, 0x40, 0xac, 0x44, 0xbc, 0x01, 0x26, 0x19, 0xbe,
  0xc8, 0x46, 0xc1, 0x3d, 0x80, 0x62, 0xa8, 0x3d, 0x6c, 0x6f, 0xfa, 0x3c,
  0xf3, 0xd6, 0xe9, 0x3b, 0x6f, 0x1c, 0x24, 0x3d, 0x80, 0x2e, 0x55, 0xbe,
  0xb0, 0x36, 0x6f, 0xbe, 0xfb, 0xbd, 0xfc, 0x3d, 0x7a, 0x00, 0xd8, 0x3d,
  0xd9, 0x68, 0xf9, 0x3d, 0xb4, 0x19, 0x42, 0xbe, 0x77, 0xe2, 0x66, 0x3e,
  0x61, 0x7a, 0x99, 0x3d, 0x10, 0x84, 0x2b, 0xbe, 0x57, 0x6e, 0x89, 0xbd,
  0x8f, 0x1a, 0x77, 0xbe, 0x8a, 0xdc, 0x5d, 0x3e, 0x00, 0x58, 0x93, 0xbb,
  0xb4, 0xb4, 0x2c, 0x3e, 0x98, 0x89, 0xed, 0x3d, 0xf0, 0xbc, 0x12, 0x3e,
  0xfc, 0x78, 0x5a, 0xbe, 0x4c, 0x30, 0x78, 0x3d, 0xa0, 0xa6, 0x06, 0xbd,
  0x66, 0x2b, 0x69, 0xbe, 0xec, 0xf4, 0x77, 0xbe, 0x0a, 0x63, 0x55, 0x3e,
  0x5e, 0x82, 0x42, 0xbe, 0x98, 0x0e, 0x0a, 0xbe, 0x08, 0x79, 0x11, 0x3e,
  0xd9, 0x00, 0xfc, 0xbd, 0xd2, 0x00, 0x2a, 0x3e, 0x08, 0xe0, 0x51, 0x3e,
  0xaa, 0x29, 0x47, 0x3e, 0x55, 0x5f, 0x0d, 0x3e, 0xc4, 0xe3, 0x62, 0xbe,
  0x68, 0x0e, 0xbb, 0x3d, 0x20, 0x1c, 0x6e, 0x3e, 0xb0, 0x1f, 0xc7, 0x3d,
  0xbb, 0x33, 0x1f, 0x3e, 0xe8, 0x77, 0x33, 0xbe, 0x6c, 0x9e, 0x28, 0xbd,
  0x34, 0x85, 0x3c, 0xbc, 0xa4, 0xaa, 0x35, 0x3e, 0x6e, 0x89, 0xb0, 0xbc,
  0x64, 0x4a, 0x4f, 0x3e, 0x80, 0x28, 0x57, 0x3d, 0xff, 0xee, 0x40, 0x3e,
  0xe9, 0x50, 0x6a, 0xbe, 0xb9, 0xfb, 0x72, 0x3e, 0x2c, 0x73, 0x3d, 0x3e,
  0x1b, 0x53, 0x39, 0x3e, 0xc7, 0xb6, 0x14, 0x3e, 0xbd, 0x81, 0xf5, 0x3c,
  0x52, 0x6d, 0xad, 0x3e, 0x60, 0x4f, 0xac, 0xbd, 0x8d, 0xc6, 0x18, 0xbc,
  0x35, 0xfc, 0x5a, 0x3f, 0xfc, 0x6e, 0x01, 0xbe, 0xeb, 0x28, 0x49, 0x3e,
  0xe0, 0x87, 0x00, 0xbd, 0x9c, 0x2c, 0x33, 0x3d, 0xac, 0x00, 0x2c, 0xbe,
  0x0a, 0xd2, 0x57, 0x3e, 0xd8, 0xba, 0x31, 0xbe, 0x60, 0xa4, 0xa8, 0xbc,
  0x69, 0x10, 0xc6, 0x3e, 0x43, 0xb2, 0xf4, 0x3e, 0x73, 0x75, 0xc1, 0x3d,
  0xc0, 0xcd, 0x68, 0x3d, 0x1c, 0x45, 0x18, 0x3e, 0xfa, 0x7b, 0x12, 0xbc,
  0x7d, 0x49, 0xec, 0x3d, 0x73, 0x7e, 0x41, 0x3b, 0xb0, 0xc9, 0x51, 0x3e,
  0x37, 0xc2, 0x97, 0x3e, 0x95, 0x4c, 0x95, 0x3d, 0x6e, 0x70, 0x37, 0xbd,
  0x65, 0x1a, 0xac, 0xbd, 0x2e, 0xd5, 0x6e, 0xbe, 0x63, 0x38, 0xb2, 0x3d,
  0x20, 0x00, 0xec, 0x3d, 0xb4, 0x08, 0x0c, 0xbe, 0x00, 0xd8, 0x78, 0xbe,
  0x58, 0x15, 0x24, 0xbe, 0x60, 0xc5, 0xe6, 0xbd, 0x97, 0x94, 0x6d, 0x3e,
  0x84, 0x4b, 0x47, 0x3e, 0x1e, 0x83, 0xb1, 0x3e, 0x8c, 0xef, 0x39, 0xbe,
  0x75, 0xce, 0x9f, 0x3e, 0xef, 0xe6, 0x22, 0xbd, 0xd0, 0x7e, 0xc8, 0xbd,
  0x28, 0x30, 0x32, 0xbe, 0x12, 0x46, 0x92, 0xbb, 0xb8, 0xe9, 0x5a, 0xbe,
  0x00, 0xb0, 0x3e, 0x3d, 0x90, 0x92, 0x40, 0x3e, 0xd8, 0x81, 0x36, 0xbe,
  0x20, 0xe3, 0x32, 0xbd, 0xbc, 0x5b, 0x55, 0xbe, 0xf8, 0x24, 0x3e, 0xbe,
  0x70, 0x0a, 0xd4, 0xbd, 0xc8, 0xf3, 0x50, 0xbe, 0xf8, 0x20, 0x2c, 0xbe,
  0x52, 0x8e, 0x18, 0x3e, 0x33, 0xbd, 0x17, 0x3e, 0xac, 0x04, 0x43, 0x3e,
  0x00, 0x4c, 0x17, 0x3d, 0x00, 0xc2, 0x29, 0xbb, 0xf8, 0x93, 0x7f, 0x3e,
  0x4c, 0xdc, 0x22, 0xbe, 0x12, 0xd0, 0xbe, 0xbd, 0x9d, 0x6f, 0x85, 0xbe,
  0xc0, 0xf6, 0xc5, 0xbd, 0xf4, 0x64, 0x5f, 0xbe, 0x90, 0xa4, 0xad, 0xbd,
  0x78, 0x41, 0x56, 0xbe, 0xfa, 0x8e, 0x0f, 0x3d, 0x80, 0xb7, 0x8e, 0x3d,
  0x34, 0x38, 0x54, 0xbe, 0x58, 0xeb, 0xfc, 0xbd, 0x3c, 0xce, 0x64, 0xbe,
  0xc8, 0xd4, 0xaa, 0x3d, 0xa0, 0x5b, 0xf3, 0xbd, 0x18, 0x72, 0xe0, 0xbd,
  0x0c, 0x54, 0x10, 0xbe, 0xd0, 0x28, 0xba, 0x3d, 0x9c, 0xce, 0x59, 0x3e,
  0x80, 0x45, 0x8e, 0xbc, 0xe8, 0x07, 0x9b, 0xbd, 0xc7, 0xc1, 0x14, 0x3e,
  0xf8, 0x76, 0xaf, 0xbd, 0x64, 0x27, 0x19, 0xbe, 0x80, 0xe0, 0x11, 0xbc,
  0x18, 0x40, 0x7f, 0xbe, 0xf0, 0xf9, 0x6f, 0x3d, 0x40, 0xd0, 0x16, 0x3e,
  0x60, 0x40, 0x51, 0xbe, 0x04, 0x60, 0x16, 0x3e, 0xfa, 0xa1, 0x8a, 0xbe,
  0x68, 0x4e, 0xdc, 0x3d, 0xa0, 0xb0, 0x2d, 0xbd, 0x70, 0xb1, 0x04, 0xbe,
  0xd8, 0x71, 0x7b, 0xbe, 0x6c, 0x83, 0x68, 0xbe, 0x14, 0x85, 0x51, 0xbe,
  0x80, 0x2e, 0x8f, 0x3d, 0x70, 0xd9, 0xa3, 0xbd, 0xa8, 0xca, 0xdf, 0xbd,
  0xa8, 0xc3, 0x62, 0x3e, 0x98, 0x97, 0x9d, 0x3d, 0x84, 0x5f, 0xf9, 0xbd,
  0x10, 0x75, 0x73, 0x3d, 0x38, 0xad, 0x39, 0xbe, 0x5a, 0x4b, 0x6e, 0xbd,
  0xf8, 0x50, 0xbe, 0xbd, 0xa0, 0x10, 0x94, 0x3c, 0x70, 0xb6, 0x49, 0xbe,
  0x50, 0xd5, 0xa7, 0xbd, 0xe4, 0xab, 0x77, 0x3e, 0xc4, 0x84, 0x55, 0xbe,
  0x68, 0xca, 0x24, 0x3e, 0x38, 0xeb, 0x4a, 0x3e, 0xb0, 0xc4, 0x7e, 0x3e,
  0xbc, 0xcf, 0x03, 0x3e, 0x98, 0x3f, 0x48, 0x3e, 0x80, 0x08, 0x54, 0x3c,
  0xa0, 0xb5, 0xca, 0xbc, 0x58, 0x8e, 0x12, 0xbe, 0xe8, 0x30, 0xa4, 0xbd,
  0x44, 0xbf, 0x03, 0x3e, 0x80, 0x6d, 0x62, 0x3d, 0xf8, 0xee, 0xe7, 0x3d,
  0x44, 0x66, 0x4c, 0x3e, 0xac, 0x27, 0x3d, 0x3e, 0x2c, 0x39, 0x1c, 0xbe,
  0x5c, 0xae, 0x29, 0x3e, 0x74, 0x3a, 0x38, 0x3e, 0x78, 0x50, 0x06, 0xbe,
  0x70, 0x5e, 0x29, 0x3d, 0x10, 0x9e, 0x21, 0xbd, 0x04, 0x8b, 0x5b, 0xbe,
  0xd8, 0x0f, 0xce, 0x3d, 0xe0, 0x92, 0xa9, 0x3c, 0x00, 0x08, 0xb3, 0xbc,
  0xb8, 0x47, 0x45, 0xbe, 0xf4, 0x6d, 0x7e, 0xbe, 0x00, 0xb8, 0xe8, 0xbd,
  0xa0, 0x05, 0xf9, 0x3c, 0x08, 0x28, 0x8b, 0x3d, 0xe0, 0xb8, 0x18, 0x3d,
  0x28, 0x80, 0x7d, 0x3e, 0xb0, 0xe7, 0x3e, 0xbe, 0x70, 0xaf, 0x55, 0x3d,
  0x98, 0xba, 0x83, 0x3d, 0x48, 0x87, 0x48, 0x3e, 0x98, 0x7e, 0xc8, 0xbd,
  0x68, 0xfd, 0xd5, 0x3d, 0x98, 0xe1, 0xd9, 0x3d, 0x9c, 0x00, 0x15, 0x3e,
  0x98, 0xb0, 0x57, 0xbe, 0x28, 0xa9, 0x71, 0x3e, 0xe4, 0x97, 0x25, 0xbe,
  0x98, 0xa8, 0x5a, 0xbe, 0x6c, 0xe8, 0x47, 0x3e, 0x40, 0x35, 0x90, 0xbc,
  0x78, 0xb6, 0xaa, 0xbd, 0xfc, 0xda, 0x28, 0x3e, 0x38, 0x55, 0x9b, 0xbd,
  0x90, 0xa5, 0xa3, 0x3d, 0x18, 0x56, 0x45, 0xbe, 0x80, 0x65, 0xcd, 0x3c,
  0xac, 0x47, 0x65, 0x3e, 0xf8, 0x0d, 0x00, 0xbe, 0xd0, 0xde, 0xa3, 0xbd,
  0x14, 0x6d, 0x7c, 0xbe, 0xfc, 0xb0, 0x51, 0x3e, 0x8c, 0x7b, 0x70, 0xbe,
  0x70, 0x2b, 0x19, 0x3e, 0x90, 0x1e, 0x36, 0xbd, 0x20, 0xf3, 0x46, 0xbe,
  0x20, 0x54, 0xea, 0xbd, 0x48, 0x14, 0x40, 0xbe, 0x60, 0xed, 0x62, 0x3d,
  0xc0, 0xf9, 0x6a, 0x3e, 0x97, 0xd9, 0x19, 0xbd, 0x00, 0x6e, 0x85, 0xbb,
  0x28, 0x73, 0xbc, 0xbd, 0xf0, 0x14, 0x26, 0xbd, 0xe0, 0xed, 0x1a, 0xbe,
  0x66, 0xa4, 0x49, 0xbc, 0xc0, 0xca, 0x9d, 0x3d, 0xc0, 0x7e, 0xd0, 0x3c,
  0x94, 0x9a, 0x14, 0x3e, 0x20, 0xa3, 0x24, 0xbe, 0xb4, 0x02, 0xce, 0x3e,
  0x30, 0xf8, 0x32, 0x3d, 0xf4, 0xdc, 0x5d, 0xbe, 0x59, 0x05, 0xcc, 0x3d,
  0xaf, 0xf7, 0x8a, 0x3e, 0x68, 0x83, 0xa6, 0x3e, 0x3c, 0xa2, 0x0f, 0xbe,
  0x76, 0xbd, 0x50, 0xbe, 0x2f, 0xe0, 0xba, 0x3e, 0x33, 0x2c, 0x4d, 0xbd,
  0x6c, 0x20, 0x10, 0xbe, 0x24, 0xc6, 0x23, 0xbe, 0x3e, 0x87, 0x83, 0x3e,
  0xea, 0x5d, 0x52, 0xc0, 0xb0, 0x2b, 0x7c, 0xbd, 0xac, 0x33, 0xc4, 0x3d,
  0xe0, 0xa9, 0xa5, 0xbc, 0xb6, 0x2d, 0x64, 0xbb, 0x44, 0xed, 0x61, 0x3e,
  0x88, 0x8a, 0x95, 0x3d, 0x00, 0xc1, 0x64, 0xbe, 0xac, 0x05, 0x1c, 0xbe,
  0x20, 0xd0, 0x9b, 0xc0, 0xe6, 0x2b, 0x67, 0xbf, 0x6b, 0x9b, 0x10, 0xbd,
  0x2c, 0x52, 0x74, 0x3e, 0x80, 0x79, 0x07, 0xbc, 0x02, 0xd9, 0x5a, 0x3c,
  0x13, 0xf6, 0x14, 0x3d, 0x97, 0xa2, 0xa5, 0x3e, 0x58, 0xa6, 0x47, 0x3e,
  0x62, 0xbb, 0x6b, 0xbd, 0x98, 0xe2, 0x93, 0x3e, 0x8a, 0x93, 0x79, 0x3b,
  0xd1, 0xc0, 0x91, 0xbd, 0xd0, 0x9c, 0x2d, 0xbc, 0x10, 0xe4, 0x5d, 0xbe,
  0xb0, 0x37, 0x41, 0xbe, 0x38, 0xcf, 0x2f, 0x3e, 0x88, 0x84, 0xe8, 0x3d,
  0x58, 0xfe, 0xce, 0xbd, 0x20, 0xa3, 0x37, 0xbd, 0xa6, 0xe7, 0x33, 0x3d,
  0xe0, 0x43, 0x1a, 0x3e, 0x9d, 0x19, 0x33, 0x3e, 0xf0, 0x77, 0x1d, 0x3e,
  0x0f, 0xe3, 0xeb, 0x3d, 0x96, 0x2d, 0x4b, 0x3e, 0x0c, 0x61, 0x17, 0xbe,
  0x00, 0x95, 0x8c, 0xbd, 0x1b, 0x13, 0x1a, 0x3e, 0x47, 0x2d, 0xa6, 0x3e,
  0x10, 0x6a, 0x21, 0xbe, 0x08, 0x8e, 0x5b, 0xbf, 0x17, 0x21, 0x83, 0x3e,
  0x20, 0xba, 0xb8, 0x3c, 0x40, 0xb7, 0x54, 0xbc, 0x2c, 0xc5, 0x6a, 0xbe,
  0xa0, 0xc9, 0x6d, 0x3d, 0xef, 0xb5, 0xd8, 0x3d, 0xd8, 0x2a, 0x35, 0x3e,
  0xec, 0xf0, 0x19, 0x3e, 0x69, 0x1b, 0xbd, 0x3d, 0x64, 0x76, 0x0d, 0xbe,
  0x4c, 0x00, 0x93, 0x3e, 0x00, 0xcf, 0xd1, 0xbc, 0x54, 0x66, 0x61, 0xbe,
  0x76, 0xd2, 0x19, 0x3b, 0x3e, 0x4a, 0xd1, 0xbd, 0x67, 0xc8, 0xb6, 0xbe,
  0x00, 0x6e, 0xae, 0xba, 0x7f, 0xb1, 0x2e, 0xbe, 0x1c, 0x73, 0x1a, 0x3e,
  0x1b, 0x61, 0x6c, 0x3e, 0x04, 0x4d, 0xee, 0xbd, 0xfc, 0x4e, 0x15, 0xbe,
  0x93, 0x4c, 0x03, 0xbd, 0x44, 0x35, 0x24, 0x3e, 0x4c, 0x98, 0x61, 0x3e,
  0x9e, 0x2b, 0x3f, 0x3e, 0x40, 0x37, 0xbc, 0xbd, 0x3c, 0x1f, 0x34, 0xbd,
  0x14, 0x28, 0x33, 0x3e, 0xc2, 0x64, 0xce, 0xbd, 0x80, 0xb2, 0xe1, 0x3d,
  0x50, 0x50, 0x16, 0xbd, 0x0c, 0x9e, 0x78, 0x3d, 0x5f, 0x59, 0x43, 0x3e,
  0x16, 0xcf, 0x6d, 0x3c, 0xe0, 0x2f, 0x18, 0xbe, 0xa0, 0xd2, 0xe1, 0x3c,
  0x3a, 0x1b, 0x43, 0xbe, 0x58, 0xba, 0x86, 0xbe, 0x40, 0x75, 0xc5, 0x3d,
  0xd8, 0x4d, 0x09, 0xbe, 0x52, 0xf5, 0xc3, 0x3d, 0xb1, 0xfd, 0x56, 0xbe,
  0xaf, 0xf2, 0x11, 0x3e, 0xa8, 0x2d, 0xd5, 0xbd, 0xe3, 0xd6, 0x25, 0xbd,
  0xd6, 0x1c, 0x8d, 0x3d, 0xb0, 0x41, 0x4f, 0x3e, 0xc8, 0x23, 0xf9, 0x3d,
  0x28, 0xa3, 0xf7, 0x3d, 0x68, 0x15, 0x0a, 0x3e, 0x70, 0xb2, 0x93, 0x3d,
  0x11, 0x29, 0x75, 0x3e, 0x18, 0x84, 0xfc, 0xbd, 0x74, 0x5f, 0x62, 0xbe,
  0x40, 0xb6, 0xb0, 0x3d, 0xfd, 0x2c, 0xe4, 0xbc, 0x42, 0x69, 0xaa, 0xbe,
  0x20, 0x03, 0xa9, 0xbd, 0x20, 0xd3, 0x1c, 0x3d, 0x3b, 0xeb, 0xee, 0x3d,
  0x00, 0x53, 0x28, 0x3e, 0x54, 0xef, 0x26, 0xbe, 0x9b, 0x4d, 0xa5, 0xbe,
  0x00, 0xa1, 0xd0, 0xbd, 0x20, 0x70, 0x2b, 0xbd, 0x28, 0x87, 0x5c, 0xbe,
  0x30, 0xf9, 0x74, 0x3e, 0x18, 0x20, 0x19, 0xbe, 0x00, 0x72, 0x95, 0xbd,
  0x0c, 0x37, 0x5c, 0xbe, 0xe7, 0xbd, 0x6d, 0xbd, 0xf7, 0xff, 0x4c, 0xbe,
  0xa0, 0xf7, 0xf3, 0xbd, 0xa0, 0xa9, 0x8a, 0xbc, 0x08, 0xa1, 0x52, 0x3e,
  0xec, 0x0f, 0x6d, 0x3e, 0xe8, 0xe9, 0xed, 0xbd, 0xbe, 0xc6, 0x30, 0xbd,
  0x52, 0x4b, 0xe0, 0x3b, 0xe4, 0x31, 0x30, 0xbe, 0x14, 0xdd, 0x41, 0xbe,
  0xa8, 0xf3, 0x48, 0xbe, 0x74, 0x2f, 0x17, 0x3e, 0x07, 0xe6, 0x88, 0xbe,
  0x2c, 0xc9, 0x45, 0x3e, 0x19, 0x07, 0x1f, 0xbc, 0x5d, 0xf0, 0x83, 0xbe,
  0x04, 0xf4, 0x5e, 0x3e, 0x72, 0x41, 0xf6, 0xbd, 0x14, 0xdb, 0x5f, 0x3e,
  0xb2, 0x56, 0x04, 0xbe, 0x08, 0x47, 0x9a, 0x3d, 0x98, 0x1a, 0xc3, 0x3d,
  0xa0, 0xd9, 0x49, 0x3d, 0x08, 0x5a, 0x6c, 0xbe, 0x73, 0xa6, 0x4f, 0x3e,
  0x8c, 0x22, 0x29, 0x3e, 0x50, 0x13, 0x12, 0x3e, 0xe8, 0x2a, 0x4b, 0xbe,
  0x98, 0x65, 0x77, 0xbe, 0x1b, 0x0f, 0x41, 0x3d, 0x04, 0x6b, 0xed, 0x3d,
  0xfc, 0xa3, 0x58, 0x3e, 0x10, 0x46, 0x8f, 0x3d, 0xf5, 0xe7, 0x25, 0xbe,
  0x52, 0x17, 0xe7, 0xbd, 0x78, 0x67, 0x04, 0xbe, 0x78, 0x59, 0x28, 0x3e,
  0x98, 0x40, 0xd9, 0x3d, 0x70, 0x5c, 0x6b, 0x3d, 0xac, 0xaa, 0x28, 0xbe,
  0x50, 0xa1, 0x87, 0x3d, 0x1c, 0xac, 0x1f, 0xbe, 0xe4, 0xfa, 0x6a, 0x3e,
  0x30, 0xb6, 0x9b, 0x3d, 0xf4, 0x89, 0x7d, 0xbe, 0xc0, 0x29, 0x31, 0xbd,
  0x59, 0x62, 0x04, 0x3e, 0x9c, 0x6a, 0x33, 0x3e, 0xfa, 0x18, 0x9a, 0x3c,
  0x59, 0x07, 0x43, 0xbd, 0x98, 0xd4, 0x7f, 0xbe, 0xe0, 0x40, 0x43, 0xbd,
  0x2c, 0x17, 0xc6, 0x3d, 0xc0, 0xa5, 0x90, 0x3d, 0xc0, 0x1e, 0x81, 0xbc,
  0xfd, 0x8e, 0x2f, 0x3d, 0x18, 0xd8, 0x47, 0x3e, 0xc0, 0x0d, 0x11, 0x3c,
  0xe0, 0xe1, 0x25, 0xbd, 0x20, 0xfd, 0x06, 0xbe, 0xc0, 0x4c, 0x31, 0x3c,
  0x08, 0xe1, 0x57, 0x3e, 0xe0, 0xb8, 0x61, 0x3d, 0xb4, 0x35, 0x3d, 0x3e,
  0x9c, 0x38, 0x36, 0xbe, 0xec, 0x1a, 0x72, 0xbe, 0x50, 0x0c, 0xe0, 0x3d,
  0xc0, 0x52, 0x9f, 0xbd, 0x40, 0x5e, 0x5f, 0xbc, 0xf8, 0x9c, 0xda, 0xbd,
  0x88, 0xf2, 0x72, 0xbe, 0x68, 0x80, 0xd2, 0xbd, 0xcc, 0x73, 0x2f, 0x3e,
  0xd0, 0x4a, 0xdc, 0x3d, 0xe0, 0x49, 0x03, 0xbd, 0x48, 0x83, 0xdb, 0x3d,
  0x7c, 0x64, 0x3d, 0xbe, 0xd0, 0x99, 0x20, 0xbd, 0x94, 0x01, 0x18, 0x3e,
  0x00, 0xc3, 0x2c, 0xbb, 0xe0, 0x2e, 0xf6, 0xbd, 0xb4, 0x97, 0x3c, 0xbe,
  0x78, 0x57, 0xb4, 0xbd, 0x78, 0xbe, 0x2d, 0xbe, 0x30, 0x5d, 0x61, 0xbe,
  0xd8, 0x08, 0xe3, 0x3d, 0x88, 0xdc, 0xb0, 0x3d, 0x94, 0x43, 0x14, 0xbe,
  0x68, 0x2d, 0x44, 0x3e, 0x34, 0x9a, 0x14, 0xbe, 0x00, 0x64, 0x17, 0x3d,
  0x78, 0xc2, 0x95, 0xbd, 0xf0, 0x69, 0x4b, 0xbe, 0x2c, 0x90, 0x52, 0xbe,
  0x0c, 0xfc, 0x29, 0x3e, 0x40, 0x06, 0xec, 0xbd, 0x00, 0xae, 0x98, 0x3d,
  0x68, 0xe1, 0x28, 0x3e, 0x24, 0xda, 0x0e, 0x3e, 0xa0, 0xc3, 0xe5, 0x3d,
  0x10, 0x6a, 0xda, 0x3d, 0x10, 0xbf, 0x72, 0xbd, 0xb8, 0x7c, 0x41, 0x3e,
  0x74, 0x8c, 0x51, 0xbe, 0x78, 0x99, 0xf8, 0x3d, 0xa4, 0x1f, 0x56, 0xbe,
  0x80, 0x9e, 0x99, 0x3d, 0xec, 0x29, 0x3a, 0x3e, 0x34, 0xae, 0x3e, 0x3e,
  0x00, 0x24, 0x53, 0x3c, 0x0c, 0x1e, 0x3c, 0x3e, 0x90, 0xc6, 0xa6, 0x3d,
  0x7c, 0xb9, 0x32, 0xbe, 0xe4, 0x3d, 0x07, 0xbe, 0xac, 0x5c, 0x50, 0xbe,
  0x38, 0xc8, 0x84, 0x3d, 0x30, 0xa8, 0x78, 0xbe, 0x74, 0x41, 0x0b, 0x3e,
  0x70, 0xfb, 0xf3, 0xbd, 0xa0, 0xe4, 0xea, 0xbc, 0x51, 0x7e, 0x34, 0x3b,
  0x0c, 0xdc, 0x02, 0x3e, 0xa4, 0xaf, 0x75, 0xbe, 0xf4, 0xca, 0x2d, 0xbe,
  0xf0, 0x81, 0x47, 0xbe, 0x6f, 0xef, 0x6d, 0x3c, 0xe8, 0x5e, 0xa8, 0xbd,
  0xf0, 0xe0, 0x8e, 0xbd, 0xb3, 0x33, 0x0c, 0xbc, 0x44, 0xbf, 0x29, 0x3e,
  0x80, 0xf4, 0x3b, 0x3e, 0xd4, 0x57, 0x0b, 0xbe, 0x00, 0x4a, 0xfa, 0xbc,
  0xc0, 0x95, 0x52, 0xbe, 0x74, 0xa3, 0x4a, 0x3e, 0xb0, 0xe8, 0x1c, 0xbe,
  0x70, 0xab, 0x40, 0xbd, 0x92, 0x99, 0x1d, 0xbe, 0xc4, 0x25, 0x12, 0xbe,
  0x16, 0x1b, 0x60, 0x3c, 0x4c, 0x8e, 0x94, 0xbe, 0xd0, 0xf5, 0x67, 0x3d,
  0xaf, 0x1f, 0xb8, 0xbd, 0x12, 0xcd, 0x6d, 0xbf, 0x28, 0xb8, 0x55, 0xbe,
  0x51, 0x4a, 0xa8, 0xbf, 0xb0, 0xef, 0xb0, 0x3d, 0x51, 0x03, 0x06, 0xbf,
  0x04, 0x09, 0x67, 0x3e, 0x68, 0x8a, 0xad, 0xbd, 0xa8, 0xd2, 0x79, 0x3e,
  0x10, 0xb0, 0x53, 0x3e, 0x17, 0xbe, 0x83, 0xbf, 0xe2, 0x66, 0x93, 0x3e,
  0x9d, 0x72, 0xbd, 0x3d, 0x00, 0x58, 0x1c, 0xbd, 0xb4, 0xf3, 0x35, 0xbe,
  0x5e, 0x7c, 0xe2, 0xbd, 0x75, 0x46, 0x94, 0xbe, 0xd6, 0x49, 0x15, 0x3e,
  0x50, 0x7d, 0x4d, 0xbe, 0x5e, 0x16, 0x71, 0xbf, 0x12, 0x43, 0xeb, 0xbd,
  0xf8, 0x53, 0x90, 0xbd, 0x8f, 0x26, 0x8a, 0xbe, 0xa2, 0xb8, 0xfb, 0x3d,
  0xbf, 0xba, 0x23, 0xbe, 0x78, 0xce, 0x68, 0x3e, 0xec, 0x8c, 0x64, 0x3e,
  0x28, 0x03, 0x1b, 0x3e, 0x90, 0xca, 0x25, 0xbe, 0x28, 0x6c, 0x5f, 0xbe,
  0x30, 0xcb, 0xce, 0xbd, 0x00, 0x79, 0x1a, 0xbd, 0x22, 0x99, 0x3b, 0x3d,
  0x80, 0x16, 0xde, 0xbb, 0xaf, 0x10, 0x95, 0xbe, 0x96, 0x8c, 0xa6, 0xbe,
  0x88, 0x1d, 0x36, 0xbe, 0x80, 0x7e, 0x34, 0xbc, 0xad, 0x7f, 0x85, 0xbe,
  0x54, 0x36, 0x11, 0xbe, 0x70, 0x48, 0x62, 0x3e, 0x15, 0x76, 0xdb, 0xbe,
  0x25, 0xb7, 0x17, 0x3e, 0x90, 0xb7, 0x64, 0xbe, 0x28, 0x17, 0x29, 0xbe,
  0xa4, 0x81, 0x12, 0x3e, 0x38, 0x19, 0x4d, 0xbe, 0x8f, 0x35, 0xdb, 0x3d,
  0xf0, 0xba, 0x6c, 0xbe, 0x7f, 0x78, 0xa6, 0xbe, 0x32, 0xfd, 0x99, 0xbe,
  0x50, 0xb1, 0x93, 0x3d, 0xec, 0x6c, 0xc7, 0xbd, 0x1c, 0x2e, 0x43, 0xbe,
  0xc8, 0x3a, 0xb7, 0xbd, 0x18, 0x92, 0x1b, 0x3e, 0x52, 0xa2, 0x9e, 0x3c,
  0x45, 0x2c, 0xed, 0xbd, 0x20, 0x3d, 0x65, 0x3e, 0x84, 0xcd, 0x90, 0x3d,
  0x65, 0xbe, 0xa6, 0xbe, 0xf1, 0xea, 0x01, 0x3d, 0x94, 0x8d, 0x28, 0xbe,
  0x38, 0xad, 0xb4, 0x3d, 0x21, 0x42, 0x94, 0x3d, 0x5c, 0x2c, 0x85, 0xbe,
  0xa0, 0xa0, 0x98, 0x3d, 0x4d, 0xae, 0x4f, 0xbe, 0x00, 0xfe, 0x15, 0x3b,
  0xc5, 0xce, 0x09, 0x3a, 0x88, 0x11, 0x9e, 0xbd, 0xbe, 0xdc, 0x83, 0x3c,
  0xa4, 0x33, 0x13, 0xbe, 0x0c, 0xd3, 0x52, 0x3e, 0x00, 0x4f, 0x42, 0xbe,
  0x46, 0x12, 0x37, 0xbe, 0x9a, 0x42, 0xc8, 0x3c, 0x90, 0x50, 0x56, 0x3e,
  0x38, 0x3a, 0x05, 0x3e, 0x03, 0x96, 0xd3, 0x3c, 0xbc, 0xd5, 0x41, 0x3d,
  0xc2, 0x9d, 0xff, 0x3d, 0x90, 0x16, 0xaf, 0xbd, 0x36, 0x8e, 0x86, 0xbe,
  0x1c, 0x01, 0x35, 0xbe, 0x70, 0x92, 0xaf, 0x3d, 0x6a, 0x22, 0xe4, 0xbd,
  0x95, 0x0f, 0x62, 0x3e, 0xeb, 0xfa, 0x29, 0x3e, 0xd0, 0x8b, 0xd2, 0xbd,
  0x9c, 0x61, 0x64, 0xbe, 0xe0, 0xcb, 0x4c, 0xbd, 0xf0, 0x64, 0x48, 0xbd,
  0x90, 0xd9, 0xa2, 0xbd, 0x76, 0x33, 0x45, 0xbd, 0x80, 0x79, 0x83, 0x3d,
  0x72, 0x9b, 0x09, 0xbe, 0xa0, 0xe2, 0xcc, 0x3d, 0xa1, 0xeb, 0x9b, 0x3c,
  0x20, 0x8b, 0x5e, 0xbe, 0x10, 0x52, 0x4b, 0x3d, 0x98, 0x73, 0x4d, 0xbe,
  0xb8, 0x01, 0x17, 0x3d, 0x74, 0xf7, 0x22, 0xbe, 0xf8, 0xc9, 0x66, 0x3e,
  0x62, 0x9e, 0x10, 0x3c, 0xdc, 0xfd, 0x4b, 0x3e, 0x88, 0xc1, 0x5d, 0x3e,
  0xd8, 0xbc, 0x2a, 0x3e, 0x58, 0x4d, 0x21, 0xbe, 0xb8, 0x6d, 0x2b, 0x3e,
  0x08, 0xaf, 0x2e, 0xbe, 0x60, 0x32, 0xc1, 0x3d, 0x83, 0xe6, 0x79, 0xbe,
  0x1d, 0xd4, 0x1a, 0xbd, 0x74, 0x7f, 0x48, 0xbe, 0x10, 0x29, 0x4e, 0x3e,
  0x3c, 0x2a, 0x3a, 0x3e, 0x20, 0xfc, 0xf7, 0xbc, 0x7c, 0x3e, 0x6b, 0xbe,
  0x00, 0x32, 0x04, 0x3d, 0x91, 0x86, 0xb1, 0x3e, 0x18, 0x88, 0xaf, 0x3d,
  0x58, 0x63, 0x4d, 0xbe, 0xe3, 0x1c, 0x0a, 0xbf, 0xd4, 0x66, 0x34, 0x3e,
  0xd8, 0xb7, 0x1f, 0xbe, 0xc8, 0x0a, 0x20, 0xbe, 0xb0, 0x0c, 0xf3, 0x3d,
  0x9a, 0x71, 0xab, 0x3d, 0x1c, 0x1d, 0x1c, 0x3e, 0x3f, 0xa1, 0x53, 0xbe,
  0xd0, 0x13, 0x61, 0x3e, 0x61, 0xe4, 0xcd, 0xbe, 0x20, 0x93, 0x61, 0xbe,
  0xc8, 0x0a, 0xdd, 0x3d, 0x60, 0x63, 0xfe, 0xbd, 0x80, 0x29, 0xcc, 0x3c,
  0xe8, 0x0b, 0x4c, 0xbe, 0xba, 0x1d, 0x98, 0xbe, 0xcc, 0xd2, 0x4c, 0xbe,
  0x68, 0x9c, 0x42, 0xbe, 0x68, 0x25, 0x2c, 0x3e, 0x55, 0xc3, 0x8e, 0xbe,
  0x3c, 0x69, 0x4e, 0x3e, 0x00, 0x5e, 0x10, 0x3b, 0x00, 0xca, 0x55, 0x3e,
  0x5f, 0x27, 0x47, 0xbe, 0xaa, 0x44, 0x2a, 0xbd, 0x00, 0x02, 0xc6, 0xbd,
  0xf0, 0xf1, 0x45, 0x3d, 0xc0, 0x85, 0x05, 0x3c, 0xc8, 0xc8, 0xee, 0x3d,
  0x60, 0xb6, 0x2a, 0x3e, 0x6c, 0x37, 0x0f, 0x3e, 0xd0, 0xcc, 0x02, 0x3d,
  0xe0, 0xa2, 0xb2, 0xbd, 0x50, 0x91, 0x29, 0x3e, 0xfc, 0x73, 0x54, 0x3e,
  0x5c, 0x95, 0x61, 0x3e, 0xc0, 0x0f, 0x9b, 0xbe, 0x74, 0xd3, 0x6e, 0x3e,
  0x9a, 0xef, 0xc0, 0xbd, 0xab, 0x65, 0x2f, 0xbe, 0x58, 0x69, 0x87, 0x3d,
  0x40, 0xf2, 0xfc, 0x3c, 0x20, 0xa6, 0x78, 0xbd, 0x00, 0x31, 0xf4, 0xbc,
  0x60, 0xa8, 0xc0, 0x3c, 0x9e, 0x5a, 0x23, 0xbe, 0xeb, 0xd1, 0x51, 0xbe,
  0x28, 0x95, 0x2d, 0x3e, 0x00, 0xce, 0x65, 0x3c, 0x00, 0x63, 0x7a, 0xbd,
  0x00, 0xe2, 0x4b, 0xbe, 0x57, 0x60, 0x7b, 0xbe, 0xa4, 0xff, 0x26, 0xbe,
  0x55, 0xc2, 0xa4, 0x3b, 0x2a, 0x3a, 0x4a, 0xbe, 0xea, 0x70, 0x22, 0xbd,
  0x66, 0x34, 0x27, 0xbe, 0x20, 0x28, 0x78, 0x3d, 0x40, 0x75, 0xc5, 0x3d,
  0x95, 0x79, 0x4f, 0x3e, 0x82, 0xa6, 0x4d, 0xbc, 0x90, 0x24, 0x0d, 0xbe,
  0x6c, 0x74, 0x7f, 0x3e, 0xed, 0xf1, 0xc5, 0xbc, 0xce, 0x7d, 0x95, 0xbd,
  0x9a, 0xd8, 0x7b, 0xbd, 0x3d, 0x9a, 0xaf, 0xbe, 0xe0, 0x54, 0x15, 0xbd,
  0x16, 0x92, 0xea, 0xbd, 0x27, 0x35, 0xd5, 0x3d, 0xe8, 0xa7, 0x42, 0x3e,
  0xd7, 0xf1, 0x89, 0xbe, 0xe4, 0xad, 0x6c, 0x3e, 0x43, 0x4b, 0x8d, 0xbe,
  0x38, 0xab, 0x14, 0xbe, 0x58, 0x73, 0x50, 0x3e, 0x70, 0xb5, 0xe5, 0x3d,
  0x74, 0x99, 0x4a, 0xbe, 0x95, 0x5f, 0x86, 0xbe, 0xb2, 0x12, 0xb4, 0x3d,
  0xd9, 0xfb, 0x32, 0xbe, 0x90, 0x8d, 0xaa, 0xbd, 0x2c, 0xe3, 0x3d, 0x3e,
  0x96, 0x9c, 0xf4, 0x3c, 0x03, 0x1f, 0x90, 0xbe, 0xc3, 0xca, 0x15, 0xbe,
  0x80, 0xa1, 0x9c, 0x3c, 0xaa, 0x43, 0x44, 0xbe, 0x6c, 0xa2, 0xa1, 0x3d,
  0x45, 0x56, 0x83, 0xbe, 0xa2, 0xdc, 0x2f, 0x3c, 0xd9, 0x68, 0x0b, 0xbe,
  0x03, 0xbe, 0x36, 0x3e, 0x50, 0x4e, 0x44, 0xbd, 0x00, 0xee, 0x45, 0x3e,
  0xe0, 0xda, 0x15, 0xbd, 0xa0, 0xde, 0x22, 0x3e, 0x48, 0xbf, 0xf9, 0xbd,
  0xf2, 0x42, 0x23, 0x3e, 0xa0, 0x41, 0x7a, 0xbe, 0x2b, 0xaa, 0x84, 0xbe,
  0xf8, 0x6f, 0x7b, 0xbe, 0x5c, 0x7f, 0x6d, 0xbe, 0x0d, 0xe1, 0x15, 0xbe,
  0x90, 0x96, 0x25, 0xbe, 0x08, 0xfa, 0x6c, 0xbe, 0xde, 0x3a, 0x81, 0xbe,
  0x09, 0x75, 0x44, 0x3e, 0x10, 0x59, 0x01, 0x3e, 0x21, 0xa2, 0xc7, 0x3d,
  0x3c, 0x18, 0x08, 0xbe, 0xa0, 0xd1, 0x57, 0xbe, 0x00, 0xfd, 0x03, 0xbb,
  0xf8, 0x82, 0xb6, 0x3d, 0x60, 0x12, 0x90, 0x3d, 0x58, 0xf6, 0x15, 0xbe,
  0xf0, 0x42, 0x18, 0xbe, 0xa0, 0xd0, 0x97, 0x3d, 0x80, 0xc4, 0x03, 0xbe,
  0xd0, 0xad, 0xa5, 0x3d, 0x80, 0x11, 0xd0, 0x3b, 0x50, 0xfc, 0x12, 0xbe,
  0x18, 0xd5, 0xcc, 0x3d, 0xb8, 0xf2, 0x00, 0xbe, 0xe0, 0xbf, 0x39, 0xbd,
  0xf6, 0x39, 0x01, 0x3e, 0xe4, 0x6e, 0x41, 0xbe, 0x84, 0xcb, 0x7c, 0x3e,
  0x21, 0xc3, 0x77, 0xbe, 0xc4, 0xde, 0x77, 0xbe, 0x40, 0x18, 0x17, 0x3e,
  0xe4, 0x46, 0x05, 0x3e, 0xc0, 0x57, 0xad, 0x3d, 0x18, 0x2d, 0x97, 0x3d,
  0xd0, 0x2d, 0x40, 0x3e, 0xc0, 0x10, 0xcf, 0x3c, 0x40, 0xb9, 0xab, 0x3c,
  0xc9, 0x37, 0x97, 0xbe, 0xf8, 0xb6, 0x06, 0x3e, 0x58, 0x70, 0xd6, 0x3d,
  0x80, 0x75, 0x9b, 0x3d, 0xa0, 0x0a, 0xa4, 0x3c, 0x59, 0x8f, 0xbe, 0x3c,
  0xab, 0x06, 0x1b, 0xbe, 0xc0, 0xaf, 0x4c, 0xbe, 0x30, 0x15, 0x08, 0x3e,
  0x20, 0xf0, 0x43, 0x3e, 0x28, 0xe5, 0x16, 0xbe, 0x10, 0x5e, 0x2d, 0xbd,
  0x1c, 0x78, 0x68, 0xbe, 0xe0, 0x27, 0x2c, 0xbd, 0xc0, 0xb7, 0x36, 0xbd,
  0x4c, 0x90, 0x1e, 0xbd, 0x40, 0xf8, 0xc2, 0x3d, 0x00, 0x25, 0x05, 0x3c,
  0x30, 0x67, 0x7d, 0x3d, 0x24, 0x0f, 0x54, 0x3e, 0x00, 0x33, 0x40, 0xbd,
  0x00, 0x79, 0xd2, 0x3c, 0x1c, 0x56, 0x11, 0x3e, 0x60, 0x36, 0x3a, 0x3e,
  0x00, 0x2f, 0xff, 0xbb, 0x64, 0x08, 0x05, 0xbe, 0x40, 0x9f, 0x06, 0xbe,
  0x47, 0x54, 0x62, 0xbe, 0x80, 0x83, 0xb1, 0x3d, 0xe4, 0x17, 0xe1, 0xbc,
  0xad, 0x69, 0xfa, 0xbd, 0xd4, 0x35, 0x1c, 0xbe, 0x6c, 0x5b, 0x55, 0x3e,
  0x68, 0xc2, 0xde, 0xbd, 0xe0, 0xa6, 0xcc, 0xbd, 0x0c, 0x14, 0x03, 0xbe,
  0xb4, 0xaa, 0x48, 0xbe, 0x60, 0x59, 0x6f, 0xbe, 0xb4, 0x2d, 0x49, 0x3e,
  0x9c, 0x95, 0x2f, 0xbe, 0x98, 0x39, 0x04, 0xbe, 0xac, 0xa7, 0x1d, 0x3e,
  0x7f, 0x2c, 0x42, 0x3d, 0xc8, 0x12, 0xd8, 0xbd, 0x59, 0xe5, 0x9b, 0xbd,
  0xc2, 0xc4, 0x49, 0xbc, 0x92, 0x0b, 0x81, 0xbe, 0x0d, 0x28, 0x5e, 0x3d,
  0xb8, 0x6d, 0xc4, 0xbd, 0x00, 0x37, 0x8d, 0xbb, 0xc7, 0xaa, 0xf6, 0x3d,
  0xe2, 0x8e, 0x9e, 0xbd, 0x8e, 0xd3, 0xf4, 0x3d, 0xf8, 0x3b, 0x84, 0x3d,
  0xa8, 0x73, 0xc6, 0xbd, 0xc7, 0xd0, 0xe0, 0xbc, 0xe9, 0x16, 0xce, 0xbc,
  0x6f, 0x7d, 0x43, 0x3e, 0x2c, 0x08, 0x36, 0x3e, 0x98, 0xdd, 0x97, 0xbd,
  0x74, 0xe9, 0x1a, 0xbe, 0x80, 0x17, 0x15, 0xbe, 0xe7, 0x1e, 0xa3, 0x3d,
  0x08, 0xd0, 0xf7, 0x3d, 0xc4, 0xae, 0x12, 0x3e, 0x40, 0xdc, 0xb7, 0xbd,
  0xad, 0x80, 0xe2, 0xbc, 0xac, 0x10, 0x06, 0x3e, 0xc0, 0xf7, 0x6f, 0xbd,
  0x08, 0xd9, 0x01, 0x3c, 0x29, 0x40, 0xe3, 0xbd, 0x93, 0xa8, 0xfb, 0xbc,
  0x94, 0x7a, 0x2b, 0xbe, 0xc4, 0xa5, 0x15, 0x3e, 0x4a, 0x58, 0x3d, 0x3d,
  0x08, 0x7b, 0x78, 0x3d, 0x5d, 0x2d, 0xa1, 0x3d, 0x60, 0x7e, 0xd3, 0x3d,
  0xc6, 0x03, 0xbd, 0xbd, 0x26, 0x74, 0x59, 0xbe, 0x87, 0x0a, 0x6b, 0x3b,
  0x83, 0xa7, 0xb3, 0x3c, 0x20, 0x31, 0x0f, 0xbe, 0x8b, 0xdb, 0xf8, 0x3c,
  0x08, 0x19, 0x57, 0x3e, 0xf0, 0x7f, 0xe6, 0x3d, 0x10, 0x48, 0xf8, 0xbd,
  0xdc, 0xa3, 0x55, 0xbe, 0x5c, 0x03, 0x01, 0x3e, 0x13, 0x4c, 0x89, 0x3d,
  0x18, 0x6b, 0xb6, 0xbd, 0x1a, 0x6e, 0xd3, 0x3d, 0xd0, 0x6b, 0x5d, 0x3d,
  0x96, 0x29, 0x85, 0x3d, 0xe9, 0x3a, 0x2c, 0x3d, 0xb0, 0x32, 0xb5, 0x3d,
  0x14, 0x2e, 0x03, 0xbe, 0x08, 0xe9, 0x24, 0x3e, 0xd6, 0xd5, 0x67, 0x3b,
  0x80, 0x4d, 0xf1, 0x3b, 0x4d, 0x79, 0xa3, 0xbd, 0xe4, 0xd6, 0x1f, 0xbe,
  0x50, 0x8f, 0x84, 0xbd, 0x60, 0x74, 0x04, 0xbe, 0xd0, 0x0c, 0xfe, 0xbd,
  0x20, 0x40, 0x09, 0x3e, 0x51, 0xea, 0x0b, 0x3e, 0xc0, 0x53, 0xe2, 0xbd,
  0x92, 0xd6, 0x47, 0x39, 0x14, 0xf0, 0xbd, 0x3d, 0x91, 0x08, 0x7c, 0xbe,
  0xb2, 0x6b, 0x36, 0xbe, 0x00, 0x66, 0x13, 0xbe, 0xc4, 0x64, 0x36, 0xbe,
  0x09, 0x44, 0x48, 0xbe, 0x1d, 0x6b, 0x27, 0xbb, 0xcc, 0x74, 0xc4, 0xbe,
  0xbc, 0x73, 0x27, 0x3e, 0xf6, 0x44, 0xd0, 0xbd, 0x82, 0xb3, 0xa1, 0xbe,
  0x19, 0x70, 0x21, 0xbe, 0x47, 0x0f, 0x82, 0x3d, 0xa0, 0x95, 0x34, 0x3e,
  0x0c, 0x34, 0x14, 0x3e, 0x9d, 0x15, 0x00, 0xbe, 0x88, 0x0e, 0xdb, 0xbd,
  0x8e, 0x41, 0x2f, 0xbe, 0xd4, 0xdc, 0x21, 0x3e, 0xb1, 0x2e, 0xe6, 0xbc,
  0xd0, 0x75, 0x46, 0xbe, 0x1b, 0x77, 0xea, 0xbd, 0x38, 0xa1, 0x21, 0xbe,
  0xd4, 0x79, 0x2a, 0x3e, 0x7c, 0x44, 0x44, 0xbe, 0x28, 0xc4, 0x8b, 0xbe,
  0x24, 0xcc, 0x82, 0xbd, 0x00, 0x86, 0xaa, 0x3c, 0x40, 0x02, 0x9b, 0xbc,
  0x87, 0xd0, 0x42, 0xbe, 0x86, 0x29, 0x86, 0xbd, 0x67, 0x2e, 0xe4, 0x3d,
  0xac, 0x33, 0x59, 0xbe, 0xd8, 0x5c, 0xb6, 0x3d, 0x63, 0x77, 0xf2, 0xbd,
  0xa4, 0x50, 0xdc, 0x3d, 0xd1, 0xc1, 0x8b, 0xbe, 0xab, 0x5f, 0xcd, 0x3d,
  0x8d, 0x30, 0x14, 0x3b, 0xb8, 0xc7, 0x87, 0x3d, 0xbc, 0x29, 0x1d, 0x3e,
  0xe0, 0x1e, 0xb6, 0xbc, 0x40, 0x3c, 0xbb, 0xbc, 0x74, 0x4c, 0x39, 0x3e,
  0x93, 0xb4, 0x44, 0x3e, 0xd0, 0x61, 0x7c, 0xbd, 0xc0, 0x86, 0x05, 0x3e,
  0xec, 0xe0, 0x7e, 0x3e, 0xf0, 0xa1, 0xe9, 0xbd, 0x72, 0xa1, 0x53, 0xbe,
  0x3c, 0x40, 0x73, 0xbe, 0xb8, 0xec, 0xcb, 0xbd, 0x20, 0x70, 0x11, 0xbe,
  0xe0, 0xe5, 0x79, 0xbd, 0xa8, 0x33, 0x8c, 0x3d, 0x18, 0x63, 0xc4, 0x3c,
  0x08, 0x54, 0xf9, 0xbd, 0x98, 0x16, 0x33, 0x3e, 0x00, 0xb8, 0xc3, 0xbb,
  0xc0, 0x3b, 0x90, 0x3c, 0xe0, 0x77, 0x79, 0xbe, 0x80, 0xfc, 0x0e, 0xbe,
  0x3c, 0x43, 0x19, 0x3e, 0xbc, 0x35, 0x6c, 0x3e, 0x8c, 0x2e, 0x2a, 0xbe,
  0x2c, 0x4f, 0x74, 0x3e, 0xc0, 0x1c, 0x72, 0x3d, 0xf8, 0xc8, 0xfe, 0x3d,
  0x98, 0xfd, 0x07, 0xbe, 0x98, 0xba, 0xac, 0x3d, 0x4c, 0xe5, 0x0e, 0xbe,
  0x80, 0x4d, 0x3b, 0xbe, 0x80, 0xdd, 0x95, 0x3c, 0x40, 0xec, 0xca, 0xbc,
  0x38, 0xf9, 0x95, 0x3d, 0xe0, 0x2f, 0xde, 0xbd, 0xd8, 0xa5, 0x7e, 0xbe,
  0x84, 0x9a, 0x2c, 0x3e, 0x58, 0xf9, 0x7e, 0x3e, 0xbc, 0xe5, 0x2d, 0xbe,
  0x98, 0xf3, 0x38, 0x3e, 0xa0, 0xce, 0x06, 0x3d, 0x70, 0xc7, 0x62, 0xbe,
  0xec, 0x6e, 0x04, 0x3e, 0x10, 0x38, 0x37, 0xbe, 0x80, 0xf4, 0x35, 0x3d,
  0x64, 0x8d, 0x05, 0x3e, 0xb0, 0x1f, 0x63, 0x3d, 0x68, 0xf9, 0xe0, 0xbd,
  0x78, 0x58, 0x21, 0xbe, 0x70, 0xaf, 0xaf, 0xbd, 0x2c, 0x44, 0x46, 0xbe,
  0xc0, 0x6c, 0xf9, 0x3c, 0xd0, 0xd8, 0x6a, 0xbd, 0x44, 0x65, 0x3b, 0xbe,
  0x00, 0xbd, 0xa4, 0x3d, 0x14, 0x39, 0x3e, 0x3e, 0xf8, 0x4b, 0xca, 0x3d,
  0xc0, 0x85, 0x55, 0xbd, 0x1c, 0xe4, 0x41, 0xbe, 0xf0, 0x13, 0x0e, 0x3d,
  0xf8, 0x9c, 0xa6, 0xbd, 0x0c, 0x57, 0x07, 0xbe, 0xc4, 0xa0, 0x30, 0xbe,
  0xc0, 0xc3, 0x94, 0x3c, 0x70, 0x99, 0xf4, 0xbd, 0x8c, 0x3f, 0x3a, 0xbe,
  0xf0, 0x22, 0x2b, 0xbe, 0xa8, 0xd5, 0x04, 0xbe, 0x88, 0xe8, 0x6d, 0xbe,
  0x84, 0x7a, 0x4c, 0xbe, 0x00, 0x7f, 0xd0, 0xbd, 0x40, 0x85, 0xc5, 0xbc,
  0xa0, 0x8e, 0x5c, 0x3e, 0x80, 0x1b, 0x89, 0xbd, 0xf8, 0x7a, 0x2a, 0xbe,
  0xd0, 0xf7, 0x68, 0x3e, 0x6c, 0xcf, 0x3a, 0xbe, 0xd0, 0xb0, 0x3a, 0x3e,
  0x90, 0xf1, 0xa6, 0xbd, 0xdc, 0x10, 0x46, 0x3e, 0x5c, 0xb2, 0x20, 0xbe,
  0x84, 0xfc, 0x70, 0x3e, 0x00, 0xbb, 0xbd, 0xbd, 0x2c, 0x7a, 0x54, 0xbe,
  0x80, 0xcc, 0xd2, 0x3d, 0x50, 0x21, 0x73, 0x3d, 0x90, 0xc8, 0x4a, 0xbd,
  0xe5, 0xaa, 0x45, 0xbd, 0x50, 0xca, 0x4a, 0x3e, 0xe0, 0x10, 0x24, 0xbe,
  0x80, 0xff, 0xb6, 0x3b, 0x84, 0x6a, 0x06, 0xbe, 0xf8, 0x86, 0x8d, 0x3d,
  0x8b, 0xca, 0x2d, 0xbd, 0x8e, 0xcb, 0x9e, 0x3d, 0x60, 0x2e, 0xec, 0x3c,
  0xd0, 0x90, 0x46, 0x3e, 0xe2, 0x52, 0x53, 0x3e, 0xe8, 0xb2, 0x1f, 0x3e,
  0xc0, 0x1f, 0xb7, 0xbd, 0x78, 0x4c, 0xae, 0x3d, 0xb0, 0xe1, 0x6c, 0xbc,
  0x56, 0xd6, 0x2d, 0x3e, 0xa0, 0x31, 0x36, 0x3e, 0x34, 0xf3, 0x5a, 0xbe,
  0x4c, 0x55, 0x6a, 0xbe, 0xdd, 0xb7, 0xb4, 0x3b, 0x80, 0x0a, 0xe4, 0xbd,
  0xa8, 0xd1, 0xa6, 0xbd, 0x00, 0x7c, 0x43, 0xba, 0x20, 0x3f, 0x22, 0xbd,
  0x10, 0x2a, 0x7b, 0xbd, 0x45, 0x34, 0xe3, 0x3c, 0x50, 0x5e, 0x1b, 0xbe,
  0x38, 0x25, 0xf7, 0x3d, 0xf0, 0xd4, 0x3c, 0xbe, 0xe0, 0x26, 0x30, 0xbe,
  0x20, 0x99, 0x93, 0x3d, 0x59, 0xc5, 0xd5, 0x3d, 0xb8, 0xaa, 0x97, 0xbd,
  0x1d, 0xcf, 0x04, 0xbe, 0x31, 0xfd, 0x05, 0xbe, 0xe0, 0xb4, 0xaf, 0x3c,
  0xec, 0xd9, 0x07, 0x3e, 0xcc, 0x95, 0x66, 0xbe, 0xc8, 0xe7, 0xb3, 0xbd,
  0x08, 0x18, 0x79, 0xbe, 0xc4, 0x03, 0x4f, 0x3e, 0xc4, 0x67, 0x00, 0xbe,
  0x98, 0xc7, 0x02, 0xbe, 0x30, 0x6f, 0x78, 0x3e, 0xd0, 0x33, 0xaf, 0xbd,
  0x90, 0x2b, 0x92, 0x3d, 0x5d, 0x90, 0x8f, 0xbe, 0xe0, 0xb8, 0xc0, 0xbd,
  0x31, 0xe4, 0x4a, 0x3e, 0x5c, 0x25, 0x83, 0xbe, 0x88, 0x09, 0x20, 0x3e,
  0xc0, 0x8c, 0xef, 0x3c, 0x10, 0x7a, 0xaf, 0x3d, 0xd4, 0x57, 0x79, 0xbe,
  0x6c, 0x04, 0x40, 0x3e, 0xbc, 0x3d, 0x60, 0xbe, 0x80, 0x02, 0xe0, 0xbb,
  0x34, 0x1f, 0x65, 0xbe, 0x00, 0x4a, 0xb8, 0xba, 0x28, 0xc7, 0x8b, 0x3d,
  0x70, 0x9b, 0x2d, 0x3d, 0x4c, 0x73, 0x74, 0xbe, 0xe8, 0x6a, 0xb2, 0xbd,
  0x68, 0x09, 0xf8, 0xbd, 0x68, 0x70, 0x95, 0xbd, 0x60, 0xf7, 0xb0, 0x3d,
  0x20, 0x3c, 0x84, 0x3d, 0x80, 0x32, 0x8a, 0xbd, 0x70, 0xf6, 0xa3, 0xbd,
  0xa0, 0x22, 0xde, 0xbc, 0xf0, 0x22, 0x6d, 0xbd, 0xe0, 0x3b, 0x34, 0xbd,
  0xf4, 0xa3, 0x3c, 0xbe, 0x10, 0x19, 0x6a, 0xbe, 0x10, 0xc3, 0x25, 0xbe,
  0x04, 0x71, 0x7a, 0xbe, 0xb8, 0x23, 0x4f, 0xbe, 0x8c, 0xd5, 0x51, 0x3e,
  0xa8, 0x90, 0x2f, 0xbe, 0x80, 0xc0, 0xd8, 0x3c, 0x7c, 0x30, 0x6f, 0x3e,
  0x7c, 0xc4, 0x2f, 0x3e, 0xd4, 0xcd, 0x58, 0x3e, 0x50, 0xd1, 0x5d, 0x3e,
  0xc0, 0xa6, 0x2b, 0xbc, 0xb0, 0x8d, 0xbd, 0xbd, 0x10, 0xa0, 0x28, 0x3e,
  0xd8, 0x2a, 0x74, 0x3e, 0x90, 0xab, 0x09, 0x3e, 0x00, 0xfc, 0xaa, 0x3b,
  0xe8, 0x05, 0x03, 0x3e, 0x10, 0xac, 0xe3, 0xbd, 0x90, 0xd9, 0xbf, 0x3d,
  0x94, 0x8e, 0x51, 0x3e, 0xc8, 0x31, 0x30, 0x3e, 0xe0, 0xa5, 0xfd, 0xbc,
  0xb4, 0x2c, 0x13, 0x3e, 0x78, 0x46, 0xef, 0x3d, 0xf0, 0xfd, 0x3b, 0xbe,
  0x00, 0x3f, 0x1b, 0xbe, 0x90, 0x2a, 0xa0, 0xbd, 0xac, 0x3a, 0x6f, 0xbe,
  0x98, 0x90, 0x04, 0xbe, 0xc0, 0x82, 0x4a, 0x3c, 0xa0, 0xd0, 0x6b, 0xbe,
  0xc0, 0x61, 0x35, 0x3c, 0x80, 0x3a, 0x35, 0xbd, 0x18, 0xd5, 0xcf, 0x3d,
  0x00, 0x00, 0xbe, 0x3d, 0xe8, 0x78, 0x98, 0x3d, 0x88, 0xad, 0xf8, 0xbd,
  0x40, 0x4b, 0x0a, 0xbd, 0x58, 0x9a, 0x27, 0xbe, 0x70, 0x26, 0x62, 0xbd,
  0x1c, 0xca, 0x69, 0xbe, 0x9c, 0x3b, 0x77, 0xbe, 0x20, 0xf2, 0x98, 0xbc,
  0xc0, 0x81, 0xc9, 0x3c, 0x58, 0x63, 0xaf, 0x3d, 0x30, 0x62, 0x4b, 0xbe,
  0xcf, 0x00, 0x4d, 0xbe, 0x0c, 0xf3, 0x35, 0x3e, 0xb0, 0xa9, 0x25, 0x3d,
  0x1c, 0xa1, 0x7f, 0xbe, 0x48, 0x6f, 0x3f, 0xbe, 0xab, 0x29, 0xb5, 0xbd,
  0x74, 0x46, 0x49, 0x3e, 0x26, 0xe7, 0x08, 0xbd, 0x7b, 0xac, 0x55, 0x3d,
  0x79, 0xff, 0x15, 0xbe, 0x5f, 0xd4, 0x0a, 0x3d, 0x18, 0x8d, 0x2d, 0xbe,
  0xf4, 0xa6, 0x2e, 0x3e, 0x5b, 0x47, 0x92, 0x3d, 0xfc, 0x22, 0x1b, 0x3e,
  0x06, 0x25, 0x3c, 0xbd, 0x98, 0x03, 0x6e, 0x3e, 0x04, 0x7c, 0xdb, 0xbd,
  0x86, 0x99, 0x0d, 0x3e, 0x3f, 0xa0, 0xcd, 0x3d, 0xe9, 0x25, 0xf1, 0xbf,
  0x08, 0x13, 0x2b, 0x3e, 0xb4, 0x90, 0x4a, 0x3d, 0x6e, 0x39, 0xbb, 0xbf,
  0x10, 0x18, 0x40, 0xbd, 0x73, 0x6f, 0x5b, 0xbc, 0x2c, 0x48, 0x45, 0x3e,
  0x34, 0xbf, 0x52, 0xbc, 0x68, 0x3e, 0xa6, 0xbd, 0x01, 0xce, 0x15, 0xbd,
  0xbc, 0xac, 0x1f, 0xbe, 0x14, 0x7a, 0x5b, 0xbe, 0x64, 0x2f, 0x46, 0xbf,
  0x3e, 0x3b, 0x3e, 0xbd, 0x5f, 0x01, 0xe6, 0x3c, 0x00, 0xff, 0x61, 0xbb,
  0xc0, 0x87, 0xdf, 0xbd, 0x40, 0xf1, 0x21, 0x39, 0x65, 0x0a, 0xf1, 0xbd,
  0x3a, 0x1c, 0xb4, 0xbd, 0x88, 0x43, 0x81, 0xbd, 0xcc, 0x07, 0x12, 0xbd,
  0x80, 0x00, 0x45, 0x3e, 0x07, 0xc8, 0x5e, 0x3e, 0xdf, 0xd6, 0x0d, 0x3e,
  0xcd, 0x21, 0x12, 0xbe, 0x45, 0x03, 0x8f, 0x3e, 0x08, 0x24, 0xde, 0xbd,
  0x60, 0x5b, 0x6b, 0x3e, 0x58, 0xb8, 0x0a, 0x3e, 0x20, 0xc7, 0xb3, 0xbc,
  0x54, 0x53, 0x1a, 0x3e, 0xb4, 0xdd, 0xc4, 0x3a, 0xf8, 0x8a, 0xc3, 0x3d,
  0xc4, 0xde, 0x20, 0x38, 0x00, 0x49, 0x9e, 0xbc, 0x3f, 0x64, 0xf1, 0x3d,
  0x86, 0x08, 0x8b, 0x3a, 0xc8, 0x7d, 0xf5, 0x3d, 0x14, 0x8a, 0x0f, 0xbe,
  0xa3, 0xbe, 0x50, 0x3d, 0xf6, 0xff, 0xeb, 0x3d, 0x6c, 0xd2, 0x08, 0x3e,
  0x45, 0xf3, 0x22, 0xbe, 0x00, 0x00, 0x06, 0x00, 0x08, 0x00, 0x04, 0x00,
  0x06, 0x00, 0x00, 0x00, 0x04, 0x00, 0x00, 0x00, 0x80, 0x00, 0x00, 0x00,
  0x34, 0x37, 0xb9, 0xbe, 0x5c, 0x1b, 0x10, 0x3e, 0xfe, 0x25, 0xc8, 0x3a,
  0x19, 0xcb, 0x37, 0xbe, 0x3e, 0xa5, 0x29, 0xbc, 0xa0, 0xc5, 0xcb, 0x3d,
  0xb5, 0xfa, 0x3b, 0x3e, 0x93, 0x5f, 0x6f, 0x3c, 0x14, 0xdc, 0x45, 0xbd,
  0x96, 0x86, 0xa4, 0x3e, 0xb9, 0x27, 0xcc, 0x3c, 0xca, 0x2c, 0x94, 0xbe,
  0xac, 0xb7, 0x1b, 0xbe, 0x02, 0x82, 0xac, 0xbe, 0x33, 0xd7, 0xaa, 0x3e,
  0x85, 0x8c, 0x0d, 0xbe, 0x7c, 0x6e, 0x86, 0x3d, 0xd3, 0x51, 0x59, 0xbe,
  0x02, 0x57, 0x79, 0x3c, 0x5c, 0x72, 0x9a, 0x3e, 0x07, 0x48, 0xc6, 0xbe,
  0x60, 0x62, 0x52, 0xbe, 0x1b, 0x7c, 0x88, 0x3c, 0x69, 0x43, 0xfe, 0xbd,
  0x41, 0xff, 0x37, 0xbe, 0x12, 0xd0, 0x1f, 0x3e, 0x30, 0x73, 0x98, 0x3c,
  0x9c, 0xf0, 0x07, 0x3c, 0x80, 0xfb, 0x3a, 0x3d, 0xdd, 0xa5, 0x3d, 0x37,
  0x34, 0xb1, 0x62, 0x3e, 0x5b, 0x16, 0xe0, 0x3e, 0x34, 0xfb, 0xff, 0xff,
  0x38, 0xfb, 0xff, 0xff, 0x0f, 0x00, 0x00, 0x00, 0x4d, 0x4c, 0x49, 0x52,
  0x20, 0x43, 0x6f, 0x6e, 0x76, 0x65, 0x72, 0x74, 0x65, 0x64, 0x2e, 0x00,
  0x01, 0x00, 0x00, 0x00, 0x14, 0x00, 0x00, 0x00, 0x00, 0x00, 0x0e, 0x00,
  0x18, 0x00, 0x14, 0x00, 0x10, 0x00, 0x0c, 0x00, 0x08, 0x00, 0x04, 0x00,
  0x0e, 0x00, 0x00, 0x00, 0x14, 0x00, 0x00, 0x00, 0x1c, 0x00, 0x00, 0x00,
  0xd8, 0x00, 0x00, 0x00, 0xdc, 0x00, 0x00, 0x00, 0xe0, 0x00, 0x00, 0x00,
  0x04, 0x00, 0x00, 0x00, 0x6d, 0x61, 0x69, 0x6e, 0x00, 0x00, 0x00, 0x00,
  0x03, 0x00, 0x00, 0x00, 0x80, 0x00, 0x00, 0x00, 0x38, 0x00, 0x00, 0x00,
  0x04, 0x00, 0x00, 0x00, 0x9a, 0xff, 0xff, 0xff, 0x10, 0x00, 0x00, 0x00,
  0x00, 0x00, 0x00, 0x08, 0x0c, 0x00, 0x00, 0x00, 0x10, 0x00, 0x00, 0x00,
  0xb0, 0xfb, 0xff, 0xff, 0x01, 0x00, 0x00, 0x00, 0x09, 0x00, 0x00, 0x00,
  0x03, 0x00, 0x00, 0x00, 0x08, 0x00, 0x00, 0x00, 0x01, 0x00, 0x00, 0x00,
  0x03, 0x00, 0x00, 0x00, 0xca, 0xff, 0xff, 0xff, 0x10, 0x00, 0x00, 0x00,
  0x00, 0x00, 0x00, 0x08, 0x10, 0x00, 0x00, 0x00, 0x14, 0x00, 0x00, 0x00,
  0xba, 0xff, 0xff, 0xff, 0x00, 0x00, 0x00, 0x01, 0x01, 0x00, 0x00, 0x00,
  0x08, 0x00, 0x00, 0x00, 0x03, 0x00, 0x00, 0x00, 0x07, 0x00, 0x00, 0x00,
  0x02, 0x00, 0x00, 0x00, 0x04, 0x00, 0x00, 0x00, 0x00, 0x00, 0x0e, 0x00,
  0x16, 0x00, 0x00, 0x00, 0x10, 0x00, 0x0c, 0x00, 0x0b, 0x00, 0x04, 0x00,
  0x0e, 0x00, 0x00, 0x00, 0x18, 0x00, 0x00, 0x00, 0x00, 0x00, 0x00, 0x08,
  0x18, 0x00, 0x00, 0x00, 0x1c, 0x00, 0x00, 0x00, 0x00, 0x00, 0x06, 0x00,
  0x08, 0x00, 0x07, 0x00, 0x06, 0x00, 0x00, 0x00, 0x00, 0x00, 0x00, 0x01,
  0x01, 0x00, 0x00, 0x00, 0x07, 0x00, 0x00, 0x00, 0x03, 0x00, 0x00, 0x00,
  0x00, 0x00, 0x00, 0x00, 0x06, 0x00, 0x00, 0x00, 0x05, 0x00, 0x00, 0x00,
  0x01, 0x00, 0x00, 0x00, 0x09, 0x00, 0x00, 0x00, 0x01, 0x00, 0x00, 0x00,
  0x00, 0x00, 0x00, 0x00, 0x0a, 0x00, 0x00, 0x00, 0x78, 0x03, 0x00, 0x00,
  0x20, 0x03, 0x00, 0x00, 0xc8, 0x02, 0x00, 0x00, 0x8c, 0x02, 0x00, 0x00,
  0x50, 0x02, 0x00, 0x00, 0xf4, 0x01, 0x00, 0x00, 0xa0, 0x01, 0x00, 0x00,
  0x00, 0x01, 0x00, 0x00, 0x60, 0x00, 0x00, 0x00, 0x04, 0x00, 0x00, 0x00,
  0xc6, 0xfc, 0xff, 0xff, 0x00, 0x00, 0x00, 0x01, 0x14, 0x00, 0x00, 0x00,
  0x1c, 0x00, 0x00, 0x00, 0x1c, 0x00, 0x00, 0x00, 0x0a, 0x00, 0x00, 0x00,
  0x34, 0x00, 0x00, 0x00, 0x02, 0x00, 0x00, 0x00, 0xff, 0xff, 0xff, 0xff,
  0x01, 0x00, 0x00, 0x00, 0xb0, 0xfc, 0xff, 0xff, 0x1b, 0x00, 0x00, 0x00,
  0x53, 0x74, 0x61, 0x74, 0x65, 0x66, 0x75, 0x6c, 0x50, 0x61, 0x72, 0x74,
  0x69, 0x74, 0x69, 0x6f, 0x6e, 0x65, 0x64, 0x43, 0x61, 0x6c, 0x6c, 0x5f,
  0x31, 0x3a, 0x30, 0x00, 0x02, 0x00, 0x00, 0x00, 0x01, 0x00, 0x00, 0x00,
  0x01, 0x00, 0x00, 0x00, 0x1e, 0xfd, 0xff, 0xff, 0x00, 0x00, 0x00, 0x01,
  0x14, 0x00, 0x00, 0x00, 0x1c, 0x00, 0x00, 0x00, 0x1c, 0x00, 0x00, 0x00,
  0x09, 0x00, 0x00, 0x00, 0x78, 0x00, 0x00, 0x00, 0x02, 0x00, 0x00, 0x00,
  0xff, 0xff, 0xff, 0xff, 0x20, 0x00, 0x00, 0x00, 0x08, 0xfd, 0xff, 0xff,
  0x5d, 0x00, 0x00, 0x00, 0x73, 0x65, 0x71, 0x75, 0x65, 0x6e, 0x74, 0x69,
  0x61, 0x6c, 0x5f, 0x34, 0x5f, 0x31, 0x2f, 0x64, 0x65, 0x6e, 0x73, 0x65,
  0x5f, 0x31, 0x33, 0x5f, 0x31, 0x2f, 0x4d, 0x61, 0x74, 0x4d, 0x75, 0x6c,
  0x3b, 0x73, 0x65, 0x71, 0x75, 0x65, 0x6e, 0x74, 0x69, 0x61, 0x6c, 0x5f,
  0x34, 0x5f, 0x31, 0x2f, 0x64, 0x65, 0x6e, 0x73, 0x65, 0x5f, 0x31, 0x33,
  0x5f, 0x31, 0x2f, 0x52, 0x65, 0x6c, 0x75, 0x3b, 0x73, 0x65, 0x71, 0x75,
  0x65, 0x6e, 0x74, 0x69, 0x61, 0x6c, 0x5f, 0x34, 0x5f, 0x31, 0x2f, 0x64,
  0x65, 0x6e, 0x73, 0x65, 0x5f, 0x31, 0x33, 0x5f, 0x31, 0x2f, 0x41, 0x64,
  0x64, 0x00, 0x00, 0x00, 0x02, 0x00, 0x00, 0x00, 0x01, 0x00, 0x00, 0x00,
  0x20, 0x00, 0x00, 0x00, 0xba, 0xfd, 0xff, 0xff, 0x00, 0x00, 0x00, 0x01,
  0x14, 0x00, 0x00, 0x00, 0x1c, 0x00, 0x00, 0x00, 0x1c, 0x00, 0x00, 0x00,
  0x08, 0x00, 0x00, 0x00, 0x78, 0x00, 0x00, 0x00, 0x02, 0x00, 0x00, 0x00,
  0xff, 0xff, 0xff, 0xff, 0x40, 0x00, 0x00, 0x00, 0xa4, 0xfd, 0xff, 0xff,
  0x5d, 0x00, 0x00, 0x00, 0x73, 0x65, 0x71, 0x75, 0x65, 0x6e, 0x74, 0x69,
  0x61, 0x6c, 0x5f, 0x34, 0x5f, 0x31, 0x2f, 0x64, 0x65, 0x6e, 0x73, 0x65,
  0x5f, 0x31, 0x32, 0x5f, 0x31, 0x2f, 0x4d, 0x61, 0x74, 0x4d, 0x75, 0x6c,
  0x3b, 0x73, 0x65, 0x71, 0x75, 0x65, 0x6e, 0x74, 0x69, 0x61, 0x6c, 0x5f,
  0x34, 0x5f, 0x31, 0x2f, 0x64, 0x65, 0x6e, 0x73, 0x65, 0x5f, 0x31, 0x32,
  0x5f, 0x31, 0x2f, 0x52, 0x65, 0x6c, 0x75, 0x3b, 0x73, 0x65, 0x71, 0x75,
  0x65, 0x6e, 0x74, 0x69, 0x61, 0x6c, 0x5f, 0x34, 0x5f, 0x31, 0x2f, 0x64,
  0x65, 0x6e, 0x73, 0x65, 0x5f, 0x31, 0x32, 0x5f, 0x31, 0x2f, 0x41, 0x64,
  0x64, 0x00, 0x00, 0x00, 0x02, 0x00, 0x00, 0x00, 0x01, 0x00, 0x00, 0x00,
  0x40, 0x00, 0x00, 0x00, 0xaa, 0xfe, 0xff, 0xff, 0x00, 0x00, 0x00, 0x01,
  0x10, 0x00, 0x00, 0x00, 0x10, 0x00, 0x00, 0x00, 0x07, 0x00, 0x00, 0x00,
  0x30, 0x00, 0x00, 0x00, 0x30, 0xfe, 0xff, 0xff, 0x20, 0x00, 0x00, 0x00,
  0x73, 0x65, 0x71, 0x75, 0x65, 0x6e, 0x74, 0x69, 0x61, 0x6c, 0x5f, 0x34,
  0x5f, 0x31, 0x2f, 0x64, 0x65, 0x6e, 0x73, 0x65, 0x5f, 0x31, 0x32, 0x5f,
  0x31, 0x2f, 0x4d, 0x61, 0x74, 0x4d, 0x75, 0x6c, 0x00, 0x00, 0x00, 0x00,
  0x02, 0x00, 0x00, 0x00, 0x40, 0x00, 0x00, 0x00, 0x03, 0x00, 0x00, 0x00,
  0xfa, 0xfe, 0xff, 0xff, 0x00, 0x00, 0x00, 0x01, 0x10, 0x00, 0x00, 0x00,
  0x10, 0x00, 0x00, 0x00, 0x06, 0x00, 0x00, 0x00, 0x3c, 0x00, 0x00, 0x00,
  0x80, 0xfe, 0xff, 0xff, 0x2c, 0x00, 0x00, 0x00, 0x73, 0x65, 0x71, 0x75,
  0x65, 0x6e, 0x74, 0x69, 0x61, 0x6c, 0x5f, 0x34, 0x5f, 0x31, 0x2f, 0x64,
  0x65, 0x6e, 0x73, 0x65, 0x5f, 0x31, 0x32, 0x5f, 0x31, 0x2f, 0x41, 0x64,
  0x64, 0x2f, 0x52, 0x65, 0x61, 0x64, 0x56, 0x61, 0x72, 0x69, 0x61, 0x62,
  0x6c, 0x65, 0x4f, 0x70, 0x00, 0x00, 0x00, 0x00, 0x01, 0x00, 0x00, 0x00,
  0x40, 0x00, 0x00, 0x00, 0x52, 0xff, 0xff, 0xff, 0x00, 0x00, 0x00, 0x01,
  0x10, 0x00, 0x00, 0x00, 0x10, 0x00, 0x00, 0x00, 0x05, 0x00, 0x00, 0x00,
  0x1c, 0x00, 0x00, 0x00, 0xd8, 0xfe, 0xff, 0xff, 0x0f, 0x00, 0x00, 0x00,
  0x61, 0x72, 0x69, 0x74, 0x68, 0x2e, 0x63, 0x6f, 0x6e, 0x73, 0x74, 0x61,
  0x6e, 0x74, 0x33, 0x00, 0x01, 0x00, 0x00, 0x00, 0x20, 0x00, 0x00, 0x00,
  0x8a, 0xff, 0xff, 0xff, 0x00, 0x00, 0x00, 0x01, 0x10, 0x00, 0x00, 0x00,
  0x10, 0x00, 0x00, 0x00, 0x04, 0x00, 0x00, 0x00, 0x1c, 0x00, 0x00, 0x00,
  0x10, 0xff, 0xff, 0xff, 0x0f, 0x00, 0x00, 0x00, 0x61, 0x72, 0x69, 0x74,
  0x68, 0x2e, 0x63, 0x6f, 0x6e, 0x73, 0x74, 0x61, 0x6e, 0x74, 0x32, 0x00,
  0x01, 0x00, 0x00, 0x00, 0x01, 0x00, 0x00, 0x00, 0xc2, 0xff, 0xff, 0xff,
  0x00, 0x00, 0x00, 0x01, 0x10, 0x00, 0x00, 0x00, 0x10, 0x00, 0x00, 0x00,
  0x03, 0x00, 0x00, 0x00, 0x1c, 0x00, 0x00, 0x00, 0x48, 0xff, 0xff, 0xff,
  0x0f, 0x00, 0x00, 0x00, 0x61, 0x72, 0x69, 0x74, 0x68, 0x2e, 0x63, 0x6f,
  0x6e, 0x73, 0x74, 0x61, 0x6e, 0x74, 0x31, 0x00, 0x02, 0x00, 0x00, 0x00,
  0x20, 0x00, 0x00, 0x00, 0x40, 0x00, 0x00, 0x00, 0x00, 0x00, 0x16, 0x00,
  0x18, 0x00, 0x14, 0x00, 0x00, 0x00, 0x10, 0x00, 0x0c, 0x00, 0x08, 0x00,
  0x00, 0x00, 0x00, 0x00, 0x00, 0x00, 0x07, 0x00, 0x16, 0x00, 0x00, 0x00,
  0x00, 0x00, 0x00, 0x01, 0x10, 0x00, 0x00, 0x00, 0x10, 0x00, 0x00, 0x00,
  0x02, 0x00, 0x00, 0x00, 0x1c, 0x00, 0x00, 0x00, 0x9c, 0xff, 0xff, 0xff,
  0x0e, 0x00, 0x00, 0x00, 0x61, 0x72, 0x69, 0x74, 0x68, 0x2e, 0x63, 0x6f,
  0x6e, 0x73, 0x74, 0x61, 0x6e, 0x74, 0x00, 0x00, 0x02, 0x00, 0x00, 0x00,
  0x01, 0x00, 0x00, 0x00, 0x20, 0x00, 0x00, 0x00, 0x00, 0x00, 0x16, 0x00,
  0x1c, 0x00, 0x18, 0x00, 0x00, 0x00, 0x14, 0x00, 0x10, 0x00, 0x0c, 0x00,
  0x00, 0x00, 0x00, 0x00, 0x08, 0x00, 0x07, 0x00, 0x16, 0x00, 0x00, 0x00,
  0x00, 0x00, 0x00, 0x01, 0x14, 0x00, 0x00, 0x00, 0x20, 0x00, 0x00, 0x00,
  0x20, 0x00, 0x00, 0x00, 0x01, 0x00, 0x00, 0x00, 0x40, 0x00, 0x00, 0x00,
  0x02, 0x00, 0x00, 0x00, 0xff, 0xff, 0xff, 0xff, 0x03, 0x00, 0x00, 0x00,
  0x04, 0x00, 0x04, 0x00, 0x04, 0x00, 0x00, 0x00, 0x21, 0x00, 0x00, 0x00,
  0x73, 0x65, 0x72, 0x76, 0x69, 0x6e, 0x67, 0x5f, 0x64, 0x65, 0x66, 0x61,
  0x75, 0x6c, 0x74, 0x5f, 0x6b, 0x65, 0x72, 0x61, 0x73, 0x5f, 0x74, 0x65,
  0x6e, 0x73, 0x6f, 0x72, 0x5f, 0x32, 0x38, 0x3a, 0x30, 0x00, 0x00, 0x00,
  0x02, 0x00, 0x00, 0x00, 0x01, 0x00, 0x00, 0x00, 0x03, 0x00, 0x00, 0x00,
  0x01, 0x00, 0x00, 0x00, 0x10, 0x00, 0x00, 0x00, 0x0c, 0x00, 0x0c, 0x00,
  0x0b, 0x00, 0x00, 0x00, 0x00, 0x00, 0x04, 0x00, 0x0c, 0x00, 0x00, 0x00,
  0x09, 0x00, 0x00, 0x00, 0x00, 0x00, 0x00, 0x09
};
unsigned int anomaly_detection_model_tflite_len = 11360;
