unsigned char anomaly_detection_model_tflite[] = {
  0x1c, 0x00, 0x00, 0x00, 0x54, 0x46, 0x4c, 0x33, 0x14, 0x00, 0x20, 0x00,
  0x1c, 0x00, 0x18, 0x00, 0x14, 0x00, 0x10, 0x00, 0x0c, 0x00, 0x00, 0x00,
  0x08, 0x00, 0x04, 0x00, 0x14, 0x00, 0x00, 0x00, 0x1c, 0x00, 0x00, 0x00,
  0x8c, 0x00, 0x00, 0x00, 0xe4, 0x00, 0x00, 0x00, 0x10, 0x27, 0x00, 0x00,
  0x20, 0x27, 0x00, 0x00, 0xa8, 0x2c, 0x00, 0x00, 0x03, 0x00, 0x00, 0x00,
  0x01, 0x00, 0x00, 0x00, 0x04, 0x00, 0x00, 0x00, 0xa2, 0xd8, 0xff, 0xff,
  0x0c, 0x00, 0x00, 0x00, 0x1c, 0x00, 0x00, 0x00, 0x3c, 0x00, 0x00, 0x00,
  0x0f, 0x00, 0x00, 0x00, 0x73, 0x65, 0x72, 0x76, 0x69, 0x6e, 0x67, 0x5f,
  0x64, 0x65, 0x66, 0x61, 0x75, 0x6c, 0x74, 0x00, 0x01, 0x00, 0x00, 0x00,
  0x04, 0x00, 0x00, 0x00, 0x90, 0xff, 0xff, 0xff, 0x0a, 0x00, 0x00, 0x00,
  0x04, 0x00, 0x00, 0x00, 0x08, 0x00, 0x00, 0x00, 0x6f, 0x75, 0x74, 0x70,
  0x75, 0x74, 0x5f, 0x30, 0x00, 0x00, 0x00, 0x00, 0x01, 0x00, 0x00, 0x00,
  0x04, 0x00, 0x00, 0x00, 0xf2, 0xd9, 0xff, 0xff, 0x04, 0x00, 0x00, 0x00,
  0x0e, 0x00, 0x00, 0x00, 0x6b, 0x65, 0x72, 0x61, 0x73, 0x5f, 0x74, 0x65,
  0x6e, 0x73, 0x6f, 0x72, 0x5f, 0x34, 0x00, 0x00, 0x02, 0x00, 0x00, 0x00,
  0x34, 0x00, 0x00, 0x00, 0x04, 0x00, 0x00, 0x00, 0xdc, 0xff, 0xff, 0xff,
  0x0d, 0x00, 0x00, 0x00, 0x04, 0x00, 0x00, 0x00, 0x13, 0x00, 0x00, 0x00,
  0x43, 0x4f, 0x4e, 0x56, 0x45, 0x52, 0x53, 0x49, 0x4f, 0x4e, 0x5f, 0x4d,
  0x45, 0x54, 0x41, 0x44, 0x41, 0x54, 0x41, 0x00, 0x08, 0x00, 0x0c, 0x00,
  0x08, 0x00, 0x04, 0x00, 0x08, 0x00, 0x00, 0x00, 0x0c, 0x00, 0x00, 0x00,
  0x04, 0x00, 0x00, 0x00, 0x13, 0x00, 0x00, 0x00, 0x6d, 0x69, 0x6e, 0x5f,
  0x72, 0x75, 0x6e, 0x74, 0x69, 0x6d, 0x65, 0x5f, 0x76, 0x65, 0x72, 0x73,
  0x69, 0x6f, 0x6e, 0x00, 0x0e, 0x00, 0x00, 0x00, 0x28, 0x26, 0x00, 0x00,
  0x20, 0x26, 0x00, 0x00, 0x90, 0x25, 0x00, 0x00, 0x78, 0x05, 0x00, 0x00,
  0x64, 0x05, 0x00, 0x00, 0xd4, 0x04, 0x00, 0x00, 0xc4, 0x03, 0x00, 0x00,
  0xb4, 0x00, 0x00, 0x00, 0xac, 0x00, 0x00, 0x00, 0xa4, 0x00, 0x00, 0x00,
  0x9c, 0x00, 0x00, 0x00, 0x94, 0x00, 0x00, 0x00, 0x74, 0x00, 0x00, 0x00,
  0x04, 0x00, 0x00, 0x00, 0xa6, 0xda, 0xff, 0xff, 0x04, 0x00, 0x00, 0x00,
  0x60, 0x00, 0x00, 0x00, 0x10, 0x00, 0x00, 0x00, 0x00, 0x00, 0x00, 0x00,
  0x08, 0x00, 0x0e, 0x00, 0x08, 0x00, 0x04, 0x00, 0x08, 0x00, 0x00, 0x00,
  0x10, 0x00, 0x00, 0x00, 0x24, 0x00, 0x00, 0x00, 0x00, 0x00, 0x06, 0x00,
  0x08, 0x00, 0x04, 0x00, 0x06, 0x00, 0x00, 0x00, 0x04, 0x00, 0x00, 0x00,
  0x00, 0x00, 0x00, 0x00, 0x0c, 0x00, 0x18, 0x00, 0x14, 0x00, 0x10, 0x00,
  0x0c, 0x00, 0x04, 0x00, 0x0c, 0x00, 0x00, 0x00, 0x81, 0x33, 0x3b, 0x5b,
  0x48, 0x2c, 0x11, 0x65, 0x02, 0x00, 0x00, 0x00, 0x02, 0x00, 0x00, 0x00,
  0x04, 0x00, 0x00, 0x00, 0x06, 0x00, 0x00, 0x00, 0x32, 0x2e, 0x31, 0x37,
  0x2e, 0x30, 0x00, 0x00, 0x12, 0xdb, 0xff, 0xff, 0x04, 0x00, 0x00, 0x00,
  0x10, 0x00, 0x00, 0x00, 0x31, 0x2e, 0x31, 0x34, 0x2e, 0x30, 0x00, 0x00,
  0x00, 0x00, 0x00, 0x00, 0x00, 0x00, 0x00, 0x00, 0x30, 0xd5, 0xff, 0xff,
  0x34, 0xd5, 0xff, 0xff, 0x38, 0xd5, 0xff, 0xff, 0x3c, 0xd5, 0xff, 0xff,
  0x3e, 0xdb, 0xff, 0xff, 0x04, 0x00, 0x00, 0x00, 0x00, 0x03, 0x00, 0x00,
  0xb2, 0x6e, 0x59, 0x3e, 0x97, 0x69, 0xf9, 0xbe, 0x9f, 0xb8, 0xa8, 0xbe,
  0x03, 0x1f, 0x38, 0xbd, 0x14, 0x2d, 0xb3, 0xbe, 0x11, 0x56, 0x8e, 0x3d,
  0x8f, 0x23, 0x36, 0x3e, 0x9f, 0x6f, 0x19, 0xbd, 0xa6, 0xaa, 0xb9, 0xbe,
  0xc7, 0xf4, 0x29, 0xbe, 0x58, 0xdb, 0xc1, 0x3d, 0x51, 0x26, 0x0c, 0xbe,
  0x66, 0x1c, 0xdb, 0xbd, 0xac, 0x9a, 0x87, 0x3d, 0x9a, 0x42, 0xf8, 0xbd,
  0x22, 0x9c, 0xef, 0xbd, 0x80, 0xe8, 0x09, 0xbd, 0xc0, 0x01, 0xf6, 0x3b,
  0xf1, 0xe5, 0x2f, 0xbd, 0x51, 0xdd, 0x01, 0xbf, 0x73, 0xde, 0xba, 0x3e,
  0xbf, 0x15, 0x1a, 0xbe, 0x9e, 0x94, 0x60, 0xbe, 0x54, 0x16, 0x39, 0x3e,
  0x5c, 0x6f, 0x1e, 0xbe, 0x68, 0xcd, 0x16, 0x3e, 0x24, 0xb0, 0x71, 0x3e,
  0xaf, 0xb1, 0x6c, 0xbd, 0x4b, 0x5b, 0xb4, 0x3c, 0x0d, 0x15, 0xa7, 0x3e,
  0x88, 0xc0, 0xf8, 0xbd, 0x47, 0x65, 0x60, 0xbe, 0xe8, 0x4a, 0xef, 0x3e,
  0x7c, 0xe9, 0x66, 0xbe, 0xfc, 0xca, 0x97, 0x3d, 0x08, 0xf7, 0x1a, 0x3e,
  0x4e, 0x18, 0x01, 0xbe, 0xbc, 0x1a, 0x6a, 0x3e, 0xfb, 0x19, 0xfc, 0x3e,
  0xc2, 0xa3, 0x0d, 0xbd, 0x86, 0x02, 0x6f, 0x3d, 0x9d, 0x33, 0x00, 0x3f,
  0x42, 0xe0, 0x8e, 0xbe, 0x02, 0xc8, 0x6a, 0xbe, 0xf0, 0x13, 0x40, 0x3d,
  0x84, 0xed, 0x67, 0xbe, 0x60, 0xb3, 0x5d, 0x3c, 0xa0, 0x60, 0x24, 0x3d,
  0x03, 0xd3, 0x1d, 0x3e, 0x71, 0x30, 0x21, 0xbe, 0x74, 0xe8, 0x8a, 0xbe,
  0x04, 0x21, 0x19, 0xbe, 0x34, 0xf2, 0x93, 0x3e, 0x3e, 0x5b, 0x3e, 0x3e,
  0xba, 0x5e, 0xda, 0xbd, 0x73, 0x76, 0xb5, 0xbf, 0xab, 0x78, 0x7c, 0x3e,
  0x81, 0x8f, 0x3c, 0x3e, 0x3e, 0x37, 0x6b, 0xba, 0xd8, 0xb8, 0xa4, 0xbe,
  0x3b, 0xd6, 0x8b, 0xbe, 0x10, 0x0d, 0x29, 0xbe, 0x10, 0x39, 0x9b, 0x3d,
  0x10, 0xdd, 0x94, 0xbd, 0x2e, 0x9d, 0x42, 0xbe, 0x00, 0x6d, 0xa0, 0x3d,
  0x08, 0xaf, 0xc3, 0xbd, 0x5c, 0x56, 0x70, 0xbe, 0x86, 0x1a, 0x52, 0xbe,
  0x48, 0xdd, 0xe0, 0xbd, 0xec, 0x02, 0x54, 0xbe, 0x1c, 0xbd, 0x59, 0xbe,
  0x66, 0x33, 0x44, 0xbe, 0x58, 0xd9, 0x66, 0xbd, 0x7c, 0x79, 0x43, 0xbe,
  0x90, 0x63, 0x4c, 0xbe, 0x8c, 0xb6, 0xba, 0x3d, 0x39, 0x7c, 0x04, 0x3f,
  0x6c, 0x27, 0x2f, 0x3d, 0x51, 0xf1, 0x06, 0xbf, 0x9b, 0x2a, 0x9c, 0xbd,
  0xe4, 0x43, 0x0a, 0xbd, 0xe8, 0x6b, 0x0e, 0x3d, 0x3b, 0xe2, 0x6a, 0x3e,
  0x5b, 0x9e, 0xbc, 0xbd, 0x0e, 0xde, 0x48, 0x3e, 0x3a, 0xde, 0xa9, 0x3e,
  0x8c, 0xd4, 0x5e, 0xbd, 0xa8, 0x1a, 0x41, 0x3e, 0x92, 0xf3, 0x4b, 0xbe,
  0x90, 0x78, 0x13, 0x3e, 0x11, 0x7a, 0xf7, 0x3d, 0xcd, 0xff, 0xa6, 0xbe,
  0xe4, 0xcf, 0x84, 0xbd, 0x37, 0xf2, 0x15, 0xbe, 0xc0, 0xfe, 0xf1, 0x3e,
  0xb9, 0x81, 0x99, 0x3e, 0x91, 0x22, 0x4f, 0x3d, 0x05, 0x3c, 0xd0, 0xbe,
  0xa9, 0xa9, 0x80, 0x3e, 0x66, 0x24, 0x77, 0x3e, 0x26, 0x9a, 0xc5, 0xbe,
  0x52, 0xa7, 0x3e, 0x3e, 0xb2, 0xe2, 0x0e, 0xbf, 0x23, 0x44, 0x91, 0xbe,
  0xda, 0x20, 0x1f, 0xbd, 0xa1, 0x39, 0x5e, 0xbe, 0xbc, 0x4f, 0xb4, 0x3e,
  0x47, 0xf4, 0x47, 0xbe, 0x34, 0x80, 0xc3, 0x3d, 0x9a, 0x4a, 0x6a, 0xbe,
  0xd3, 0x6c, 0xb2, 0xbd, 0x08, 0x8d, 0x9f, 0xbe, 0x1b, 0xd3, 0xe9, 0x3e,
  0x8e, 0x6e, 0x00, 0xbd, 0x51, 0xbe, 0x7b, 0xbd, 0xd2, 0x04, 0xad, 0x3e,
  0xde, 0x9f, 0x5e, 0xbd, 0x77, 0xd9, 0x20, 0x3e, 0x10, 0x38, 0x0a, 0x3e,
  0xfc, 0xd3, 0x96, 0x3d, 0x63, 0x3b, 0xb1, 0xbe, 0xac, 0x29, 0x1f, 0x3e,
  0xb2, 0xc6, 0x59, 0x3d, 0xe8, 0x35, 0x4a, 0xbf, 0xc1, 0x54, 0xd4, 0x3d,
  0xec, 0x2d, 0xeb, 0x3b, 0xfc, 0x7c, 0x65, 0x3c, 0x7d, 0x62, 0x2c, 0x3e,
  0x54, 0x02, 0x4d, 0x3e, 0x32, 0x96, 0x0a, 0x3e, 0xd3, 0x6c, 0x62, 0xbe,
  0x2a, 0xa0, 0x6b, 0xbe, 0x00, 0xe8, 0xbc, 0x3c, 0x4e, 0xcb, 0xd4, 0xbd,
  0x9c, 0xc1, 0x9c, 0x3d, 0x9e, 0xe4, 0x47, 0xbf, 0x4e, 0x4d, 0x36, 0x3c,
  0xac, 0xeb, 0x7b, 0xbe, 0xa0, 0xe0, 0x93, 0x3e, 0x9a, 0x27, 0x2e, 0xbe,
  0x66, 0x0f, 0xb5, 0x3d, 0xe2, 0x87, 0x5e, 0x3e, 0x52, 0xcf, 0x4f, 0xbe,
  0xdd, 0x30, 0xb6, 0xbd, 0xe7, 0xda, 0x40, 0xbe, 0x2d, 0x39, 0x07, 0x3f,
  0xbc, 0x01, 0xab, 0xbd, 0xc1, 0x32, 0x13, 0xbe, 0x40, 0x2c, 0xc9, 0xbd,
  0x10, 0x22, 0x86, 0xbc, 0x00, 0x7b, 0x67, 0x3c, 0xf0, 0xf7, 0x44, 0xbd,
  0xa4, 0xe3, 0x86, 0xbd, 0x4c, 0x76, 0x83, 0x3e, 0x80, 0xc3, 0xc0, 0xbb,
  0x35, 0x16, 0x0c, 0x3e, 0xd5, 0x5a, 0xaf, 0xbe, 0xc3, 0xad, 0x70, 0xbe,
  0x51, 0x7b, 0x17, 0xbe, 0xc7, 0x84, 0x05, 0x3e, 0xae, 0xa3, 0x62, 0x3e,
  0x2c, 0x77, 0x55, 0xbe, 0x94, 0xe9, 0x93, 0xbd, 0xb8, 0x9f, 0x2c, 0xbd,
  0x29, 0x1f, 0x38, 0xbd, 0x99, 0x34, 0x26, 0xbe, 0x06, 0xb5, 0x98, 0x3d,
  0x83, 0x3e, 0x70, 0xbe, 0x78, 0x97, 0xf4, 0x3d, 0xa8, 0x1f, 0xf8, 0x3d,
  0xd4, 0x66, 0xa2, 0xbd, 0x8a, 0x21, 0x90, 0xbb, 0x5c, 0xc0, 0x00, 0x3f,
  0xe4, 0x83, 0xf3, 0x3d, 0x56, 0xed, 0xb6, 0xbe, 0xbb, 0x58, 0xef, 0xbd,
  0x05, 0x42, 0x5d, 0x3e, 0xee, 0x3d, 0xfb, 0xbd, 0xcb, 0x94, 0x9c, 0xbe,
  0xfd, 0x58, 0x2e, 0x3e, 0x97, 0x3e, 0x18, 0xbe, 0x96, 0xb5, 0x9c, 0xbe,
  0xd4, 0x3d, 0x76, 0x3e, 0x59, 0x88, 0x7a, 0x3e, 0xca, 0x5d, 0x15, 0xbe,
  0x1d, 0x7c, 0x49, 0x3e, 0x8f, 0x96, 0xba, 0xbd, 0xbe, 0xea, 0x16, 0xbf,
  0x20, 0x2c, 0xc0, 0x3c, 0xde, 0x0c, 0x1c, 0x3e, 0xe2, 0xd1, 0x63, 0xbe,
  0x4a, 0xde, 0xff, 0xff, 0x04, 0x00, 0x00, 0x00, 0x00, 0x01, 0x00, 0x00,
  0x57, 0xd0, 0x8e, 0xbe, 0xa0, 0x3f, 0xcd, 0xbd, 0xc9, 0xd9, 0xcc, 0xbe,
  0x00, 0x00, 0x00, 0x00, 0x00, 0x00, 0x00, 0x00, 0x00, 0x00, 0x00, 0x00,
  0x29, 0xc1, 0x4c, 0x3e, 0x00, 0x00, 0x00, 0x00, 0x00, 0x00, 0x00, 0x00,
  0xe1, 0xb1, 0xaf, 0x3e, 0x4f, 0xda, 0x63, 0x3e, 0x00, 0x00, 0x00, 0x00,
  0x88, 0xc1, 0x86, 0x3e, 0xbe, 0x4d, 0xa2, 0x3e, 0x00, 0x00, 0x00, 0x00,
  0x00, 0x00, 0x00, 0x00, 0x29, 0x29, 0xd6, 0xbe, 0x00, 0x00, 0x00, 0x00,
  0x1c, 0xda, 0x8e, 0x3d, 0x5a, 0x94, 0x93, 0xbe, 0x00, 0x00, 0x00, 0x00,
  0x00, 0x00, 0x00, 0x00, 0x00, 0x00, 0x00, 0x00, 0x00, 0x00, 0x00, 0x00,
  0x00, 0x00, 0x00, 0x00, 0xf8, 0x5a, 0x02, 0x3f, 0xb4, 0x4b, 0xc8, 0xbd,
  0x54, 0x30, 0x01, 0x3e, 0x2a, 0xa9, 0x87, 0x3e, 0x00, 0x00, 0x00, 0x00,
  0x97, 0xb3, 0x9f, 0xbe, 0x8b, 0x34, 0x7f, 0x3e, 0x8b, 0xa2, 0x32, 0xbe,
  0xb7, 0x11, 0x91, 0xbe, 0x6c, 0x3c, 0xbc, 0xbe, 0x51, 0xa3, 0x59, 0x3e,
  0x00, 0x00, 0x00, 0x00, 0x7e, 0xe6, 0xdb, 0x3e, 0x9c, 0x46, 0xb4, 0x3d,
  0xd1, 0x31, 0x46, 0xbd, 0x0b, 0xcd, 0xc1, 0x3c, 0xdc, 0x2f, 0xaa, 0x3d,
  0xca, 0xb5, 0x04, 0xbe, 0xae, 0x43, 0xaf, 0xbe, 0x00, 0x00, 0x00, 0x00,
  0xb2, 0xb3, 0x43, 0xbe, 0x00, 0x00, 0x00, 0x00, 0xd6, 0xf5, 0xcf, 0xbe,
  0x62, 0xaa, 0x98, 0x3e, 0x00, 0x00, 0x00, 0x00, 0x00, 0x00, 0x00, 0x00,
  0x00, 0x00, 0x00, 0x00, 0x7e, 0x6f, 0xd8, 0xbe, 0xa4, 0x4d, 0xaa, 0xbc,
  0x00, 0x00, 0x00, 0x00, 0x70, 0x0d, 0x16, 0x3c, 0x00, 0x00, 0x00, 0x00,
  0x76, 0x06, 0x96, 0x3e, 0xa8, 0xf3, 0x39, 0xbe, 0x9b, 0xf2, 0x8c, 0xbe,
  0x1c, 0x3c, 0x68, 0xbe, 0x65, 0xfa, 0x46, 0xbe, 0xe4, 0x57, 0xdd, 0xbe,
  0x00, 0x00, 0x00, 0x00, 0x56, 0xdf, 0xff, 0xff, 0x04, 0x00, 0x00, 0x00,
  0x80, 0x00, 0x00, 0x00, 0x30, 0xfe, 0xb9, 0xbe, 0xaa, 0xba, 0xa8, 0x3d,
  0x57, 0x12, 0xc9, 0xbc, 0x56, 0x29, 0xf3, 0x3d, 0x00, 0x00, 0x00, 0x00,
  0xc7, 0x34, 0xcd, 0xbc, 0xff, 0xf8, 0xb0, 0xbd, 0xf9, 0x12, 0x72, 0xbd,
  0x0d, 0xf3, 0xc0, 0x3d, 0x01, 0xfb, 0x1a, 0x3d, 0xdf, 0x46, 0x12, 0x3d,
  0x00, 0x00, 0x00, 0x00, 0x55, 0xc3, 0x87, 0x3d, 0x4d, 0x24, 0xa2, 0x3c,
  0x0b, 0x56, 0xb6, 0xbb, 0xe1, 0x63, 0x14, 0xbd, 0xf0, 0x70, 0xdc, 0x3d,
  0x79, 0x8c, 0x2b, 0x3d, 0xfe, 0x09, 0x02, 0xbd, 0x8f, 0x24, 0x0e, 0xbd,
  0xc7, 0xa0, 0x76, 0xbd, 0x00, 0x00, 0x00, 0x00, 0xfb, 0x15, 0x39, 0xbd,
  0xcd, 0xa6, 0x30, 0x3e, 0xd8, 0x8b, 0x01, 0xbe, 0x0b, 0x4c, 0xf5, 0x3c,
  0x92, 0x1d, 0x24, 0xbd, 0x74, 0x98, 0x59, 0xbc, 0x00, 0x00, 0x00, 0x00,
  0xdc, 0xfd, 0x7b, 0xbd, 0xc9, 0xcc, 0xf1, 0xbe, 0xe9, 0x65, 0x93, 0xbd,
  0xe2, 0xdf, 0xff, 0xff, 0x04, 0x00, 0x00, 0x00, 0x04, 0x00, 0x00, 0x00,
  0x8c, 0x99, 0x68, 0xbd, 0xf2, 0xdf, 0xff, 0xff, 0x04, 0x00, 0x00, 0x00,
  0x00, 0x20, 0x00, 0x00, 0x66, 0xb3, 0x30, 0x3e, 0xc1, 0x42, 0xb6, 0xbc,
  0x31, 0x09, 0x4f, 0x3b, 0xa0, 0xce, 0x68, 0xbd, 0x3c, 0xe5, 0x50, 0x3e,
  0x2c, 0x15, 0x70, 0x3e, 0x92, 0x33, 0xf2, 0xbd, 0x2c, 0x45, 0x3e, 0x3e,
  0x40, 0xd6, 0x2e, 0xbc, 0xc5, 0xdd, 0xe3, 0xbe, 0x56, 0xa7, 0x0b, 0xbd,
  0x00, 0xe0, 0xa6, 0x39, 0xe0, 0x97, 0x81, 0xbf, 0xa1, 0x75, 0x98, 0xbe,
  0xc0, 0x4d, 0x7b, 0xbe, 0x28, 0x5e, 0x27, 0x3e, 0x58, 0xcb, 0x49, 0x3e,
  0x00, 0x48, 0xc0, 0xb9, 0x7b, 0x05, 0x10, 0x3e, 0x1d, 0x91, 0x6b, 0x3e,
  0x60, 0x13, 0x98, 0xbc, 0x74, 0xfb, 0x67, 0xbe, 0x90, 0x4c, 0xf0, 0x3d,
  0xe0, 0x02, 0x7f, 0x3e, 0x20, 0x1b, 0xb8, 0xbc, 0xb3, 0xd7, 0xb7, 0xbd,
  0x21, 0x4a, 0x0e, 0x3e, 0xd4, 0x7c, 0x4a, 0xbe, 0x54, 0x8a, 0xa8, 0xbe,
  0x78, 0x41, 0xfe, 0x3d, 0x18, 0x8c, 0xaf, 0xbd, 0x74, 0x13, 0x7f, 0xbf,
  0xae, 0xd5, 0xae, 0x3e, 0x43, 0xfc, 0xb1, 0xbd, 0xa6, 0x92, 0x24, 0x3e,
  0xff, 0x55, 0xb9, 0xbe, 0xac, 0x32, 0x14, 0xbe, 0x74, 0x46, 0x85, 0xbe,
  0x55, 0x3c, 0x5f, 0xbe, 0xdc, 0x94, 0x1c, 0xbe, 0x3c, 0x55, 0x45, 0xbe,
  0x2c, 0xaf, 0xc1, 0x3d, 0x3b, 0x78, 0xc3, 0xbc, 0x40, 0x5b, 0x6d, 0x3e,
  0xe8, 0xf5, 0x34, 0x3e, 0xd6, 0x0f, 0x6b, 0x3e, 0x7c, 0x20, 0x6d, 0xbe,
  0x03, 0xad, 0x9d, 0x3d, 0x6a, 0x42, 0x14, 0xbf, 0x58, 0xc8, 0xe7, 0x3d,
  0xec, 0x04, 0x30, 0xbe, 0xf0, 0xfc, 0x29, 0xbd, 0x70, 0x1d, 0x2f, 0x3e,
  0x04, 0xc9, 0x7c, 0x3e, 0xa0, 0x79, 0xd1, 0x3d, 0x24, 0xec, 0xee, 0x3c,
  0xc0, 0x44, 0x17, 0xbd, 0x55, 0x8e, 0x35, 0xbf, 0x58, 0x29, 0x83, 0x3e,
  0xb7, 0xb2, 0x9d, 0xbd, 0xd7, 0x4c, 0x18, 0x3e, 0x49, 0x2b, 0x31, 0xbe,
  0xe9, 0x21, 0xb9, 0x3e, 0xf8, 0x1a, 0x78, 0xbe, 0x4f, 0x50, 0xc0, 0x3e,
  0x4e, 0x8f, 0xc3, 0x3d, 0x18, 0x24, 0xee, 0xbd, 0xa0, 0x07, 0x92, 0x3c,
  0xdc, 0xce, 0x50, 0x3e, 0x50, 0xdb, 0x46, 0xbe, 0xbc, 0xd9, 0x06, 0x3f,
  0xc0, 0xf4, 0x66, 0x3e, 0x58, 0x24, 0xd9, 0xbd, 0x96, 0x4d, 0x98, 0xbe,
  0xce, 0xf4, 0x86, 0xbe, 0xe0, 0xb2, 0x0e, 0xbd, 0x2e, 0x47, 0xdc, 0xbe,
  0x26, 0x3a, 0xd7, 0x3d, 0x30, 0x73, 0x0e, 0xbd, 0x10, 0x43, 0x01, 0xbe,
  0x81, 0xe0, 0xdb, 0x3d, 0x04, 0x11, 0x30, 0x3e, 0x93, 0x3c, 0x88, 0xbf,
  0xfc, 0xdd, 0x0f, 0xbe, 0xcc, 0x2e, 0x21, 0x3e, 0x98, 0xcc, 0x34, 0xbe,
  0x88, 0x5b, 0x39, 0xbe, 0xac, 0x77, 0x1d, 0xbe, 0x88, 0x5b, 0xe8, 0x3d,
  0xd8, 0xb0, 0x4d, 0xbf, 0xfa, 0x70, 0x9a, 0x3e, 0x1d, 0x05, 0x41, 0xbe,
  0xd1, 0x41, 0x7b, 0xbe, 0x40, 0x3f, 0x58, 0x3e, 0x0b, 0x55, 0x24, 0x3e,
  0x5a, 0x0f, 0xce, 0xbd, 0x14, 0xf7, 0xbb, 0xbb, 0xf7, 0x48, 0x26, 0xbd,
  0x86, 0xf8, 0xac, 0x3e, 0x46, 0x17, 0x41, 0x3d, 0xb0, 0x3e, 0xab, 0x3d,
  0x54, 0xbf, 0x96, 0x3e, 0x15, 0xdb, 0x58, 0x3e, 0x78, 0x75, 0x90, 0xbd,
  0x2d, 0xb2, 0x32, 0x3d, 0xc7, 0x61, 0xf8, 0x3d, 0x1c, 0x6f, 0x25, 0x3e,
  0xb9, 0x7a, 0x78, 0x3e, 0x28, 0xe6, 0x75, 0xbe, 0x26, 0xef, 0x92, 0xbd,
  0x50, 0xc9, 0x0f, 0xbe, 0x63, 0xcd, 0xae, 0x3d, 0xb2, 0x9f, 0x30, 0x3e,
  0x98, 0x6d, 0xea, 0xbd, 0xc4, 0x2f, 0x1c, 0xbe, 0xc0, 0x83, 0xe6, 0xbd,
  0x41, 0x40, 0xca, 0x3e, 0x0e, 0xca, 0xad, 0x3c, 0xd4, 0x35, 0x2a, 0x3e,
  0x59, 0x43, 0xb4, 0x3d, 0x30, 0x62, 0x37, 0x3e, 0x07, 0x2b, 0x94, 0xbe,
  0xb7, 0x74, 0x0d, 0x3e, 0x11, 0xa5, 0x93, 0x3e, 0xb7, 0x62, 0xd4, 0x3a,
  0x9e, 0xf8, 0x3b, 0xbd, 0x52, 0x0c, 0xe9, 0x3e, 0xb0, 0x4e, 0xa6, 0xbd,
  0xdb, 0xfd, 0xe2, 0x3d, 0xb1, 0xe8, 0x2e, 0x3d, 0x12, 0x79, 0x04, 0x3e,
  0xb8, 0x5c, 0xf5, 0xbd, 0x50, 0x6b, 0x15, 0xbe, 0xf4, 0x2d, 0x18, 0xbe,
  0x50, 0xda, 0x19, 0x3d, 0x00, 0x14, 0x4d, 0xba, 0xa8, 0x4d, 0xcb, 0xbd,
  0xe5, 0x34, 0x89, 0xbe, 0x78, 0x62, 0xd4, 0xbd, 0x50, 0xd8, 0xc1, 0x3d,
  0x11, 0x66, 0x57, 0x3e, 0xdd, 0x2c, 0x4c, 0xbe, 0x00, 0x9f, 0x1d, 0x3c,
  0xec, 0x71, 0x29, 0xbe, 0x57, 0xdd, 0x6a, 0xbe, 0x78, 0x68, 0x01, 0x3e,
  0x70, 0x6a, 0x72, 0x3d, 0x63, 0x67, 0xec, 0xbd, 0x20, 0x8c, 0x89, 0x3d,
  0xa8, 0x59, 0x0c, 0x3e, 0xc0, 0x5f, 0x7b, 0x3d, 0x78, 0xde, 0x4d, 0xbe,
  0xf4, 0x73, 0x6e, 0xbe, 0xd0, 0x94, 0x41, 0x3d, 0x26, 0x5b, 0x3c, 0xbe,
  0xdb, 0xb7, 0xb0, 0xbd, 0x40, 0x20, 0x57, 0xbe, 0xe4, 0x31, 0x6f, 0xbe,
  0x5a, 0x11, 0x4e, 0x3e, 0xc8, 0xec, 0x2c, 0xbe, 0xef, 0xff, 0x72, 0xbd,
  0x2e, 0xe2, 0xc2, 0xbd, 0xb8, 0x94, 0x77, 0xbe, 0x30, 0x86, 0x3a, 0xbe,
  0xc0, 0xa7, 0xd1, 0xbd, 0x00, 0xc8, 0x52, 0xbe, 0x53, 0x99, 0xcd, 0xbd,
  0xc9, 0x1f, 0x83, 0xbe, 0xcb, 0x99, 0x2b, 0xbe, 0x34, 0x2f, 0x53, 0xbe,
  0x37, 0x40, 0x29, 0xbe, 0xc9, 0x93, 0xf7, 0x3d, 0x10, 0x24, 0x4e, 0x3d,
  0xdf, 0x89, 0x69, 0xbe, 0xa0, 0xce, 0xc1, 0xbc, 0x81, 0x2f, 0x7e, 0xbd,
  0x56, 0x35, 0xfb, 0x3d, 0x10, 0xb9, 0x76, 0x3d, 0x00, 0x21, 0x5f, 0xbc,
  0xe8, 0x58, 0x99, 0xbd, 0x5d, 0xdd, 0xa7, 0x3d, 0x70, 0xe2, 0x9e, 0x3d,
  0x88, 0x91, 0x0f, 0x3e, 0xae, 0xd3, 0x41, 0x3e, 0x88, 0x36, 0x5e, 0xbe,
  0x48, 0x1a, 0x16, 0x3e, 0x54, 0x10, 0x2b, 0x3e, 0x55, 0x4e, 0x45, 0xbe,
  0x8a, 0xda, 0x37, 0x3e, 0x9e, 0x09, 0x0a, 0x3d, 0x90, 0x79, 0x24, 0x3e,
  0x60, 0x0b, 0x62, 0xbd, 0x1b, 0x73, 0x0c, 0xbf, 0xd0, 0x2f, 0x26, 0x3e,
  0xa9, 0x41, 0x41, 0xc0, 0xe8, 0x6d, 0xce, 0x3d, 0x98, 0x4b, 0xe8, 0x3d,
  0x88, 0x2e, 0x07, 0x3e, 0x07, 0xeb, 0xf6, 0x3d, 0xf0, 0xb7, 0xfe, 0x3d,
  0xc8, 0x3b, 0xa9, 0x3d, 0xc1, 0xc0, 0xd0, 0x3e, 0xe0, 0xf7, 0xfc, 0x3d,
  0xc0, 0xd1, 0xb2, 0x3c, 0xc1, 0x46, 0x89, 0xbd, 0xe0, 0x09, 0xaf, 0x3e,
  0x58, 0xf4, 0x49, 0x3e, 0x88, 0xcf, 0xd5, 0x3d, 0x38, 0x6c, 0x96, 0xbe,
  0xcc, 0xe7, 0x50, 0x3e, 0x59, 0xc8, 0x09, 0xbe, 0x0d, 0xe0, 0xd6, 0xbd,
  0x58, 0x1d, 0x50, 0x3e, 0x48, 0xb1, 0x75, 0xbe, 0x60, 0xbd, 0x75, 0xbd,
  0x80, 0xef, 0xc6, 0xbc, 0x68, 0x9d, 0xa2, 0xbd, 0x07, 0xb4, 0xec, 0x3e,
  0x6f, 0x61, 0x25, 0x3e, 0x38, 0x78, 0xda, 0x3d, 0x01, 0x4b, 0xbf, 0x3d,
  0x38, 0xc9, 0x4a, 0xbe, 0xfd, 0x98, 0xf8, 0xbf, 0xb3, 0xf4, 0x32, 0x3d,
  0xdf, 0x6f, 0x46, 0xbe, 0x83, 0x97, 0xee, 0x3c, 0x7e, 0x17, 0xf1, 0xbe,
  0xb0, 0xcc, 0x8b, 0x3e, 0x10, 0x05, 0x59, 0x3e, 0x28, 0xb4, 0x0b, 0x3e,
  0x59, 0x0f, 0x05, 0x3e, 0xec, 0xcc, 0x23, 0x3e, 0x8f, 0xcc, 0x78, 0x3d,
  0x2a, 0xa2, 0xd2, 0xbd, 0xe1, 0xca, 0x1c, 0x3e, 0x7b, 0xe9, 0xbe, 0xbd,
  0x84, 0x21, 0x0b, 0x3e, 0xc5, 0xbe, 0x46, 0xbe, 0x60, 0xe1, 0xc1, 0xbc,
  0x63, 0x58, 0x83, 0xbe, 0x32, 0xb5, 0x99, 0x3d, 0x40, 0x69, 0x63, 0xbe,
  0xc0, 0x22, 0x7a, 0xbe, 0xb0, 0xdf, 0x3d, 0xbd, 0xfb, 0xc0, 0x90, 0xbe,
  0x2d, 0x63, 0xc1, 0x3d, 0x7c, 0x8d, 0x4a, 0x3e, 0xa8, 0x49, 0x96, 0x3e,
  0x18, 0xa0, 0xea, 0x3d, 0xef, 0xaf, 0x71, 0x3e, 0x94, 0x17, 0x47, 0x3e,
  0xcf, 0x62, 0x3c, 0xbe, 0x89, 0x6f, 0x34, 0xbf, 0xc0, 0x73, 0xeb, 0x3c,
  0x53, 0x0d, 0x6f, 0x3e, 0x10, 0xab, 0xe7, 0xbd, 0x18, 0x28, 0x51, 0xbe,
  0xd0, 0xbb, 0x1a, 0x3e, 0x90, 0x91, 0x19, 0x3d, 0xf8, 0xfd, 0x40, 0xbe,
  0xd0, 0xbc, 0x1b, 0xbe, 0x3c, 0x21, 0x3e, 0x3e, 0x70, 0xe7, 0x04, 0x3d,
  0x80, 0x18, 0xdf, 0x3c, 0xe8, 0xc0, 0x8d, 0x3d, 0x74, 0x94, 0x65, 0xbe,
  0x40, 0xb6, 0xfa, 0xbc, 0xdc, 0x8d, 0x6a, 0x3e, 0xb8, 0xd6, 0x0d, 0x3e,
  0xa8, 0x94, 0xd5, 0xbd, 0x28, 0xcd, 0xda, 0x3d, 0x40, 0x08, 0x60, 0x3d,
  0x7c, 0xa8, 0x29, 0x3e, 0x00, 0x63, 0x6e, 0x3d, 0x90, 0xb2, 0x11, 0xbd,
  0x14, 0xce, 0x5f, 0x3e, 0xe0, 0xd5, 0x5f, 0xbe, 0x10, 0xac, 0x4d, 0xbe,
  0xc0, 0xab, 0x03, 0xbd, 0x08, 0xcd, 0xe5, 0xbd, 0x8c, 0x15, 0x2a, 0x3e,
  0xe8, 0x37, 0xd5, 0xbd, 0x00, 0xff, 0x50, 0xbb, 0xc0, 0x81, 0xeb, 0x3c,
  0x10, 0x0c, 0x2c, 0xbe, 0x30, 0x13, 0x0f, 0x3d, 0xdc, 0x39, 0x54, 0xbe,
  0x50, 0x1f, 0x4a, 0xbe, 0x60, 0xee, 0xf6, 0x3c, 0x4c, 0x6b, 0x06, 0x3e,
  0xa8, 0xb5, 0xca, 0xbd, 0xe0, 0xe1, 0x10, 0xbe, 0xc4, 0x63, 0x03, 0xbe,
  0x00, 0x58, 0x27, 0xbb, 0x18, 0x58, 0xe6, 0x3d, 0xe0, 0x43, 0xa9, 0x3d,
  0x58, 0x2e, 0xc1, 0x3d, 0xc4, 0xee, 0x34, 0x3e, 0x64, 0x09, 0x48, 0x3e,
  0xb0, 0x08, 0xe9, 0xbd, 0xf0, 0x0c, 0xfd, 0xbd, 0x00, 0x21, 0x9a, 0xbc,
  0xe0, 0x3d, 0x96, 0xbd, 0x04, 0x60, 0x29, 0xbe, 0x98, 0xd7, 0xab, 0x3d,
  0x40, 0x49, 0x78, 0xbc, 0x00, 0x25, 0x20, 0xbd, 0x88, 0xc6, 0xf0, 0xbd,
  0x80, 0xc2, 0xbb, 0xbd, 0x3c, 0xe6, 0x36, 0xbe, 0x28, 0xd7, 0x3a, 0x3e,
  0x18, 0xc6, 0xca, 0xbd, 0x20, 0xd5, 0x2c, 0xbd, 0x28, 0xc8, 0x6d, 0xbe,
  0x64, 0x02, 0x21, 0xbe, 0xb8, 0xfc, 0xe2, 0xbd, 0x60, 0x36, 0x96, 0x3d,
  0x20, 0xfd, 0x5b, 0xbe, 0x70, 0xf1, 0x3c, 0xbd, 0x18, 0x98, 0x7c, 0xbe,
  0x75, 0xa7, 0x80, 0xbe, 0xd2, 0xe1, 0x58, 0x3e, 0x11, 0x44, 0x86, 0xbe,
  0x80, 0x12, 0x17, 0xbd, 0xc0, 0x20, 0xb5, 0x3d, 0x08, 0x47, 0xad, 0xbd,
  0xd9, 0x29, 0xee, 0x3d, 0xb8, 0xd3, 0x71, 0xbe, 0xe8, 0x86, 0xdf, 0x3d,
  0x13, 0x94, 0xa2, 0x3d, 0x94, 0x23, 0x65, 0xbe, 0x40, 0x64, 0x27, 0x3e,
  0x1a, 0x42, 0x27, 0xbd, 0xc6, 0xe0, 0x26, 0xbc, 0x00, 0xc6, 0xba, 0xbd,
  0x3c, 0xaf, 0x44, 0xbe, 0x61, 0x24, 0x42, 0x3e, 0xb8, 0x79, 0xfb, 0x3d,
  0x86, 0xae, 0x0b, 0xbe, 0x28, 0x4b, 0x2a, 0xbe, 0x90, 0xae, 0x95, 0x3d,
  0x40, 0x13, 0x84, 0x3c, 0x74, 0x24, 0x54, 0x3e, 0x10, 0xf4, 0x3c, 0x3e,
  0x28, 0x35, 0x92, 0x3d, 0xfe, 0x76, 0x0a, 0xbe, 0xcb, 0xc4, 0xda, 0xbd,
  0x81, 0xc9, 0x62, 0x3e, 0xed, 0x90, 0xb3, 0xbd, 0xfc, 0xb0, 0x18, 0xbe,
  0x13, 0x5b, 0xd4, 0xbd, 0x1e, 0xd5, 0x40, 0x3a, 0x4c, 0xe0, 0xd8, 0x3c,
  0x66, 0x35, 0xa2, 0x3d, 0xc5, 0x01, 0x1a, 0x3e, 0x5b, 0xd3, 0x7a, 0x3d,
  0x50, 0xfa, 0x23, 0x3e, 0xcd, 0x3e, 0x8b, 0x3d, 0x25, 0x1a, 0xe2, 0x3a,
  0xdf, 0x5a, 0x49, 0xbe, 0x0f, 0x98, 0x76, 0xbe, 0x90, 0xd5, 0xea, 0xbd,
  0x34, 0x80, 0x41, 0xbe, 0xea, 0xf7, 0x13, 0xbe, 0xb8, 0x55, 0x9a, 0xbd,
  0x6e, 0x97, 0xb1, 0xbd, 0x48, 0xe9, 0x2f, 0xbe, 0x35, 0x60, 0xc8, 0xbd,
  0xb9, 0x9e, 0xd6, 0xbd, 0x60, 0xe6, 0x96, 0x3d, 0x8c, 0xc3, 0x76, 0xbe,
  0xf8, 0x64, 0xc9, 0xbd, 0xaf, 0xba, 0x63, 0x3d, 0x68, 0xf6, 0x99, 0x3d,
  0x90, 0x05, 0xfa, 0x3d, 0x48, 0x5f, 0xd7, 0x3d, 0xb8, 0xac, 0x55, 0xbe,
  0x82, 0x32, 0xf5, 0xbd, 0xd9, 0x53, 0x1d, 0xbd, 0xe8, 0xde, 0x9e, 0x3b,
  0xeb, 0x10, 0x29, 0xbe, 0x1b, 0x20, 0x12, 0x3e, 0xe7, 0xc3, 0x56, 0x3e,
  0xb8, 0x02, 0xce, 0xbd, 0xe5, 0xdd, 0xa4, 0x3c, 0xe7, 0x9f, 0xe7, 0x3d,
  0x39, 0xba, 0x9a, 0x3e, 0xf0, 0xbf, 0xc1, 0xbd, 0xb0, 0x55, 0x12, 0x3e,
  0xd0, 0x42, 0x74, 0x3e, 0xe0, 0xd5, 0x3f, 0xbf, 0x64, 0xac, 0x21, 0xbe,
  0x8c, 0x31, 0x47, 0xbe, 0xca, 0x28, 0x01, 0xbe, 0x5a, 0x48, 0xba, 0x3c,
  0x28, 0x51, 0x2e, 0xbe, 0xce, 0x4d, 0x46, 0xbe, 0x5d, 0x62, 0xc3, 0xbd,
  0x68, 0xbc, 0x29, 0x3e, 0x9c, 0x4d, 0x45, 0xbe, 0xbb, 0x8d, 0xed, 0x3d,
  0xe0, 0x49, 0xf1, 0x3d, 0x85, 0x8d, 0x21, 0xbe, 0xc7, 0xdd, 0x6d, 0xbd,
  0xe0, 0x87, 0x05, 0xbe, 0x70, 0x67, 0x20, 0xbe, 0x40, 0x78, 0x35, 0x3c,
  0x50, 0x69, 0x41, 0x3e, 0x20, 0x6f, 0x88, 0x3c, 0x43, 0x41, 0xb0, 0xc0,
  0x41, 0x76, 0x44, 0xbe, 0xd4, 0xca, 0x89, 0x3d, 0x3c, 0xd4, 0x5d, 0xbe,
  0x60, 0xf7, 0x95, 0xbd, 0xf4, 0xde, 0x81, 0x3e, 0x67, 0x1c, 0xe7, 0x3c,
  0x9f, 0x2e, 0xb0, 0x3e, 0xb9, 0x76, 0x89, 0x3e, 0xf5, 0x33, 0x4d, 0x3e,
  0x73, 0x2d, 0x43, 0xbe, 0x20, 0xc6, 0xad, 0x3c, 0x32, 0xba, 0x55, 0xbf,
  0xd6, 0xa7, 0x6f, 0x3e, 0x40, 0xd0, 0x9e, 0x3d, 0xee, 0x75, 0x38, 0x3d,
  0xf3, 0x7a, 0x10, 0xbe, 0x57, 0x2c, 0x1a, 0x3e, 0xf8, 0xc9, 0xc2, 0x3e,
  0x44, 0x1e, 0x3e, 0xbe, 0xa1, 0x66, 0x6b, 0xbd, 0x88, 0x4e, 0xcc, 0x3d,
  0xbb, 0x7d, 0x3f, 0x3e, 0x00, 0xf2, 0x39, 0xbe, 0xa8, 0x65, 0xaa, 0x3d,
  0x40, 0x00, 0x2a, 0xbe, 0x20, 0xd7, 0xbb, 0x3c, 0xb6, 0x17, 0x93, 0x3e,
  0xac, 0x02, 0x3c, 0xbe, 0xe4, 0x5a, 0x38, 0x3e, 0x58, 0x6f, 0xfa, 0x3d,
  0x64, 0x7a, 0x55, 0x3e, 0x01, 0xa9, 0x89, 0xbe, 0x21, 0x15, 0x92, 0x3d,
  0x88, 0x36, 0xb9, 0x3e, 0x5e, 0x50, 0x93, 0x3e, 0xd8, 0xbb, 0xa9, 0x3e,
  0xe4, 0xd7, 0xec, 0xbe, 0xbc, 0x7e, 0x4b, 0xbe, 0x82, 0x4d, 0xcf, 0x3c,
  0x1c, 0xbd, 0x7f, 0xbe, 0x95, 0x80, 0x71, 0x39, 0xd8, 0xea, 0xb4, 0xbd,
  0xe0, 0xd8, 0xf2, 0xbc, 0x20, 0xef, 0x13, 0xbd, 0x06, 0x08, 0xda, 0x3c,
  0x9c, 0x65, 0x1c, 0x3e, 0x30, 0x3e, 0x22, 0xbe, 0x3c, 0x7a, 0x90, 0xbe,
  0x1e, 0x6d, 0xa0, 0xbc, 0xc4, 0x0e, 0x22, 0x3e, 0x06, 0x71, 0xc0, 0xbd,
  0xe6, 0x00, 0x37, 0x3d, 0xc0, 0x7f, 0x16, 0x3d, 0xe8, 0x08, 0x67, 0xbe,
  0xf7, 0x5a, 0x32, 0xbe, 0x44, 0x1e, 0x41, 0x3e, 0x9f, 0x03, 0x5d, 0xbe,
  0x2e, 0xba, 0x84, 0xbe, 0xe0, 0xc5, 0xfc, 0x3d, 0x18, 0x83, 0xb2, 0x3d,
  0x48, 0x9a, 0x57, 0xbe, 0x90, 0xf6, 0x9d, 0xbd, 0x90, 0x0f, 0x10, 0x3d,
  0x64, 0x2a, 0x86, 0xbe, 0xc1, 0x62, 0x3b, 0xbe, 0xec, 0xfc, 0xa2, 0x3c,
  0xe8, 0x70, 0x4f, 0x3d, 0x00, 0x5c, 0x9d, 0x3a, 0x88, 0x5b, 0xc0, 0x3d,
  0x34, 0x3e, 0x3a, 0x3e, 0x21, 0xc3, 0x1e, 0x3e, 0x34, 0xfb, 0x7a, 0xbe,
  0xfe, 0xd9, 0xd9, 0xbc, 0xbb, 0x2d, 0x09, 0x3e, 0x00, 0xd4, 0x4e, 0x3a,
  0x40, 0x43, 0xc2, 0xbd, 0xda, 0x35, 0x15, 0xbe, 0xaf, 0xdc, 0xfc, 0xbb,
  0x5f, 0x29, 0x62, 0xbe, 0x22, 0x30, 0x39, 0x3e, 0xd4, 0x78, 0x2b, 0xbe,
  0x9c, 0x3c, 0x8b, 0xbd, 0x5c, 0xaf, 0x1d, 0x3e, 0xe6, 0x0c, 0x18, 0xbe,
  0x30, 0x9f, 0x0e, 0xbd, 0xce, 0x7d, 0x18, 0x3c, 0x63, 0x87, 0x04, 0xbe,
  0x40, 0xc6, 0x77, 0xbc, 0xcc, 0xfe, 0x61, 0x3e, 0x98, 0xe9, 0x2f, 0x3e,
  0x3d, 0x86, 0x8e, 0xbe, 0x70, 0x83, 0x6d, 0xbd, 0x60, 0xd4, 0x95, 0x3c,
  0x7f, 0x8e, 0x2d, 0xbe, 0x40, 0x06, 0x0c, 0xbe, 0xe7, 0x26, 0xd0, 0x3d,
  0x28, 0xd4, 0x13, 0x3e, 0xb7, 0x78, 0xcf, 0x3d, 0x2e, 0x43, 0x80, 0xbe,
  0xf8, 0xc3, 0x43, 0x3e, 0x30, 0xf2, 0x63, 0xbe, 0x10, 0x2a, 0x74, 0xbe,
  0xc8, 0xd9, 0x2c, 0x3e, 0x10, 0xa3, 0x95, 0x3e, 0xd2, 0x1c, 0xde, 0x3d,
  0x50, 0x62, 0x52, 0xbe, 0x00, 0x62, 0xad, 0xbb, 0x60, 0xe5, 0xf1, 0x3d,
  0x24, 0x58, 0x1f, 0x3f, 0x58, 0x58, 0x0d, 0x3e, 0xa8, 0xd6, 0x4f, 0x3e,
  0x20, 0x82, 0xe5, 0xbd, 0x6f, 0xca, 0x14, 0xbf, 0x0c, 0xce, 0x58, 0x3e,
  0x7c, 0x77, 0xe5, 0xbe, 0x67, 0x99, 0x03, 0x3c, 0x60, 0xc2, 0xe4, 0x3c,
  0xd0, 0xcb, 0x58, 0x3d, 0x9d, 0x57, 0x9f, 0x3e, 0x60, 0xcc, 0x51, 0x3d,
  0x02, 0x51, 0x3f, 0xbf, 0x00, 0x56, 0x64, 0x3d, 0xd0, 0xb8, 0x15, 0x3d,
  0x68, 0x50, 0xa3, 0x3d, 0xb0, 0x71, 0xdc, 0xbd, 0xc0, 0x74, 0xcc, 0x3c,
  0x60, 0xf2, 0x14, 0x3d, 0x5f, 0x75, 0x3a, 0xbf, 0xca, 0xde, 0x33, 0x3e,
  0x9c, 0x29, 0x47, 0x3e, 0xaa, 0xfa, 0x19, 0xbe, 0x74, 0x25, 0x44, 0xbe,
  0xcf, 0x5b, 0x28, 0xbd, 0x37, 0x12, 0x61, 0x3d, 0x81, 0x9a, 0xcb, 0x3d,
  0x92, 0xbd, 0x18, 0x3e, 0x0a, 0x24, 0xb3, 0xbd, 0x3b, 0x8a, 0x09, 0x3d,
  0x1c, 0xb3, 0x3f, 0x3e, 0xd5, 0x82, 0xe7, 0x3d, 0xd5, 0x92, 0x42, 0x3e,
  0x2b, 0x98, 0x6a, 0xbc, 0x54, 0x90, 0xdb, 0x3d, 0x15, 0x75, 0x94, 0x3e,
  0xbe, 0x16, 0x2a, 0xbe, 0xbe, 0x02, 0x14, 0x3e, 0x88, 0x79, 0xdd, 0x3d,
  0xe2, 0x28, 0x63, 0x3e, 0xe0, 0x5b, 0xbb, 0xbc, 0x6f, 0xd4, 0x03, 0xbe,
  0xae, 0x96, 0x97, 0xbe, 0x70, 0x10, 0xea, 0x3d, 0xc0, 0x04, 0xc1, 0x3c,
  0x80, 0x9a, 0x74, 0x3e, 0xf1, 0xf1, 0x84, 0x3e, 0x84, 0xaa, 0x34, 0x3e,
  0xc0, 0x8a, 0xdf, 0xbd, 0xdb, 0x5c, 0xb6, 0xbd, 0xf0, 0x98, 0x26, 0x3e,
  0x12, 0x7b, 0x55, 0xbe, 0x07, 0x29, 0xfc, 0x3d, 0x78, 0x5d, 0x83, 0x3e,
  0xf6, 0xd5, 0xab, 0x3e, 0x68, 0xde, 0x45, 0x3e, 0x79, 0x3b, 0x2d, 0x3e,
  0x50, 0x84, 0xb5, 0x3d, 0x5d, 0x77, 0x91, 0xbf, 0xc4, 0x1b, 0xba, 0x3c,
  0x77, 0xf4, 0xb5, 0xbe, 0xe8, 0x6e, 0x21, 0x3e, 0xec, 0xe0, 0x61, 0xbe,
  0xa0, 0xe2, 0xb5, 0xbc, 0x24, 0xa1, 0x66, 0x3e, 0xa0, 0x84, 0x25, 0xbd,
  0x00, 0x14, 0x62, 0xbb, 0xa4, 0xf6, 0xb2, 0x3e, 0x49, 0xcf, 0x06, 0x3f,
  0x30, 0x81, 0x95, 0x3d, 0x57, 0x6e, 0xc3, 0x3e, 0xfb, 0xc7, 0xba, 0xbc,
  0x3c, 0x56, 0x0b, 0x3e, 0x44, 0xe9, 0x1a, 0x3e, 0x51, 0xcd, 0x5b, 0xbf,
  0x98, 0x00, 0xd2, 0xbd, 0xc0, 0xcc, 0xa2, 0x3e, 0x84, 0x27, 0xb4, 0xbf,
  0x40, 0xe6, 0x7e, 0xbc, 0xd0, 0x0d, 0x4d, 0xbe, 0xc8, 0x29, 0x25, 0xbe,
  0x8c, 0xcf, 0x17, 0x3e, 0x58, 0x95, 0x44, 0xbe, 0xae, 0x2b, 0x81, 0x3e,
  0x45, 0x09, 0x3e, 0xbe, 0x48, 0x90, 0xdb, 0xbc, 0x13, 0x85, 0xac, 0x3e,
  0x58, 0x21, 0xaf, 0xbd, 0x92, 0x8a, 0xf5, 0xbe, 0x3f, 0xfc, 0x9f, 0x3e,
  0x83, 0x5a, 0x0e, 0xc0, 0xb5, 0x41, 0x27, 0xbf, 0x89, 0x43, 0x00, 0xbf,
  0xca, 0x30, 0xfd, 0xbd, 0xe8, 0x46, 0x77, 0x3e, 0x08, 0x13, 0x43, 0x3e,
  0xda, 0x60, 0x5f, 0x3d, 0xb8, 0x50, 0x52, 0x3d, 0x62, 0xf2, 0x55, 0xbe,
  0x8e, 0xdd, 0xc6, 0xbd, 0xa9, 0x2e, 0x61, 0xbe, 0x14, 0x4b, 0xf0, 0xbe,
  0x94, 0x0a, 0x3d, 0xbe, 0x74, 0xc3, 0x16, 0xbe, 0x50, 0xdf, 0x61, 0x3d,
  0xb2, 0xc8, 0xcb, 0xbd, 0xf8, 0xe5, 0x4e, 0x3d, 0xec, 0xf7, 0x48, 0xbe,
  0x60, 0x1b, 0x63, 0x3e, 0x10, 0x55, 0x3b, 0x3d, 0xfc, 0x2e, 0xd5, 0xbe,
  0x2f, 0x60, 0x4f, 0x3e, 0x48, 0xaa, 0x36, 0xbe, 0x45, 0x64, 0xcb, 0x3d,
  0xbc, 0xcc, 0x42, 0x3e, 0xbd, 0x8c, 0x0e, 0x3d, 0xaf, 0x94, 0xa7, 0xbe,
  0x2d, 0x02, 0x30, 0xbf, 0x03, 0x1c, 0x9d, 0xbd, 0x40, 0x30, 0xca, 0xbe,
  0xb7, 0xa9, 0x4c, 0x3e, 0x20, 0x46, 0x44, 0x3d, 0xe0, 0x3f, 0xd9, 0x3d,
  0x36, 0x0d, 0x10, 0x3e, 0x55, 0xd8, 0x0c, 0xbf, 0xf0, 0x4c, 0x2c, 0x3e,
  0xf8, 0x57, 0x71, 0xbe, 0x74, 0x3d, 0x56, 0xbe, 0x2e, 0x9c, 0xb6, 0x3e,
  0xfc, 0x72, 0x53, 0x3e, 0xa0, 0x11, 0x39, 0xbe, 0x8f, 0x46, 0x82, 0x3e,
  0x2e, 0x4e, 0x8e, 0x3c, 0x5c, 0x1a, 0x45, 0xbe, 0x0a, 0xc8, 0x63, 0x3e,
  0x4b, 0xf2, 0xe7, 0x3d, 0x60, 0x0a, 0x93, 0x3c, 0xb8, 0xbf, 0x3a, 0xbe,
  0x05, 0xbd, 0x8a, 0xbc, 0xe4, 0xef, 0x14, 0xbe, 0xbb, 0x60, 0xb2, 0xbe,
  0xf3, 0xda, 0x18, 0xbd, 0x38, 0xe7, 0x99, 0xbd, 0x84, 0x60, 0x3f, 0x3e,
  0x20, 0x5c, 0xec, 0xbd, 0x68, 0x2f, 0x50, 0xbe, 0x80, 0x54, 0xe2, 0x3c,
  0x0d, 0xe9, 0x58, 0xbe, 0x71, 0xa1, 0x8c, 0x3e, 0x9a, 0xa5, 0x4e, 0x3e,
  0x39, 0x9c, 0x53, 0x3e, 0xf0, 0x8d, 0x4b, 0x3e, 0xec, 0x16, 0xcf, 0xbd,
  0xd1, 0xfb, 0xcc, 0xbd, 0x80, 0x56, 0x0d, 0x3e, 0x07, 0x35, 0x19, 0xbe,
  0xda, 0x4e, 0x5d, 0x3d, 0xe2, 0x7b, 0x85, 0x3e, 0x48, 0x5d, 0x76, 0x3e,
  0x44, 0x05, 0xf2, 0x3e, 0x20, 0x88, 0x41, 0x3e, 0xa3, 0xdb, 0x7d, 0xbd,
  0x20, 0x11, 0x7a, 0x3e, 0xa2, 0xdc, 0x83, 0x3e, 0xe9, 0xef, 0x2f, 0xbe,
  0x7d, 0x9f, 0x33, 0xbe, 0x00, 0xf2, 0x40, 0x3d, 0x0b, 0x2a, 0x7a, 0x3e,
  0xdc, 0xc9, 0x78, 0x3e, 0x0b, 0x41, 0x97, 0x3d, 0x8e, 0x23, 0x69, 0x3e,
  0x10, 0xb6, 0x19, 0x3d, 0x48, 0xd1, 0x57, 0xbe, 0x58, 0x4c, 0x6e, 0xbe,
  0x3b, 0x31, 0x36, 0x3d, 0x95, 0xfc, 0xa1, 0xbc, 0x90, 0x26, 0x32, 0x3e,
  0xf0, 0x52, 0x14, 0xbe, 0x88, 0x79, 0x4d, 0xbe, 0xfe, 0x46, 0x17, 0xbe,
  0xe4, 0xb1, 0x68, 0x3d, 0x6c, 0xe4, 0xc9, 0xbc, 0x42, 0x49, 0x73, 0x3e,
  0x84, 0xdb, 0xf2, 0xbd, 0xfe, 0x3b, 0xae, 0xc0, 0xa4, 0x48, 0x3a, 0x3e,
  0xfc, 0x5f, 0x0e, 0xbe, 0x20, 0x6b, 0x72, 0x3e, 0x54, 0x97, 0x49, 0x3e,
  0xf8, 0x5f, 0x83, 0x3d, 0x78, 0xf2, 0x8f, 0x3d, 0x28, 0xa0, 0xb9, 0x3d,
  0x38, 0xb0, 0x1c, 0x3e, 0x68, 0x62, 0xcb, 0xbd, 0x04, 0x86, 0x28, 0x3e,
  0x30, 0x02, 0x94, 0x3d, 0x38, 0xc3, 0x2d, 0x3e, 0x00, 0xe9, 0x07, 0xbb,
  0x00, 0x50, 0x14, 0x3c, 0x00, 0x07, 0xb8, 0xbc, 0xf8, 0xda, 0x16, 0xbe,
  0xb8, 0xcd, 0x82, 0xbd, 0xa0, 0xb6, 0x21, 0xbd, 0x30, 0x02, 0x59, 0xbe,
  0xa0, 0x55, 0x6f, 0xbd, 0x98, 0x30, 0x03, 0xbe, 0xc8, 0x2a, 0xd4, 0x3d,
  0x80, 0x5e, 0xa7, 0xbc, 0x20, 0xaa, 0xff, 0x3d, 0x00, 0x79, 0xc2, 0xbd,
  0xa0, 0x03, 0x68, 0x3e, 0xa0, 0x52, 0x49, 0x3e, 0xc8, 0xc7, 0x67, 0xbe,
  0x34, 0x8d, 0x55, 0xbe, 0x60, 0xa1, 0xa9, 0xbc, 0xc0, 0x56, 0x2b, 0xbc,
  0xc0, 0x08, 0x74, 0xbc, 0x58, 0xd8, 0xb0, 0xbd, 0x00, 0xe5, 0x97, 0xbb,
  0x90, 0x88, 0x59, 0x3d, 0xdc, 0x49, 0x04, 0x3e, 0xc0, 0x2f, 0x6d, 0x3d,
  0x20, 0xca, 0xd5, 0x3c, 0xb8, 0xc9, 0x5c, 0xbe, 0xf4, 0x34, 0x56, 0x3e,
  0xc0, 0x1d, 0x76, 0x3c, 0x00, 0xec, 0x17, 0xbe, 0xd0, 0xdf, 0x36, 0xbd,
  0xf0, 0x37, 0x4f, 0xbe, 0x28, 0x4c, 0x08, 0xbe, 0x90, 0x7a, 0x45, 0xbe,
  0xe8, 0x6a, 0x11, 0x3e, 0xdc, 0x62, 0x04, 0xbe, 0x58, 0xcf, 0x4e, 0xbe,
  0xe8, 0x1f, 0x1b, 0xbe, 0x30, 0xb3, 0x51, 0x3e, 0x1c, 0x03, 0x46, 0xbe,
  0x90, 0x4e, 0x9e, 0xbd, 0x50, 0xa0, 0x61, 0x3e, 0xd0, 0x28, 0x0b, 0xbe,
  0x90, 0x54, 0x81, 0xbd, 0xd0, 0xce, 0x44, 0xbd, 0x24, 0xda, 0x01, 0xbe,
  0xfc, 0x02, 0x70, 0xbe, 0x80, 0x9d, 0x4b, 0x3d, 0x20, 0x39, 0x61, 0xbe,
  0x00, 0xba, 0xc9, 0xbd, 0x78, 0x3a, 0x40, 0x3e, 0xe8, 0x93, 0xbf, 0xbd,
  0xb8, 0xb7, 0xdc, 0xbd, 0xfa, 0x98, 0x67, 0x3d, 0x48, 0xc7, 0x6c, 0x3e,
  0xfb, 0x69, 0x3b, 0xbe, 0x30, 0xe4, 0xd6, 0x3d, 0x3c, 0xa2, 0x25, 0x3e,
  0xa8, 0x93, 0xb0, 0xbd, 0x75, 0x5b, 0xa2, 0x3b, 0x68, 0x9c, 0xa1, 0x3d,
  0x70, 0xec, 0x06, 0xbd, 0x3c, 0x8d, 0x9f, 0x3d, 0x7c, 0x80, 0xb3, 0xbe,
  0xd8, 0x34, 0xf1, 0x3d, 0x4a, 0x3f, 0x2b, 0xbe, 0xf1, 0x8b, 0x44, 0xbe,
  0x68, 0x30, 0xde, 0x3d, 0xe0, 0x92, 0xbb, 0xbc, 0xbe, 0x14, 0x4b, 0x3d,
  0x50, 0x32, 0xc4, 0x3d, 0x0b, 0xd1, 0x64, 0x3e, 0xb2, 0x1e, 0x46, 0xbe,
  0x44, 0xbe, 0x54, 0xbe, 0xe0, 0x5f, 0xce, 0x3d, 0xa0, 0x44, 0x0a, 0xbd,
  0x18, 0x1c, 0x0a, 0x3e, 0x70, 0x34, 0x54, 0x3d, 0x4b, 0x58, 0x62, 0x3e,
  0x68, 0xf3, 0x8b, 0x3e, 0x68, 0x04, 0x23, 0x3e, 0x03, 0x44, 0x4c, 0x3c,
  0x08, 0x74, 0x37, 0x3e, 0x5f, 0x48, 0x55, 0x3e, 0x54, 0xc7, 0x3f, 0x3d,
  0x05, 0xa5, 0x42, 0xbd, 0x0a, 0x69, 0x09, 0xbe, 0x7d, 0xec, 0xe6, 0x3d,
  0x7f, 0x31, 0x87, 0xbd, 0xe0, 0x6c, 0x21, 0x3e, 0x59, 0x8e, 0xa5, 0x3e,
  0x5f, 0x44, 0x4d, 0x3e, 0x10, 0xdc, 0x2a, 0xbe, 0x49, 0xfe, 0x21, 0x3c,
  0x0f, 0x8e, 0x27, 0x3e, 0x36, 0x65, 0xe7, 0x3d, 0x5c, 0x17, 0x85, 0xbe,
  0x14, 0x0d, 0x50, 0xbe, 0x33, 0x9f, 0x48, 0x3e, 0xa0, 0x50, 0xfd, 0xbc,
  0x5c, 0x19, 0x64, 0xbe, 0x38, 0x1a, 0x18, 0xbe, 0xc0, 0x01, 0x75, 0x3d,
  0x28, 0x61, 0xce, 0xbd, 0x00, 0x19, 0x42, 0xbc, 0x95, 0x98, 0x31, 0x3e,
  0x00, 0xeb, 0x80, 0x3e, 0xdc, 0x4f, 0x36, 0xbe, 0xff, 0x4e, 0xfd, 0x3d,
  0xc0, 0x8e, 0x89, 0x3c, 0xe6, 0xf9, 0x3e, 0xbe, 0xff, 0xc7, 0x3f, 0x3e,
  0x01, 0xc5, 0x72, 0x3d, 0xe2, 0x20, 0x28, 0xbd, 0xac, 0x43, 0xb9, 0xbc,
  0x8d, 0x51, 0xcf, 0x3e, 0xa8, 0xdf, 0x87, 0xbd, 0xd9, 0x6a, 0x82, 0x3e,
  0x9a, 0x15, 0xc5, 0x3d, 0x46, 0x5a, 0x8e, 0xbe, 0xc0, 0x2c, 0x11, 0xbe,
  0x90, 0x8b, 0xae, 0x3d, 0xf0, 0xbc, 0xe0, 0xbd, 0xb6, 0x02, 0xa2, 0x3e,
  0xa8, 0xfd, 0x81, 0x3d, 0x80, 0xe6, 0x9f, 0xbb, 0x4c, 0x51, 0x8b, 0x3e,
  0xcb, 0x3e, 0x9a, 0x3e, 0xc0, 0xd6, 0x08, 0x3c, 0x5a, 0x3d, 0x54, 0xbe,
  0xb0, 0x11, 0x7c, 0x3e, 0xb8, 0x65, 0xfb, 0xbd, 0x7c, 0xa2, 0x2b, 0xbe,
  0x50, 0x4b, 0x73, 0xbb, 0x50, 0xe0, 0x58, 0xbd, 0x48, 0xb2, 0x73, 0xbe,
  0xb5, 0x02, 0xdc, 0xbd, 0x20, 0x0f, 0x35, 0xbd, 0x4c, 0x7d, 0x3e, 0x3e,
  0xc8, 0x2e, 0x34, 0x3e, 0xb0, 0x3e, 0x52, 0x3e, 0x00, 0xd3, 0x68, 0xbb,
  0xb2, 0x98, 0xcb, 0xbc, 0x5d, 0x7f, 0x22, 0x3d, 0x81, 0x99, 0x93, 0x3d,
  0xe8, 0xba, 0x9e, 0xbd, 0x20, 0xf7, 0xb9, 0xbc, 0xf4, 0x21, 0x31, 0xbe,
  0x7a, 0x17, 0x4b, 0x3c, 0x03, 0x0b, 0x64, 0xbd, 0xbb, 0xaa, 0x5d, 0xbe,
  0xc0, 0x0d, 0x92, 0x3d, 0xfa, 0xf0, 0x31, 0x3e, 0xa0, 0x96, 0x1d, 0x3d,
  0x8c, 0x1d, 0x22, 0x3e, 0x42, 0x8e, 0x3f, 0x3e, 0x45, 0xdc, 0x02, 0xbe,
  0x26, 0xa2, 0x54, 0x3e, 0x3a, 0xb3, 0x6b, 0x3e, 0x97, 0xac, 0x1a, 0x3e,
  0xf1, 0xa9, 0xaa, 0xbd, 0x08, 0x24, 0x0d, 0x3e, 0xdd, 0x34, 0x29, 0x3e,
  0xb4, 0x21, 0x07, 0xbe, 0xdc, 0xf9, 0x87, 0xbe, 0x44, 0xbd, 0x5f, 0x3e,
  0xc0, 0xa3, 0xd5, 0xbd, 0xbc, 0x78, 0x64, 0x3e, 0x70, 0x16, 0x55, 0x3e,
  0x6a, 0x85, 0x15, 0x3e, 0x56, 0xba, 0x68, 0xbe, 0xc8, 0x9e, 0xaa, 0xbd,
  0x25, 0x57, 0x6b, 0xbc, 0x80, 0x13, 0x83, 0x3b, 0x2d, 0x7a, 0x59, 0x3e,
  0x89, 0xa6, 0xc6, 0x3d, 0x64, 0xe1, 0x71, 0x3d, 0x5b, 0xf5, 0x8a, 0xbe,
  0xc3, 0x82, 0x16, 0xbd, 0x8a, 0x4b, 0x90, 0xc0, 0x40, 0xe9, 0x2e, 0x3d,
  0x1d, 0xb7, 0xb6, 0xbd, 0x12, 0x50, 0xeb, 0x3d, 0x4e, 0x3a, 0x05, 0x3e,
  0xa4, 0x6d, 0x36, 0xbe, 0x90, 0x09, 0x8e, 0x3d, 0x50, 0xa3, 0xef, 0x3d,
  0x54, 0xef, 0x19, 0x3e, 0xa4, 0xdb, 0x64, 0xbe, 0x40, 0xb8, 0x0d, 0x3e,
  0xb1, 0x13, 0x98, 0x3d, 0xf1, 0x07, 0x89, 0xbd, 0xf8, 0x44, 0xd3, 0xbd,
  0xb7, 0xb9, 0xf2, 0xbd, 0xd6, 0xbe, 0xea, 0xbd, 0x10, 0x10, 0x50, 0x3e,
  0x1c, 0xf9, 0x16, 0x3e, 0xb5, 0x05, 0x0d, 0x3e, 0x18, 0x37, 0x6e, 0xbe,
  0xc5, 0x18, 0x01, 0x3d, 0xc8, 0xe4, 0xa6, 0x3d, 0xc0, 0x8d, 0x1e, 0x3d,
  0xd8, 0x3c, 0x46, 0xbe, 0x10, 0xce, 0x19, 0x3d, 0xe0, 0xa3, 0x84, 0x3d,
  0xf4, 0xe4, 0x1e, 0xbe, 0xbd, 0x97, 0x3f, 0xbe, 0x06, 0xa5, 0x6e, 0x3e,
  0x7f, 0x63, 0xac, 0xbc, 0xf8, 0x55, 0x33, 0x3e, 0xf4, 0x6b, 0x17, 0x3e,
  0xb1, 0xda, 0x5e, 0x3e, 0xad, 0xad, 0x3b, 0x3e, 0x94, 0x48, 0x9f, 0xbc,
  0x4d, 0xde, 0x99, 0x3d, 0x67, 0x13, 0x8e, 0xbd, 0x61, 0xc9, 0xaf, 0xbd,
  0xd0, 0x2d, 0x4f, 0xbd, 0x0e, 0x08, 0x7e, 0xbe, 0x32, 0xf3, 0x48, 0x3e,
  0x31, 0x0d, 0x16, 0x3d, 0xfe, 0xae, 0x68, 0x3d, 0x16, 0x0d, 0x57, 0xbe,
  0xc0, 0x89, 0x05, 0x3e, 0xbd, 0x84, 0x71, 0xbd, 0xa0, 0xdb, 0x8a, 0xbd,
  0xb1, 0x95, 0x2d, 0x3d, 0x88, 0xcf, 0x2d, 0x3e, 0x9b, 0xac, 0x0b, 0xbe,
  0xb4, 0x1c, 0xd8, 0xbd, 0xb4, 0x21, 0x21, 0xbe, 0xfc, 0xdf, 0x1c, 0x3e,
  0xec, 0x69, 0x2d, 0xbe, 0xd1, 0x96, 0x9b, 0xbd, 0xd0, 0xee, 0x6e, 0x3e,
  0x00, 0x0e, 0x0f, 0x3e, 0x1d, 0x9e, 0xee, 0xbd, 0xe8, 0x82, 0x9f, 0x3d,
  0x30, 0x78, 0x4d, 0xbe, 0x0b, 0xa6, 0x1e, 0xbe, 0xf6, 0x99, 0x29, 0xbc,
  0x83, 0x65, 0x3b, 0xba, 0xe5, 0xce, 0x75, 0xbe, 0xf8, 0x94, 0x43, 0xbe,
  0x00, 0xa8, 0x01, 0x3d, 0x83, 0xcc, 0x03, 0x3e, 0xe4, 0x69, 0x48, 0xbd,
  0x8b, 0x1f, 0x13, 0xbe, 0x00, 0x0d, 0x3e, 0xbe, 0x00, 0xb2, 0x5d, 0xbc,
  0x68, 0x87, 0x72, 0xbe, 0x32, 0xab, 0x8c, 0xbd, 0xd8, 0xe9, 0x59, 0x3e,
  0x9c, 0x24, 0x0d, 0xbe, 0x9e, 0x1c, 0xd1, 0xbd, 0x58, 0x85, 0xa1, 0xbd,
  0x00, 0x22, 0xd6, 0xba, 0xad, 0x32, 0x27, 0x3e, 0x85, 0x75, 0x7a, 0xbe,
  0xf8, 0x40, 0x42, 0x3e, 0x40, 0x2e, 0xca, 0xbd, 0x22, 0xe4, 0xa3, 0x3c,
  0x54, 0xb2, 0x30, 0xbe, 0x6c, 0x1a, 0x83, 0xbc, 0x0f, 0xf5, 0x6d, 0x3c,
  0x50, 0xb5, 0xb3, 0xbd, 0x70, 0xa2, 0x64, 0xbd, 0xa4, 0xd6, 0x3a, 0xbe,
  0x00, 0x34, 0x79, 0xbb, 0x84, 0xd7, 0x0c, 0x3e, 0xdb, 0xc1, 0x5b, 0xbe,
  0xb0, 0x75, 0x65, 0xbe, 0x09, 0xfe, 0xa2, 0xbc, 0x9d, 0x69, 0xea, 0x3d,
  0x1c, 0x68, 0x7e, 0x3e, 0x88, 0x84, 0xed, 0x3d, 0x1b, 0xca, 0x1c, 0x3e,
  0x2c, 0xbe, 0x7a, 0xbe, 0x97, 0x83, 0x92, 0x3d, 0x3f, 0x36, 0xcd, 0x3c,
  0x07, 0x55, 0x7c, 0x3d, 0x18, 0x5a, 0x12, 0x3e, 0x5f, 0x2d, 0xa4, 0x3d,
  0x1b, 0x59, 0x6d, 0xbe, 0x0b, 0xac, 0x2b, 0xbd, 0x21, 0xfa, 0x8b, 0xbd,
  0xf9, 0x14, 0xe3, 0xbd, 0x3d, 0x6e, 0xee, 0x3c, 0x5a, 0xbe, 0x01, 0x3e,
  0x00, 0x44, 0x0e, 0x3b, 0x88, 0x81, 0x4d, 0xbe, 0x80, 0xf6, 0x02, 0x3e,
  0x07, 0xbd, 0x22, 0xbe, 0x8c, 0xa8, 0x6b, 0xbe, 0x40, 0xaa, 0x5e, 0x3d,
  0x90, 0x66, 0xf6, 0xbd, 0x10, 0x2f, 0x0e, 0xbe, 0x6e, 0xdd, 0xd2, 0x3d,
  0xb0, 0xd0, 0x7c, 0xbe, 0xe0, 0x7c, 0xa9, 0x3c, 0x14, 0xea, 0x41, 0xbe,
  0x00, 0xdf, 0x0e, 0xbd, 0x36, 0x2a, 0x7b, 0xbe, 0x00, 0xf0, 0x5e, 0xbc,
  0xeb, 0xb1, 0xd8, 0x3d, 0x09, 0x7c, 0x4a, 0x3e, 0xc5, 0xbd, 0xde, 0x3b,
  0xdf, 0x0e, 0x26, 0xbe, 0x0c, 0x20, 0x13, 0x3e, 0x56, 0xd3, 0xa9, 0x3e,
  0x73, 0xe0, 0x85, 0x3e, 0x7d, 0x76, 0x95, 0x3e, 0x10, 0x52, 0x8b, 0x3d,
  0xb0, 0xc7, 0xe0, 0x3d, 0x74, 0x08, 0x6c, 0x3e, 0x42, 0xc8, 0x83, 0x3e,
  0x78, 0x40, 0x1b, 0x3e, 0xe0, 0x2b, 0x0d, 0xbe, 0x80, 0x78, 0x48, 0xbe,
  0xe9, 0x56, 0x3a, 0xbf, 0xe0, 0x8b, 0xfa, 0xbc, 0x4c, 0x07, 0xac, 0xbe,
  0x5e, 0x27, 0x36, 0x3e, 0x98, 0x4b, 0x93, 0xbd, 0x40, 0x10, 0x7c, 0x3c,
  0x91, 0x7a, 0xe6, 0x3d, 0x00, 0xce, 0x96, 0x3a, 0x4e, 0x43, 0x4b, 0xbf,
  0x66, 0xb0, 0x6c, 0x3d, 0xd0, 0x96, 0x5a, 0xbd, 0x88, 0xd5, 0x19, 0x3e,
  0x14, 0xf5, 0x4b, 0x3e, 0x40, 0xca, 0x42, 0x3e, 0x10, 0x7c, 0x5f, 0x3d,
  0xf5, 0x0a, 0xc8, 0xbf, 0xc4, 0xa8, 0xf8, 0x3e, 0x4b, 0x2a, 0x15, 0xbe,
  0x0e, 0xf5, 0xf9, 0xbe, 0xc0, 0x2f, 0xd7, 0x3d, 0x14, 0x10, 0xf4, 0x3d,
  0x54, 0xd9, 0xa6, 0xbe, 0x82, 0x2b, 0xcc, 0x3e, 0x1f, 0xe6, 0x53, 0x3e,
  0x9e, 0xc3, 0x9c, 0x3e, 0x5f, 0x63, 0x58, 0xbe, 0x1c, 0xaf, 0x36, 0x3e,
  0xc4, 0x82, 0x96, 0x3e, 0xb5, 0xcb, 0xd7, 0x3d, 0x37, 0x2c, 0x9d, 0xbc,
  0x37, 0x24, 0x95, 0x3e, 0xfb, 0xb8, 0x29, 0x3f, 0xe2, 0xfd, 0x6a, 0x3e,
  0x59, 0x19, 0xac, 0x3e, 0x20, 0xae, 0x4d, 0x3e, 0xca, 0xd8, 0x78, 0x3e,
  0x68, 0x09, 0x5a, 0xbe, 0x95, 0x2e, 0x5a, 0x3e, 0x56, 0x64, 0x1f, 0x3d,
  0x94, 0x65, 0x76, 0xbe, 0x38, 0x7e, 0x9d, 0xbd, 0x38, 0xab, 0x62, 0x3e,
  0xc4, 0x76, 0x04, 0x3e, 0x32, 0x5c, 0xce, 0xbb, 0x54, 0x3d, 0x42, 0xbe,
  0x51, 0xe8, 0x0e, 0xbe, 0xa0, 0xdd, 0xc8, 0x3c, 0x42, 0x85, 0x9b, 0x3d,
  0x55, 0x8b, 0x56, 0x3e, 0xcc, 0x2b, 0x84, 0x3e, 0x46, 0xce, 0xd8, 0x3e,
  0xd2, 0x76, 0x05, 0xbe, 0x4d, 0x5c, 0x1e, 0x3e, 0x20, 0x59, 0xfd, 0xbc,
  0xea, 0x49, 0x2b, 0xbf, 0x03, 0xce, 0xa5, 0x3e, 0xbf, 0x9c, 0x1a, 0x3e,
  0x10, 0x6a, 0x72, 0x3d, 0x18, 0x49, 0xb1, 0xbd, 0x40, 0x0c, 0x36, 0xbd,
  0x20, 0x2b, 0xb1, 0xbc, 0x34, 0xa9, 0x1f, 0x3e, 0x80, 0x93, 0x27, 0xbc,
  0x4c, 0x19, 0xe9, 0xbd, 0x33, 0xb9, 0x4e, 0xbe, 0xa0, 0xc1, 0x4b, 0x3d,
  0x8d, 0x59, 0x56, 0x3e, 0xbb, 0x33, 0xb8, 0x3c, 0xb4, 0xdc, 0x20, 0x3e,
  0x18, 0xf1, 0xd4, 0x3d, 0x14, 0xc8, 0xdd, 0xbf, 0xe8, 0x11, 0x79, 0xbe,
  0x9e, 0x22, 0xf0, 0x3e, 0x69, 0x12, 0x65, 0xbf, 0xf8, 0x0f, 0x93, 0xbd,
  0xdc, 0x9a, 0x61, 0x3e, 0x78, 0x7a, 0x9e, 0x3d, 0x08, 0xc7, 0x28, 0x3e,
  0x98, 0xa6, 0x38, 0x3e, 0x30, 0xe2, 0x18, 0x3f, 0x0d, 0xcb, 0x8e, 0x3d,
  0x7a, 0x69, 0xff, 0x3c, 0x2c, 0xc9, 0x76, 0x3e, 0x10, 0x58, 0x72, 0xbd,
  0xd8, 0xb6, 0x13, 0x3e, 0x60, 0x66, 0x5e, 0x3e, 0x36, 0x6a, 0xa8, 0xbe,
  0x75, 0x7e, 0x42, 0xbf, 0xc6, 0x76, 0x56, 0xbf, 0xc2, 0x69, 0x86, 0x3e,
  0x30, 0x33, 0xf2, 0x3d, 0x95, 0x35, 0xd1, 0x3e, 0xfe, 0x57, 0x23, 0xbe,
  0xcf, 0xd2, 0xcf, 0x3d, 0xde, 0x4f, 0x3b, 0xbd, 0xe8, 0x22, 0x4a, 0x3c,
  0xf7, 0xb6, 0x7a, 0xbe, 0xf8, 0xcf, 0x7f, 0xbe, 0x30, 0x33, 0xd2, 0x3d,
  0x3f, 0xac, 0xbb, 0xbd, 0xb0, 0xbf, 0xf8, 0x3d, 0x07, 0x5c, 0x08, 0xbf,
  0xd5, 0x0e, 0x8c, 0x3e, 0x80, 0x31, 0x9e, 0xbc, 0x08, 0x16, 0x82, 0x3d,
  0x10, 0x66, 0x7f, 0x3d, 0x5c, 0x90, 0x37, 0xbf, 0x8a, 0xee, 0x6f, 0xbe,
  0x60, 0x2a, 0xf0, 0x3d, 0xf3, 0x40, 0x7d, 0x3e, 0x20, 0x95, 0x10, 0x3d,
  0xcc, 0xa2, 0xa4, 0x3e, 0xd0, 0x0b, 0xd6, 0xbd, 0x51, 0x51, 0x17, 0xbf,
  0x91, 0x3f, 0xf0, 0xbf, 0x7b, 0x2a, 0x3f, 0xbe, 0xe5, 0x63, 0x8a, 0x3e,
  0x30, 0x86, 0xea, 0x3d, 0x4e, 0x74, 0x5b, 0x3d, 0x56, 0x7e, 0x7b, 0xbd,
  0xcb, 0xf4, 0xc9, 0x3d, 0xe0, 0x22, 0x52, 0xbd, 0x40, 0x52, 0xe7, 0x3c,
  0x00, 0x99, 0x89, 0xbc, 0xaf, 0x66, 0x3e, 0xbe, 0x20, 0x92, 0xa4, 0x3d,
  0x40, 0x8f, 0xf8, 0x3c, 0x81, 0x96, 0xb5, 0x3d, 0x88, 0x42, 0x8c, 0xbd,
  0x68, 0x94, 0x4b, 0xbe, 0x0b, 0xf8, 0xc2, 0x3c, 0x54, 0xb8, 0x2c, 0xbe,
  0xe8, 0xa7, 0xd0, 0x3d, 0x30, 0x34, 0x3b, 0x3d, 0xca, 0x55, 0x0e, 0xbe,
  0x30, 0xee, 0x4b, 0xbd, 0x5a, 0x49, 0x3c, 0xbe, 0xd0, 0xef, 0x6d, 0xbe,
  0x90, 0x14, 0x28, 0xbe, 0x3c, 0x54, 0x49, 0x3e, 0x78, 0xca, 0x5d, 0x3e,
  0x80, 0x36, 0xbe, 0x3d, 0xd4, 0x88, 0x43, 0xbe, 0xe0, 0xe4, 0xa7, 0xbd,
  0x0d, 0x35, 0x85, 0xbe, 0x7f, 0x32, 0x33, 0x3e, 0x89, 0xcb, 0x4d, 0xbe,
  0x30, 0xaa, 0x54, 0xbd, 0x5e, 0x1d, 0x4d, 0xbd, 0x60, 0x6b, 0x3c, 0x3e,
  0xcc, 0x83, 0xa9, 0x3d, 0xa5, 0x1e, 0x23, 0x3d, 0x99, 0x89, 0x39, 0xbd,
  0xad, 0x34, 0x30, 0xbd, 0xd8, 0x1f, 0x33, 0xbe, 0x80, 0xe0, 0xa8, 0xbd,
  0x13, 0xfd, 0x9b, 0xbd, 0x35, 0xc4, 0x37, 0xbd, 0xb3, 0x15, 0x86, 0x3c,
  0x30, 0x5d, 0x15, 0x3d, 0x78, 0x47, 0x59, 0x3e, 0xe8, 0x45, 0x3c, 0x3e,
  0x64, 0xa5, 0x42, 0xbe, 0x5c, 0x9d, 0xfa, 0x3d, 0x4c, 0xcd, 0x4b, 0x3e,
  0xde, 0xf6, 0x70, 0xbe, 0xcf, 0x80, 0x83, 0xbe, 0x00, 0x44, 0xf4, 0x3c,
  0x00, 0x4a, 0x09, 0x3b, 0xf8, 0x20, 0xb1, 0xbd, 0x04, 0xdf, 0x80, 0xbe,
  0xd8, 0x16, 0xeb, 0xbd, 0x34, 0x05, 0x10, 0xbe, 0x81, 0x82, 0xff, 0xbd,
  0x60, 0x39, 0xea, 0xbc, 0xbc, 0x3d, 0x34, 0xbe, 0xce, 0x4d, 0x16, 0x3e,
  0xe7, 0xb6, 0x7e, 0xbd, 0xd1, 0xfd, 0x2a, 0xbe, 0x52, 0x80, 0xb7, 0xbd,
  0x6f, 0x5d, 0x58, 0xbe, 0x00, 0xe4, 0xd7, 0x3d, 0x5f, 0x0c, 0x4b, 0x3c,
  0xd1, 0xa7, 0xa3, 0x3d, 0x60, 0x3d, 0xcd, 0xbd, 0x00, 0xa8, 0x78, 0xbd,
  0x40, 0xee, 0x02, 0x3e, 0xb8, 0x9b, 0x8f, 0x3d, 0xd9, 0x4f, 0xbf, 0xbc,
  0xb0, 0x62, 0xa3, 0x3d, 0xf0, 0x8d, 0xf4, 0x3d, 0xb3, 0x0f, 0x8d, 0xbd,
  0xa2, 0x39, 0x0b, 0x3d, 0x60, 0xcd, 0x83, 0x3c, 0x23, 0x06, 0xe0, 0x3d,
  0x83, 0x59, 0xaa, 0x3d, 0x60, 0xd8, 0x1b, 0x3e, 0x5c, 0x4a, 0x4d, 0xbe,
  0x04, 0x26, 0x07, 0xbe, 0xe0, 0x4f, 0x8a, 0x3d, 0x57, 0x6d, 0x31, 0xbe,
  0xaa, 0xb7, 0xa4, 0x3c, 0xd0, 0x42, 0x60, 0xbd, 0x00, 0xdf, 0xc7, 0x3d,
  0x00, 0x58, 0x90, 0xb9, 0xf0, 0x37, 0x25, 0xbd, 0x80, 0xb3, 0x7b, 0xbe,
  0x93, 0x16, 0x91, 0x3d, 0x5c, 0x93, 0x11, 0x3e, 0xaf, 0xc4, 0x7e, 0xbe,
  0x98, 0x6f, 0x47, 0xbe, 0x88, 0x05, 0x50, 0x3e, 0x00, 0x0e, 0x67, 0x3c,
  0x6c, 0x8f, 0xf4, 0x3b, 0x83, 0xe9, 0x41, 0xbe, 0x0a, 0xd1, 0xad, 0xbd,
  0x32, 0xe3, 0x7d, 0xbe, 0x6f, 0x29, 0x7a, 0xbd, 0xcc, 0x0c, 0x62, 0x3e,
  0x29, 0x40, 0x22, 0xbe, 0x86, 0x9e, 0xaa, 0x3d, 0x90, 0xdd, 0xd7, 0x3b,
  0x92, 0x91, 0x71, 0xbe, 0xff, 0xac, 0x5f, 0x3d, 0x75, 0x00, 0x78, 0xbe,
  0x0e, 0xeb, 0xf4, 0x3c, 0xf0, 0xef, 0xec, 0xbd, 0x28, 0xd5, 0x26, 0xbe,
  0x74, 0xf7, 0x57, 0xbe, 0x90, 0x13, 0x3d, 0xbe, 0xcb, 0x30, 0x86, 0x3b,
  0x8c, 0x47, 0x0c, 0xbe, 0xd8, 0xcb, 0x48, 0xbe, 0x60, 0x85, 0xb2, 0x3d,
  0x20, 0x10, 0x02, 0x3e, 0x94, 0x83, 0x4b, 0x3e, 0xe0, 0x46, 0x6d, 0xbd,
  0x08, 0xd2, 0xc8, 0x3d, 0x30, 0x96, 0x5a, 0x3e, 0xc2, 0xfa, 0x3b, 0x3e,
  0x11, 0x9d, 0x67, 0x3d, 0x75, 0xf3, 0x90, 0xbe, 0x18, 0xa6, 0x1b, 0xbe,
  0xc2, 0xbd, 0x29, 0xbe, 0xa0, 0x4e, 0xf3, 0xbc, 0x64, 0x1f, 0x09, 0x3e,
  0x6c, 0xc5, 0x90, 0xbd, 0x39, 0x67, 0x22, 0xbe, 0x3a, 0x4c, 0xf9, 0xbd,
  0x0c, 0xf6, 0x7a, 0x3e, 0x24, 0xae, 0x20, 0xbe, 0xa8, 0x14, 0x19, 0x3e,
  0x48, 0x7c, 0x54, 0x3e, 0xf0, 0xb0, 0x76, 0xbd, 0x08, 0x3e, 0x70, 0xbe,
  0x13, 0x84, 0xdd, 0xbd, 0xf0, 0xdb, 0x20, 0x3e, 0xa8, 0xd2, 0x8c, 0xbd,
  0x7c, 0xfe, 0x61, 0xbe, 0x3d, 0x76, 0x90, 0xbe, 0x78, 0xfc, 0x7b, 0x3e,
  0xf0, 0xed, 0x34, 0x3e, 0xe1, 0x3d, 0x65, 0x3b, 0x60, 0x24, 0x32, 0x3e,
  0x38, 0x29, 0xa8, 0xbd, 0x69, 0x6f, 0x3a, 0x3b, 0x80, 0x7e, 0x1d, 0x3c,
  0x00, 0x43, 0xf1, 0xbc, 0x24, 0xf7, 0x3e, 0x3e, 0x18, 0x1d, 0x9e, 0xbd,
  0x90, 0x1d, 0x32, 0x3d, 0x2c, 0x63, 0x47, 0x3e, 0xf2, 0x23, 0x68, 0xbe,
  0x86, 0x75, 0x5c, 0xbe, 0x6f, 0xff, 0xd8, 0x3d, 0x98, 0xff, 0x7a, 0xbe,
  0xac, 0x7b, 0x13, 0xbd, 0x82, 0xb8, 0xdb, 0x3d, 0xae, 0xa0, 0x45, 0x3e,
  0x63, 0x6d, 0x0a, 0xbe, 0x47, 0x29, 0xdb, 0x3d, 0x4f, 0x5b, 0x11, 0x3e,
  0x84, 0xc1, 0x08, 0x3e, 0xf8, 0x1b, 0x05, 0x3e, 0xf5, 0x95, 0x92, 0xbe,
  0xc1, 0xfa, 0x91, 0xbe, 0x02, 0xed, 0xdf, 0xbd, 0xb3, 0xa8, 0x44, 0xbe,
  0x4b, 0x07, 0x8e, 0xbe, 0x59, 0x47, 0x6c, 0xbb, 0x44, 0xc9, 0x22, 0xbe,
  0xcf, 0x8d, 0x6b, 0xbe, 0x80, 0x07, 0x82, 0x3c, 0xe0, 0x8e, 0x30, 0x3d,
  0x0b, 0xbd, 0x3c, 0x3e, 0xf8, 0xfd, 0x6d, 0xbe, 0xe4, 0xae, 0x1d, 0x3e,
  0x30, 0xca, 0xec, 0x3d, 0xf9, 0x38, 0x2c, 0x3e, 0x68, 0x11, 0xd8, 0x3d,
  0x50, 0x64, 0x4a, 0xbd, 0xc8, 0xc4, 0x42, 0xbd, 0x40, 0x60, 0xcd, 0x3c,
  0x8f, 0xd4, 0x39, 0xbe, 0x65, 0x69, 0x69, 0x3d, 0xac, 0x08, 0x0c, 0xbe,
  0x0e, 0xb7, 0x50, 0x3d, 0xcd, 0xef, 0x80, 0x3d, 0xe4, 0xab, 0xd5, 0xbd,
  0x88, 0x71, 0x03, 0x3e, 0xa0, 0xb0, 0xf3, 0xbd, 0x40, 0x19, 0xd9, 0xbd,
  0x00, 0xc3, 0x43, 0x3e, 0x40, 0xb3, 0x72, 0x3d, 0xa0, 0xc4, 0xdf, 0xbc,
  0xe4, 0x2e, 0x0a, 0x3e, 0x60, 0x61, 0x61, 0x3d, 0xb8, 0xbc, 0x52, 0xbe,
  0x40, 0xb8, 0x2c, 0xbc, 0x48, 0x6f, 0xf1, 0xbd, 0xe4, 0x19, 0x0f, 0x3e,
  0xd4, 0xb4, 0x78, 0x3e, 0x64, 0x54, 0x28, 0xbe, 0x20, 0xb3, 0x8e, 0x3c,
  0x68, 0xa2, 0xe7, 0x3d, 0xc0, 0x57, 0x1a, 0xbe, 0xbc, 0xdc, 0x6c, 0xbe,
  0x88, 0xe0, 0x9e, 0x3d, 0x00, 0x99, 0xd9, 0x3b, 0xc0, 0x93, 0x71, 0x3e,
  0xe8, 0xb7, 0x74, 0x3e, 0x78, 0xb2, 0x79, 0xbe, 0x40, 0xad, 0xd4, 0x3c,
  0x90, 0xf1, 0xc0, 0xbd, 0xf0, 0x64, 0x93, 0xbd, 0x30, 0x9f, 0xaf, 0x3d,
  0x00, 0x6c, 0x35, 0x3c, 0x00, 0x57, 0xf4, 0x3b, 0xd8, 0x3c, 0xec, 0xbd,
  0x60, 0xac, 0xe6, 0xbd, 0x70, 0xf5, 0x70, 0xbe, 0xf8, 0x75, 0x08, 0x3e,
  0x28, 0xfa, 0x89, 0x3d, 0x98, 0x08, 0xa4, 0xbd, 0xd8, 0x91, 0xa1, 0x3d,
  0x60, 0x8b, 0x77, 0xbe, 0x90, 0x11, 0x79, 0xbd, 0x94, 0xdc, 0x7b, 0xbe,
  0xd0, 0xf7, 0x21, 0xbd, 0x84, 0x42, 0x2a, 0xbe, 0x20, 0x46, 0xb7, 0xbc,
  0xb0, 0x2b, 0xae, 0x3d, 0x48, 0x71, 0xf4, 0xbd, 0xc0, 0x88, 0x3f, 0xbe,
  0xc8, 0x20, 0x1f, 0xbe, 0x90, 0x1b, 0x18, 0x3e, 0x54, 0xf7, 0x78, 0xbe,
  0x58, 0x94, 0x9e, 0xbd, 0x68, 0x7a, 0x41, 0x3e, 0x30, 0xf2, 0x17, 0xbe,
  0xe0, 0x9a, 0x9e, 0xbc, 0x80, 0xae, 0x34, 0xbe, 0xd4, 0x3f, 0x1b, 0xbe,
  0x10, 0xfa, 0x57, 0xbd, 0x74, 0x04, 0x30, 0xbe, 0x28, 0x28, 0xce, 0x3d,
  0x5c, 0x5e, 0x56, 0xbe, 0x80, 0x0e, 0xdb, 0x3c, 0x18, 0x27, 0x37, 0xbe,
  0x2c, 0xe6, 0x53, 0xbe, 0xf8, 0xea, 0x25, 0xbe, 0x18, 0x09, 0x3e, 0x3e,
  0x98, 0x1f, 0x4c, 0x3e, 0x2c, 0x9e, 0x61, 0xbe, 0xf8, 0x5c, 0xb1, 0xbd,
  0xd3, 0xa4, 0x4f, 0xbe, 0x84, 0x51, 0x00, 0x3e, 0x78, 0x76, 0xbc, 0x3d,
  0xe0, 0x3e, 0x93, 0x3c, 0xb8, 0x67, 0xff, 0xbd, 0x43, 0x64, 0x95, 0xbe,
  0x80, 0x03, 0xef, 0xbd, 0x40, 0x0f, 0x0d, 0x3e, 0x64, 0xde, 0x36, 0x3d,
  0x8f, 0xad, 0xde, 0x3d, 0xe0, 0x63, 0x9d, 0x3c, 0x23, 0xaf, 0x0d, 0x3e,
  0x37, 0x44, 0x0d, 0xbd, 0xd0, 0xb7, 0x4c, 0x3e, 0xe8, 0xb4, 0xf0, 0xbd,
  0xeb, 0x7c, 0x3e, 0x3e, 0xec, 0xdd, 0x43, 0x3e, 0xb2, 0x2c, 0x31, 0x3e,
  0x9f, 0x5d, 0xf4, 0xbd, 0x40, 0x85, 0xfe, 0xbd, 0x28, 0x6e, 0xd3, 0x3d,
  0x64, 0x61, 0x28, 0xbe, 0x98, 0x5a, 0x66, 0xbe, 0x10, 0x23, 0x35, 0xbd,
  0x98, 0x4f, 0x95, 0xbe, 0x99, 0x0d, 0x07, 0xbd, 0xa8, 0x1a, 0xcc, 0xbd,
  0x62, 0x11, 0x0b, 0x3d, 0x94, 0x80, 0x26, 0xbe, 0x1d, 0xd4, 0xd2, 0x3d,
  0x17, 0x8e, 0x42, 0xbe, 0x25, 0xb9, 0xfd, 0xbc, 0x85, 0x67, 0xea, 0xbd,
  0xbc, 0x5a, 0xf2, 0x3d, 0xe5, 0x0c, 0xe4, 0xbd, 0x20, 0x3e, 0x22, 0xbd,
  0x18, 0xaf, 0x81, 0xbd, 0x7f, 0x67, 0x38, 0xbe, 0x36, 0xa7, 0x86, 0xbe,
  0x7f, 0xf3, 0x10, 0x3e, 0xff, 0xad, 0x81, 0xbe, 0x2a, 0xc0, 0x0c, 0xbd,
  0xbb, 0xdf, 0xa9, 0xbd, 0x04, 0x94, 0x13, 0xbe, 0xc2, 0xf0, 0xcf, 0xbc,
  0xa0, 0xb3, 0x08, 0xbd, 0x95, 0x6a, 0x7d, 0xbe, 0x84, 0xcd, 0x8c, 0x3a,
  0xb0, 0xdb, 0x77, 0xbd, 0xe8, 0xaf, 0x3e, 0xbe, 0xd8, 0xf4, 0xa1, 0x3d,
  0x1b, 0x33, 0xa5, 0x3d, 0x3e, 0x1d, 0x56, 0xbb, 0x90, 0xdf, 0x39, 0xbe,
  0xa9, 0x70, 0x68, 0x3d, 0x80, 0xde, 0xb4, 0x3d, 0xd0, 0x25, 0xb9, 0x3d,
  0x53, 0xbe, 0x7d, 0xbd, 0xfc, 0xf6, 0x62, 0xbd, 0x67, 0x6b, 0x64, 0xbe,
  0xee, 0x73, 0x39, 0x3e, 0x49, 0x8b, 0x14, 0xbe, 0x7c, 0x29, 0x74, 0x3e,
  0xad, 0x22, 0x0e, 0xbf, 0x70, 0x05, 0x18, 0xbd, 0xfb, 0x6c, 0x70, 0x3e,
  0xd0, 0xea, 0xdb, 0xbd, 0x9c, 0xe7, 0x10, 0x3e, 0x38, 0x82, 0xee, 0x3d,
  0xe7, 0x3c, 0x82, 0x3d, 0xd0, 0xaf, 0xbd, 0x3d, 0x10, 0xef, 0x6f, 0x3d,
  0xe6, 0xa6, 0x10, 0x3f, 0xe8, 0x37, 0xb7, 0x3e, 0x28, 0xe3, 0x71, 0xbe,
  0xe6, 0xa4, 0x08, 0x3f, 0x52, 0xb6, 0x9d, 0x3e, 0x78, 0x65, 0x24, 0x3e,
  0x80, 0x02, 0x1c, 0x3d, 0xe8, 0x40, 0xc9, 0xbe, 0xe0, 0xa1, 0x31, 0xbd,
  0xc8, 0x66, 0xb3, 0x3d, 0x06, 0x1d, 0xdc, 0xbe, 0x00, 0x94, 0xa2, 0xbd,
  0xd0, 0xb6, 0xde, 0xbd, 0x40, 0xc0, 0x20, 0x3e, 0x18, 0xa6, 0x67, 0x3e,
  0x90, 0x2e, 0x1f, 0xbd, 0x21, 0x16, 0xcc, 0x3e, 0xf2, 0x1e, 0x96, 0xbe,
  0x17, 0x83, 0x8d, 0x3e, 0x58, 0x6d, 0xbb, 0x3e, 0x38, 0x36, 0xad, 0xbd,
  0x83, 0x11, 0x5d, 0xbc, 0x81, 0x14, 0xca, 0x3e, 0x41, 0x9b, 0xc5, 0xbe,
  0x22, 0x99, 0x68, 0xbe, 0x4b, 0xbd, 0x73, 0xbe, 0x79, 0xa6, 0x9a, 0x3e,
  0x40, 0x13, 0x0f, 0x3d, 0xcf, 0x7c, 0x65, 0x3e, 0xff, 0x09, 0xb5, 0x3e,
  0xbe, 0x09, 0xc1, 0x3d, 0x5e, 0x16, 0xee, 0xbd, 0xa5, 0x8a, 0x56, 0xbe,
  0xb9, 0x6f, 0x54, 0x3e, 0xec, 0xe3, 0x85, 0xbe, 0x40, 0x17, 0x69, 0x3d,
  0x5f, 0xed, 0x07, 0x3c, 0x00, 0x26, 0x2d, 0x3e, 0x89, 0xa6, 0xc6, 0xbd,
  0xff, 0xee, 0xbd, 0x3e, 0xf0, 0xb5, 0x36, 0x3e, 0x80, 0x9c, 0x3a, 0x3c,
  0x30, 0x0e, 0xe6, 0xbd, 0xb6, 0x41, 0x23, 0xbe, 0xc5, 0xe8, 0x20, 0xbe,
  0xf0, 0x99, 0xd4, 0x3d, 0xf2, 0x38, 0x4c, 0x3e, 0xd8, 0x72, 0x8e, 0x3d,
  0xc6, 0xd5, 0x99, 0x3e, 0xb7, 0x31, 0x02, 0xbe, 0xdf, 0xfd, 0x9c, 0xbe,
  0x88, 0x6d, 0x77, 0xbf, 0xb5, 0xa1, 0x3b, 0xbe, 0x2f, 0x2d, 0x72, 0xbc,
  0x6c, 0x38, 0x1b, 0x3e, 0x30, 0x3e, 0x58, 0x3c, 0x89, 0x92, 0x4d, 0xbe,
  0x79, 0xf2, 0x5d, 0xbd, 0xb0, 0x70, 0x24, 0xbe, 0x50, 0x49, 0xc1, 0xbd,
  0xf0, 0x8d, 0xca, 0xbd, 0x8a, 0x35, 0xb7, 0x3d, 0x30, 0xbe, 0x09, 0x3e,
  0x38, 0x4a, 0x1f, 0x3e, 0xe2, 0xf2, 0x0d, 0xbc, 0x91, 0x5c, 0x83, 0x3d,
  0xd0, 0x67, 0xa6, 0x3d, 0x86, 0x10, 0xbd, 0x3d, 0xb4, 0x83, 0x6d, 0xbc,
  0x18, 0xe3, 0x63, 0xbe, 0x74, 0x3c, 0x2a, 0x3e, 0xe0, 0x7e, 0x23, 0x3e,
  0xec, 0x2a, 0x6c, 0x3e, 0x4e, 0x7f, 0xcf, 0xbd, 0x6f, 0xc1, 0x4f, 0xbd,
  0xd4, 0x9f, 0x18, 0x3e, 0x40, 0xbf, 0x54, 0xbd, 0xd0, 0x9b, 0x53, 0x3e,
  0x00, 0xbc, 0xff, 0x3d, 0x60, 0x78, 0x72, 0xbe, 0x0f, 0xb9, 0x54, 0xbe,
  0x4a, 0x17, 0x20, 0x3e, 0x65, 0x7d, 0x69, 0xbe, 0x0c, 0x40, 0xfa, 0x3d,
  0x10, 0x0f, 0xed, 0xbd, 0xdc, 0x36, 0x55, 0xbd, 0xc7, 0xa5, 0xbd, 0xbc,
  0xa3, 0xd2, 0x31, 0x3e, 0x7e, 0x1e, 0x32, 0xbe, 0x9d, 0xe8, 0x13, 0x3e,
  0x81, 0x4b, 0x86, 0x3d, 0x80, 0x68, 0x64, 0xbe, 0x30, 0x7b, 0x96, 0xbd,
  0xdb, 0x6b, 0xb9, 0x3d, 0x6d, 0x2d, 0x53, 0xbd, 0x59, 0x9f, 0x49, 0xbe,
  0xd0, 0x69, 0x31, 0x3b, 0xb6, 0xb7, 0xa0, 0x3d, 0x9c, 0x94, 0x86, 0x3d,
  0xc8, 0xb5, 0xd6, 0xbd, 0x89, 0x2f, 0xe1, 0xbc, 0xc8, 0x1f, 0x64, 0xbe,
  0x59, 0x71, 0x01, 0xbe, 0x07, 0x42, 0x30, 0xbd, 0x9c, 0x5e, 0x47, 0xbe,
  0x10, 0x33, 0xbd, 0xbd, 0xf4, 0x02, 0x17, 0x3e, 0xec, 0x48, 0xa2, 0xbe,
  0xc6, 0xf2, 0x51, 0xbe, 0x78, 0x97, 0xb3, 0x3d, 0xb3, 0x16, 0x58, 0x3e,
  0xf8, 0xe3, 0xbc, 0x3d, 0x3b, 0x80, 0x98, 0xbe, 0x80, 0x97, 0xd5, 0x3c,
  0x0d, 0x74, 0x3e, 0x3e, 0x75, 0x6e, 0x53, 0xbe, 0xef, 0x33, 0xd2, 0xbd,
  0xa6, 0x19, 0x80, 0xbf, 0xf0, 0xb1, 0x4a, 0x3d, 0x02, 0x9e, 0xd0, 0xbc,
  0xaf, 0x71, 0xa6, 0xbd, 0x2b, 0x8d, 0xb9, 0x3e, 0x10, 0x6e, 0xca, 0xbd,
  0x88, 0x80, 0x19, 0x3e, 0x00, 0x26, 0xc5, 0xbc, 0xdc, 0x48, 0x99, 0xbe,
  0x30, 0xd0, 0x32, 0x3d, 0x68, 0x83, 0xb6, 0xbd, 0x1d, 0xcc, 0x11, 0xbf,
  0x53, 0x21, 0x8c, 0xbd, 0x04, 0xe5, 0x68, 0x3e, 0xe8, 0x73, 0x0d, 0xbf,
  0x51, 0x60, 0x3e, 0xbe, 0x28, 0x56, 0xc8, 0xbd, 0x58, 0x8b, 0xec, 0xbd,
  0xcd, 0xb0, 0x18, 0x3e, 0xa4, 0xb2, 0x33, 0x3e, 0x5b, 0x5c, 0xaf, 0x3e,
  0x0f, 0x05, 0x34, 0x3e, 0x4c, 0xb3, 0x2c, 0x3e, 0x88, 0xf4, 0xb2, 0x3d,
  0x28, 0x40, 0xaf, 0x3d, 0x20, 0xe3, 0xf3, 0xbd, 0x74, 0xdb, 0x34, 0x3e,
  0x8c, 0xc0, 0x8d, 0x3e, 0x03, 0x1a, 0xdf, 0x3c, 0x5b, 0x56, 0x13, 0xbe,
  0xd8, 0x7a, 0xb5, 0xbe, 0x80, 0xa8, 0x52, 0x3e, 0x06, 0x08, 0x32, 0x3c,
  0x2b, 0x41, 0x68, 0xbe, 0xbb, 0xe8, 0xf0, 0x3d, 0x31, 0x7b, 0x86, 0xbd,
  0xfd, 0x2f, 0xf6, 0xbd, 0x80, 0x2f, 0x97, 0xbe, 0x00, 0xa8, 0x38, 0x3e,
  0x62, 0x7d, 0x62, 0xbd, 0x96, 0xdf, 0x89, 0xbe, 0x40, 0x47, 0xca, 0xbb,
  0x6b, 0xfe, 0x57, 0x3d, 0x6b, 0x0c, 0x07, 0x3e, 0x7e, 0x94, 0x2d, 0xbd,
  0x5f, 0x47, 0x52, 0xbe, 0xd8, 0xec, 0x65, 0xbe, 0xa5, 0x5e, 0x51, 0x3c,
  0x14, 0xdc, 0x6c, 0xbe, 0x43, 0x9a, 0x21, 0x3e, 0x49, 0x25, 0xca, 0xbe,
  0xd0, 0x60, 0x46, 0x3e, 0x28, 0xc3, 0x97, 0x3d, 0xf0, 0xc2, 0x68, 0xbe,
  0x84, 0x65, 0x7f, 0xbd, 0x54, 0xe5, 0x58, 0xbe, 0x2c, 0x89, 0x01, 0xbe,
  0x7a, 0x30, 0x14, 0x3e, 0x9c, 0x1a, 0x68, 0xbe, 0x01, 0x3a, 0xc2, 0xbe,
  0x3e, 0xee, 0x00, 0xbe, 0x7d, 0xd2, 0x16, 0x3e, 0x06, 0x55, 0xf1, 0xbd,
  0x30, 0xcb, 0x79, 0x3e, 0xb7, 0x27, 0x32, 0x3f, 0x88, 0x3d, 0x0a, 0xbe,
  0x40, 0xa1, 0x87, 0xbe, 0xae, 0x20, 0x65, 0xbe, 0xc8, 0xe3, 0x84, 0x3d,
  0x40, 0xcc, 0xe5, 0xbd, 0x30, 0xda, 0x83, 0x3d, 0x88, 0xa1, 0xa5, 0x3d,
  0x47, 0x79, 0xbe, 0x3d, 0x54, 0x94, 0x7a, 0x3e, 0x70, 0xb1, 0x04, 0x3e,
  0xf1, 0x55, 0xbc, 0xbc, 0x47, 0xe1, 0x83, 0xbe, 0xc0, 0xbe, 0x9a, 0x3c,
  0xad, 0x1d, 0x0d, 0x3e, 0xa0, 0xe4, 0x71, 0x3c, 0x58, 0xab, 0xd7, 0x3d,
  0xa8, 0x6d, 0xd7, 0xbd, 0xd2, 0xf5, 0x6d, 0xbe, 0x78, 0x5f, 0x7e, 0x3e,
  0xfa, 0xf1, 0x5f, 0x3d, 0x62, 0x9f, 0x84, 0x3d, 0xd8, 0x59, 0xbe, 0xbd,
  0x10, 0xac, 0xf5, 0xbd, 0x90, 0x63, 0x63, 0x3d, 0x74, 0xd1, 0x6c, 0xbe,
  0xd8, 0xa1, 0x73, 0x3e, 0xcb, 0xd2, 0x3f, 0x3e, 0xc0, 0xd2, 0x57, 0xbc,
  0x29, 0xb4, 0x43, 0x3e, 0x48, 0xa1, 0x4a, 0xbe, 0x40, 0x11, 0xce, 0x3c,
  0xb0, 0x77, 0x05, 0xbd, 0xe2, 0x43, 0x31, 0xbe, 0xe0, 0x40, 0x5c, 0xbe,
  0x62, 0x19, 0x16, 0xbe, 0x6d, 0x73, 0xb0, 0xbd, 0xe0, 0x9f, 0x09, 0x3e,
  0x88, 0x71, 0x03, 0x3e, 0x27, 0x6f, 0x0a, 0xbe, 0xd4, 0xcd, 0x24, 0x3c,
  0xd3, 0xd1, 0x0a, 0xbe, 0xdd, 0xa0, 0x70, 0x3c, 0x56, 0x48, 0x36, 0x3e,
  0x11, 0x92, 0x82, 0xbe, 0xa0, 0xfa, 0xe4, 0x3d, 0xb0, 0xfa, 0x13, 0xbe,
  0x74, 0x18, 0x66, 0xbe, 0x70, 0x50, 0x45, 0xbe, 0x30, 0x4c, 0x17, 0xbd,
  0xa0, 0xae, 0xba, 0x3d, 0x4c, 0x3c, 0x2b, 0x3e, 0x30, 0x9c, 0x9d, 0xbd,
  0x10, 0xc9, 0xbb, 0x3d, 0xb8, 0xe8, 0xd3, 0xbd, 0x88, 0x1a, 0x77, 0x3e,
  0xc0, 0x3c, 0x8d, 0xbc, 0xf0, 0xd5, 0x7f, 0x3e, 0x90, 0xb6, 0x75, 0xbe,
  0x7b, 0x86, 0x92, 0xbe, 0x8a, 0x63, 0x3a, 0x3d, 0x88, 0x6c, 0x1c, 0x3e,
  0xa0, 0xf2, 0x00, 0xbe, 0x4a, 0x55, 0x6b, 0xbe, 0xb0, 0x10, 0xf5, 0xbd,
  0x00, 0x24, 0xb7, 0x3a, 0x5b, 0xa4, 0x4f, 0xbe, 0x87, 0xf2, 0x2b, 0x3e,
  0xbf, 0x73, 0x76, 0x3d, 0x28, 0x38, 0x7c, 0xbe, 0x78, 0xab, 0x38, 0x3e,
  0x28, 0xef, 0xd2, 0xbd, 0x3c, 0xfd, 0xe1, 0x3c, 0xc0, 0xc0, 0xb2, 0xbd,
  0xe8, 0x88, 0xc6, 0xbd, 0xfd, 0x07, 0xd3, 0xbd, 0xab, 0xfd, 0x78, 0xbe,
  0x90, 0x25, 0x52, 0x3e, 0xd5, 0x1c, 0xcd, 0x3b, 0x57, 0x5e, 0x01, 0xbe,
  0xc4, 0xb5, 0x7d, 0xbe, 0xe0, 0xfb, 0x8f, 0x3d, 0x1e, 0xca, 0x3e, 0xbe,
  0x04, 0x71, 0x4c, 0x3e, 0x91, 0x10, 0xfa, 0x3d, 0x6d, 0x75, 0xc5, 0x3d,
  0x2c, 0x9b, 0x05, 0xbe, 0x80, 0xb3, 0x3f, 0xbc, 0x30, 0xbf, 0x57, 0x3d,
  0xa4, 0x92, 0x39, 0x3e, 0x80, 0x28, 0xbf, 0x3c, 0x66, 0x91, 0x2f, 0xbd,
  0x30, 0x96, 0x1e, 0xbd, 0x9a, 0xd0, 0x31, 0x3e, 0x69, 0x56, 0x33, 0x3c,
  0x00, 0x10, 0x72, 0xba, 0x73, 0x43, 0xf7, 0xbd, 0x75, 0x2f, 0xc8, 0x3b,
  0x8a, 0x65, 0xfb, 0xbd, 0x10, 0x18, 0xa5, 0x3b, 0x11, 0xe8, 0x5b, 0x3e,
  0x3e, 0x77, 0x3c, 0xbe, 0xa0, 0x4b, 0x85, 0xbd, 0xba, 0xbf, 0x39, 0xbe,
  0xe8, 0xca, 0x87, 0x3c, 0x1b, 0x7d, 0x61, 0xbe, 0xc4, 0xfa, 0x65, 0x3d,
  0xa8, 0x7e, 0x24, 0xbd, 0xa4, 0x7a, 0xd7, 0xbd, 0x09, 0x23, 0x03, 0xbe,
  0xd8, 0xba, 0xfa, 0x3d, 0xd3, 0x2d, 0x18, 0x3e, 0x1c, 0xc9, 0x7a, 0x3e,
  0x9e, 0x06, 0x6a, 0xbd, 0x2d, 0xca, 0xe8, 0xbd, 0x10, 0x0a, 0x9c, 0x3d,
  0x70, 0x01, 0x04, 0x3e, 0x40, 0x0e, 0x62, 0xbd, 0xa4, 0xef, 0x33, 0x3e,
  0xf6, 0x15, 0x6a, 0x3e, 0x18, 0x5e, 0xde, 0x3d, 0xbe, 0x7b, 0xc3, 0x3d,
  0x38, 0x74, 0x6c, 0x3e, 0x16, 0x9e, 0x86, 0xbd, 0xfd, 0x4b, 0x4e, 0xbd,
  0x53, 0x98, 0x70, 0xbe, 0x91, 0x44, 0xeb, 0x3c, 0x60, 0x4b, 0x4a, 0x3e,
  0x9b, 0x6e, 0x5f, 0xbe, 0x28, 0xa0, 0x49, 0xbe, 0x34, 0x77, 0x40, 0xbe,
  0x64, 0x78, 0x58, 0x3e, 0xe0, 0x66, 0x98, 0xbd, 0xf0, 0xdd, 0xcc, 0x3d,
  0x58, 0x26, 0xf0, 0x3d, 0x54, 0x2a, 0x71, 0x3e, 0xbc, 0xd1, 0x41, 0xbe,
  0xe8, 0x52, 0xb7, 0x3d, 0x00, 0x0a, 0xee, 0x3a, 0x18, 0x19, 0x9b, 0xbd,
  0x84, 0xe8, 0x15, 0xbe, 0x40, 0xe9, 0x38, 0xbc, 0xa8, 0xb5, 0xea, 0xbd,
  0x20, 0x86, 0x70, 0x3d, 0x80, 0x5b, 0xde, 0x3c, 0x40, 0xa8, 0xb3, 0x3d,
  0x00, 0x1d, 0x37, 0x3b, 0x00, 0x47, 0x9b, 0x3c, 0xa8, 0xd8, 0x1e, 0xbe,
  0xe0, 0x4d, 0xd0, 0xbd, 0x38, 0x23, 0xb6, 0x3d, 0x58, 0x2f, 0x64, 0xbe,
  0x94, 0x7e, 0x30, 0xbe, 0x00, 0xc0, 0xb8, 0x3b, 0x70, 0xc6, 0xb0, 0x3d,
  0x70, 0x72, 0x7b, 0xbe, 0x40, 0x1b, 0xf9, 0xbd, 0x50, 0x59, 0xbd, 0x3d,
  0x10, 0xf2, 0xe4, 0xbd, 0xd8, 0xfc, 0x80, 0xbd, 0x70, 0x27, 0x5d, 0xbd,
  0xd0, 0x87, 0x31, 0x3d, 0xd4, 0x3d, 0x65, 0xbe, 0x50, 0xb2, 0x1c, 0xbd,
  0x70, 0x6e, 0xe3, 0xbd, 0xdc, 0x8e, 0x4e, 0x3e, 0x54, 0xca, 0x64, 0x3e,
  0x78, 0x36, 0x0d, 0xbe, 0xc0, 0xb6, 0x2c, 0x3e, 0x60, 0xb7, 0x13, 0x3e,
  0x28, 0xd0, 0xa0, 0x3d, 0xf8, 0xd3, 0xd0, 0xbd, 0x38, 0xcc, 0xaf, 0x3d,
  0xac, 0x44, 0x40, 0xbe, 0x00, 0xff, 0xac, 0x3d, 0xb0, 0x97, 0xb1, 0x3d,
  0x54, 0xa0, 0x76, 0xbe, 0x40, 0x76, 0x3c, 0xbe, 0xd0, 0x10, 0x15, 0xbe,
  0x00, 0x18, 0x97, 0xbd, 0x50, 0x82, 0x6c, 0x3d, 0x88, 0xfc, 0xd2, 0x3d,
  0x24, 0xe5, 0x72, 0xbe, 0x80, 0xf7, 0xe2, 0xbc, 0x30, 0x43, 0x44, 0x3d,
  0xf0, 0xad, 0x31, 0x3d, 0xcc, 0x5a, 0x4d, 0xbe, 0xe4, 0xd9, 0x69, 0xbe,
  0x38, 0x65, 0xad, 0xbd, 0x90, 0x50, 0x55, 0x3d, 0x00, 0x91, 0x0d, 0xbb,
  0x48, 0xfe, 0x62, 0x3e, 0x80, 0x5b, 0xab, 0xbd, 0x20, 0x9d, 0x8d, 0x3d,
  0x69, 0xcd, 0x25, 0xbe, 0xb8, 0xff, 0x5e, 0xbd, 0x2e, 0xc6, 0xf8, 0x3d,
  0xd8, 0x50, 0x1d, 0x3e, 0xb0, 0x24, 0x38, 0xbd, 0xf0, 0xf2, 0x81, 0xbd,
  0xf2, 0x8d, 0x96, 0xbe, 0x40, 0x24, 0x75, 0xbe, 0x00, 0xea, 0x15, 0x3c,
  0x0b, 0x47, 0xb8, 0x3d, 0x45, 0x10, 0x93, 0x3d, 0xdc, 0xf1, 0x3f, 0x3e,
  0x6c, 0x84, 0x40, 0x3d, 0x20, 0x02, 0x52, 0x3e, 0xd0, 0xbd, 0xd3, 0x3d,
  0x34, 0x28, 0x51, 0x3e, 0x97, 0x70, 0x8d, 0xbe, 0x80, 0x1b, 0x2d, 0x3d,
  0x7c, 0x6d, 0xaf, 0xbc, 0xd0, 0xca, 0x30, 0x3d, 0x64, 0xe1, 0x29, 0xbe,
  0x10, 0x9b, 0x8d, 0x3d, 0x60, 0x21, 0xe1, 0x3d, 0x40, 0xf3, 0x56, 0x3c,
  0xcc, 0xc1, 0x6b, 0x3e, 0xdf, 0xfc, 0xfc, 0xbd, 0x22, 0x54, 0xd9, 0xbd,
  0x21, 0x97, 0x0d, 0x3e, 0x8f, 0x44, 0x32, 0x3e, 0xe8, 0x7b, 0x97, 0x3d,
  0x06, 0x8c, 0xe3, 0x3b, 0xe0, 0xc7, 0x0b, 0xbc, 0x75, 0x89, 0x9f, 0x3d,
  0x3d, 0xe0, 0x4c, 0xbe, 0xe8, 0xc8, 0xa4, 0x3d, 0xb1, 0x98, 0xe9, 0xbd,
  0x30, 0x74, 0x4f, 0x3e, 0x40, 0xbd, 0x8c, 0x3d, 0x69, 0xc2, 0x47, 0x3e,
  0x21, 0x66, 0x93, 0x3d, 0x05, 0xd6, 0x01, 0xbe, 0xd4, 0x17, 0x1a, 0xbf,
  0xdf, 0x2b, 0xbf, 0x3c, 0xcb, 0x39, 0x0b, 0xbe, 0xc0, 0x8e, 0xf7, 0x3c,
  0x5a, 0x56, 0x9f, 0x3d, 0x00, 0xce, 0x82, 0xbc, 0x98, 0x49, 0x05, 0x3e,
  0x1d, 0x8b, 0x83, 0xbe, 0xb8, 0xc1, 0x1b, 0x3e, 0x80, 0x5d, 0x26, 0xbe,
  0xb8, 0xb9, 0x75, 0xbe, 0x77, 0xa7, 0x4c, 0xbe, 0x4c, 0x2f, 0x84, 0xbe,
  0x00, 0xe3, 0x42, 0xbb, 0x57, 0xfc, 0x6a, 0x3d, 0xfc, 0x6f, 0x60, 0x3e,
  0x59, 0x5b, 0x3f, 0xbe, 0xe9, 0x3d, 0x1d, 0x3e, 0xc6, 0xf6, 0x31, 0x3e,
  0x09, 0x0d, 0x8d, 0xbe, 0x97, 0x9c, 0x31, 0xbe, 0x10, 0x23, 0xa2, 0xbd,
  0xc0, 0xb0, 0x31, 0xbe, 0xc0, 0xb3, 0x92, 0x3e, 0x0c, 0x7f, 0xe3, 0x3d,
  0x57, 0x70, 0x06, 0x3e, 0xb0, 0xc7, 0x13, 0x3d, 0xa0, 0xf6, 0xc2, 0xbc,
  0xf8, 0x39, 0x11, 0xbe, 0x07, 0xcc, 0x15, 0xbd, 0x00, 0x51, 0xf5, 0x3b,
  0xb0, 0x54, 0x3e, 0x3e, 0x50, 0xc6, 0x89, 0xbf, 0x7a, 0xd6, 0x22, 0xbe,
  0x60, 0xa3, 0xe4, 0x3c, 0xab, 0xac, 0x86, 0xbf, 0xb0, 0xad, 0xe6, 0xbe,
  0x94, 0x35, 0x3d, 0xbe, 0x68, 0x78, 0xf6, 0x3d, 0x7f, 0xfd, 0x39, 0x3e,
  0xc8, 0x46, 0xdd, 0x3d, 0x1c, 0x31, 0x05, 0xbe, 0x13, 0x01, 0xd3, 0x3d,
  0xdc, 0xd1, 0x0e, 0x3e, 0x50, 0xe2, 0x3a, 0xbd, 0x80, 0x7b, 0x14, 0xbc,
  0x98, 0x1f, 0x55, 0x3e, 0x6c, 0xd8, 0x3e, 0x3e, 0x7f, 0xd8, 0xa8, 0xbd,
  0x68, 0x8f, 0x6f, 0x3e, 0x13, 0xcf, 0xcf, 0xbd, 0x2d, 0x03, 0x9e, 0xbe,
  0x68, 0x43, 0x80, 0xbd, 0x91, 0x44, 0x36, 0x3e, 0x89, 0x28, 0x79, 0xbf,
  0xab, 0xf1, 0xb5, 0x3e, 0xea, 0xc2, 0xfc, 0x3c, 0x24, 0x7d, 0xf5, 0xbc,
  0xb5, 0xd2, 0xa6, 0xbe, 0x80, 0x18, 0xa7, 0xbb, 0xe6, 0x9c, 0x90, 0xbe,
  0x03, 0x37, 0x61, 0xbd, 0x7d, 0x8e, 0x1a, 0xbc, 0x04, 0xd8, 0xe2, 0xbd,
  0xba, 0xf1, 0x5f, 0x3e, 0x6c, 0xe3, 0x47, 0xbd, 0x68, 0x40, 0x34, 0xbe,
  0x90, 0x59, 0xaa, 0xbd, 0xab, 0xcd, 0x00, 0xbd, 0xc4, 0x45, 0x2a, 0x3e,
  0x97, 0xfd, 0x73, 0xbd, 0xa3, 0x9c, 0x16, 0xbf, 0xf8, 0x63, 0xbf, 0x3d,
  0x14, 0x3c, 0x75, 0x3e, 0x98, 0x4f, 0x46, 0xbe, 0x1a, 0xf2, 0x35, 0x3d,
  0x40, 0x47, 0x58, 0xbc, 0x80, 0xbe, 0x5f, 0xbc, 0x6c, 0xf3, 0xa2, 0xbd,
  0x60, 0x8e, 0x65, 0x3e, 0xe0, 0x56, 0x59, 0xbf, 0xa7, 0x78, 0x09, 0xbe,
  0xa5, 0x78, 0x1b, 0x3e, 0x63, 0x82, 0x60, 0x3e, 0xf0, 0x54, 0x68, 0xbd,
  0xd0, 0x7f, 0x40, 0x3f, 0x4c, 0x7a, 0x39, 0xbe, 0xc6, 0x42, 0x3c, 0xbe,
  0x9c, 0xa9, 0xc0, 0x3d, 0xa1, 0x94, 0x8c, 0xbe, 0x38, 0x97, 0xea, 0xbd,
  0x68, 0x8f, 0x25, 0x3e, 0x70, 0x56, 0xd5, 0xbd, 0x13, 0x61, 0xf3, 0xbe,
  0x80, 0x09, 0x3c, 0x3e, 0xc0, 0xca, 0xac, 0xbd, 0x50, 0x89, 0xa0, 0x3d,
  0x3a, 0x59, 0xa8, 0x3e, 0x00, 0x83, 0x6d, 0x3d, 0x44, 0xe2, 0x53, 0xbe,
  0xfc, 0x1f, 0x86, 0x3d, 0x40, 0xf8, 0x1f, 0xbc, 0xe0, 0xeb, 0x59, 0xbe,
  0x7b, 0x92, 0x02, 0xbe, 0xd4, 0x53, 0x0b, 0x3e, 0x53, 0x53, 0x06, 0xbe,
  0xdd, 0xff, 0x19, 0x3e, 0x40, 0xf7, 0x1a, 0x3e, 0x80, 0xb3, 0x81, 0x3b,
  0x50, 0x18, 0x4f, 0x3e, 0xa0, 0x65, 0x06, 0x3d, 0x88, 0x3b, 0xcf, 0xbd,
  0xb8, 0xb2, 0x07, 0x3c, 0x08, 0x56, 0x86, 0xbe, 0x2d, 0x3b, 0x10, 0x3c,
  0xac, 0x47, 0xb3, 0x3b, 0x60, 0xfd, 0x7b, 0x3e, 0x6b, 0xdb, 0xdb, 0xbd,
  0x26, 0xf8, 0xe7, 0xbd, 0xac, 0xbe, 0x5e, 0xbe, 0xb5, 0x63, 0x0b, 0x3e,
  0xe1, 0x6f, 0x7f, 0xbd, 0x89, 0xc0, 0xe3, 0x3d, 0xd8, 0x22, 0x2b, 0x3e,
  0x66, 0xe4, 0x88, 0xbe, 0x6e, 0xd4, 0x33, 0x3e, 0xb5, 0x78, 0x36, 0x3e,
  0xc0, 0xf7, 0x6a, 0x3e, 0x08, 0xb2, 0x31, 0xbe, 0x8f, 0xc1, 0xbd, 0xbd,
  0x60, 0xcf, 0xd7, 0xbd, 0x48, 0x7a, 0x0a, 0x3e, 0xce, 0x12, 0x40, 0x3e,
  0x6c, 0xf5, 0x43, 0x3e, 0x72, 0x78, 0xc4, 0x3d, 0x41, 0x84, 0x31, 0x3e,
  0xe4, 0xff, 0x59, 0xbe, 0x78, 0x79, 0x61, 0xbe, 0xac, 0x0a, 0x44, 0x3e,
  0xd1, 0xca, 0x0a, 0x3e, 0x33, 0x9a, 0x0c, 0x3d, 0x80, 0xe2, 0xd9, 0xbc,
  0x7f, 0xe6, 0x01, 0xbd, 0x20, 0xa3, 0x30, 0x3d, 0x37, 0xf2, 0x2e, 0x3e,
  0x76, 0xdd, 0x83, 0x3c, 0xcf, 0x19, 0x25, 0x3e, 0x6c, 0xad, 0x52, 0x3e,
  0xba, 0xe9, 0x2b, 0x3d, 0x8a, 0x5b, 0x98, 0xbe, 0xf8, 0x5e, 0x5a, 0x3e,
  0x00, 0x00, 0x06, 0x00, 0x08, 0x00, 0x04, 0x00, 0x06, 0x00, 0x00, 0x00,
  0x04, 0x00, 0x00, 0x00, 0x80, 0x00, 0x00, 0x00, 0x8c, 0x5b, 0x8d, 0x3f,
  0x98, 0xa4, 0x9c, 0xbe, 0xe2, 0xdf, 0xa5, 0xbe, 0xa8, 0xc6, 0xe9, 0x3e,
  0xfc, 0x1d, 0x54, 0xbe, 0x04, 0x8e, 0x95, 0x3e, 0xbe, 0x70, 0x1b, 0x3f,
  0x16, 0x7c, 0xeb, 0x3d, 0x78, 0x38, 0xac, 0xbe, 0x1b, 0xa7, 0x49, 0x40,
  0x8f, 0x07, 0xbb, 0x3e, 0xf8, 0xf4, 0x4f, 0xbd, 0x8e, 0xd8, 0x80, 0x3b,
  0x6b, 0x1f, 0xfa, 0x3e, 0xc0, 0x9e, 0x0d, 0xbd, 0xac, 0xe3, 0x60, 0x3e,
  0xb9, 0xa1, 0xa0, 0xbe, 0xfe, 0xe1, 0x4c, 0xbf, 0xde, 0xd4, 0x46, 0xbe,
  0x52, 0xa0, 0x19, 0x3e, 0x6c, 0xe2, 0x48, 0x3e, 0xc8, 0x10, 0xd6, 0xbe,
  0x64, 0x9e, 0xff, 0xbc, 0xfb, 0xa5, 0x49, 0xbf, 0x2a, 0x9b, 0x80, 0xbc,
  0xac, 0x3a, 0xcc, 0xbe, 0x33, 0x9a, 0x4d, 0x3e, 0x3f, 0x63, 0x90, 0x3e,
  0xf2, 0xf7, 0xd5, 0x3e, 0x68, 0xf9, 0x3d, 0x3d, 0x47, 0x34, 0xcb, 0x3f,
  0x15, 0x19, 0x2f, 0x3d, 0x94, 0xfa, 0xff, 0xff, 0x98, 0xfa, 0xff, 0xff,
  0x0f, 0x00, 0x00, 0x00, 0x4d, 0x4c, 0x49, 0x52, 0x20, 0x43, 0x6f, 0x6e,
  0x76, 0x65, 0x72, 0x74, 0x65, 0x64, 0x2e, 0x00, 0x01, 0x00, 0x00, 0x00,
  0x14, 0x00, 0x00, 0x00, 0x00, 0x00, 0x0e, 0x00, 0x18, 0x00, 0x14, 0x00,
  0x10, 0x00, 0x0c, 0x00, 0x08, 0x00, 0x04, 0x00, 0x0e, 0x00, 0x00, 0x00,
  0x14, 0x00, 0x00, 0x00, 0x1c, 0x00, 0x00, 0x00, 0x08, 0x01, 0x00, 0x00,
  0x0c, 0x01, 0x00, 0x00, 0x10, 0x01, 0x00, 0x00, 0x04, 0x00, 0x00, 0x00,
  0x6d, 0x61, 0x69, 0x6e, 0x00, 0x00, 0x00, 0x00, 0x04, 0x00, 0x00, 0x00,
  0xb0, 0x00, 0x00, 0x00, 0x68, 0x00, 0x00, 0x00, 0x34, 0x00, 0x00, 0x00,
  0x10, 0x00, 0x00, 0x00, 0x00, 0x00, 0x0a, 0x00, 0x10, 0x00, 0x0c, 0x00,
  0x08, 0x00, 0x04, 0x00, 0x0a, 0x00, 0x00, 0x00, 0x0c, 0x00, 0x00, 0x00,
  0x10, 0x00, 0x00, 0x00, 0x01, 0x00, 0x00, 0x00, 0x01, 0x00, 0x00, 0x00,
  0x0a, 0x00, 0x00, 0x00, 0x01, 0x00, 0x00, 0x00, 0x09, 0x00, 0x00, 0x00,
  0x9a, 0xff, 0xff, 0xff, 0x10, 0x00, 0x00, 0x00, 0x00, 0x00, 0x00, 0x08,
  0x0c, 0x00, 0x00, 0x00, 0x10, 0x00, 0x00, 0x00, 0x40, 0xfb, 0xff, 0xff,
  0x01, 0x00, 0x00, 0x00, 0x09, 0x00, 0x00, 0x00, 0x03, 0x00, 0x00, 0x00,
  0x08, 0x00, 0x00, 0x00, 0x01, 0x00, 0x00, 0x00, 0x03, 0x00, 0x00, 0x00,
  0xca, 0xff, 0xff, 0xff, 0x10, 0x00, 0x00, 0x00, 0x00, 0x00, 0x00, 0x08,
  0x10, 0x00, 0x00, 0x00, 0x14, 0x00, 0x00, 0x00, 0xba, 0xff, 0xff, 0xff,
  0x00, 0x00, 0x00, 0x01, 0x01, 0x00, 0x00, 0x00, 0x08, 0x00, 0x00, 0x00,
  0x03, 0x00, 0x00, 0x00, 0x07, 0x00, 0x00, 0x00, 0x02, 0x00, 0x00, 0x00,
  0x04, 0x00, 0x00, 0x00, 0x00, 0x00, 0x0e, 0x00, 0x16, 0x00, 0x00, 0x00,
  0x10, 0x00, 0x0c, 0x00, 0x0b, 0x00, 0x04, 0x00, 0x0e, 0x00, 0x00, 0x00,
  0x18, 0x00, 0x00, 0x00, 0x00, 0x00, 0x00, 0x08, 0x18, 0x00, 0x00, 0x00,
  0x1c, 0x00, 0x00, 0x00, 0x00, 0x00, 0x06, 0x00, 0x08, 0x00, 0x07, 0x00,
  0x06, 0x00, 0x00, 0x00, 0x00, 0x00, 0x00, 0x01, 0x01, 0x00, 0x00, 0x00,
  0x07, 0x00, 0x00, 0x00, 0x03, 0x00, 0x00, 0x00, 0x00, 0x00, 0x00, 0x00,
  0x06, 0x00, 0x00, 0x00, 0x05, 0x00, 0x00, 0x00, 0x01, 0x00, 0x00, 0x00,
  0x0a, 0x00, 0x00, 0x00, 0x01, 0x00, 0x00, 0x00, 0x00, 0x00, 0x00, 0x00,
  0x0b, 0x00, 0x00, 0x00, 0xe8, 0x03, 0x00, 0x00, 0x90, 0x03, 0x00, 0x00,
  0x38, 0x03, 0x00, 0x00, 0xfc, 0x02, 0x00, 0x00, 0xc0, 0x02, 0x00, 0x00,
  0x68, 0x02, 0x00, 0x00, 0x18, 0x02, 0x00, 0x00, 0x7c, 0x01, 0x00, 0x00,
  0xe0, 0x00, 0x00, 0x00, 0x60, 0x00, 0x00, 0x00, 0x04, 0x00, 0x00, 0x00,
  0x5a, 0xfc, 0xff, 0xff, 0x00, 0x00, 0x00, 0x01, 0x14, 0x00, 0x00, 0x00,
  0x1c, 0x00, 0x00, 0x00, 0x1c, 0x00, 0x00, 0x00, 0x0b, 0x00, 0x00, 0x00,
  0x34, 0x00, 0x00, 0x00, 0x02, 0x00, 0x00, 0x00, 0xff, 0xff, 0xff, 0xff,
  0x01, 0x00, 0x00, 0x00, 0x44, 0xfc, 0xff, 0xff, 0x1b, 0x00, 0x00, 0x00,
  0x53, 0x74, 0x61, 0x74, 0x65, 0x66, 0x75, 0x6c, 0x50, 0x61, 0x72, 0x74,
  0x69, 0x74, 0x69, 0x6f, 0x6e, 0x65, 0x64, 0x43, 0x61, 0x6c, 0x6c, 0x5f,
  0x31, 0x3a, 0x30, 0x00, 0x02, 0x00, 0x00, 0x00, 0x01, 0x00, 0x00, 0x00,
  0x01, 0x00, 0x00, 0x00, 0xb2, 0xfc, 0xff, 0xff, 0x00, 0x00, 0x00, 0x01,
  0x14, 0x00, 0x00, 0x00, 0x1c, 0x00, 0x00, 0x00, 0x1c, 0x00, 0x00, 0x00,
  0x0a, 0x00, 0x00, 0x00, 0x58, 0x00, 0x00, 0x00, 0x02, 0x00, 0x00, 0x00,
  0xff, 0xff, 0xff, 0xff, 0x01, 0x00, 0x00, 0x00, 0x9c, 0xfc, 0xff, 0xff,
  0x3c, 0x00, 0x00, 0x00, 0x73, 0x65, 0x71, 0x75, 0x65, 0x6e, 0x74, 0x69,
  0x61, 0x6c, 0x5f, 0x31, 0x5f, 0x31, 0x2f, 0x64, 0x65, 0x6e, 0x73, 0x65,
  0x5f, 0x35, 0x5f, 0x31, 0x2f, 0x4d, 0x61, 0x74, 0x4d, 0x75, 0x6c, 0x3b,
  0x73, 0x65, 0x71, 0x75, 0x65, 0x6e, 0x74, 0x69, 0x61, 0x6c, 0x5f, 0x31,
  0x5f, 0x31, 0x2f, 0x64, 0x65, 0x6e, 0x73, 0x65, 0x5f, 0x35, 0x5f, 0x31,
  0x2f, 0x41, 0x64, 0x64, 0x00, 0x00, 0x00, 0x00, 0x02, 0x00, 0x00, 0x00,
  0x01, 0x00, 0x00, 0x00, 0x01, 0x00, 0x00, 0x00, 0x2e, 0xfd, 0xff, 0xff,
  0x00, 0x00, 0x00, 0x01, 0x14, 0x00, 0x00, 0x00, 0x1c, 0x00, 0x00, 0x00,
  0x1c, 0x00, 0x00, 0x00, 0x09, 0x00, 0x00, 0x00, 0x74, 0x00, 0x00, 0x00,
  0x02, 0x00, 0x00, 0x00, 0xff, 0xff, 0xff, 0xff, 0x20, 0x00, 0x00, 0x00,
  0x18, 0xfd, 0xff, 0xff, 0x5a, 0x00, 0x00, 0x00, 0x73, 0x65, 0x71, 0x75,
  0x65, 0x6e, 0x74, 0x69, 0x61, 0x6c, 0x5f, 0x31, 0x5f, 0x31, 0x2f, 0x64,
  0x65, 0x6e, 0x73, 0x65, 0x5f, 0x34, 0x5f, 0x31, 0x2f, 0x4d, 0x61, 0x74,
  0x4d, 0x75, 0x6c, 0x3b, 0x73, 0x65, 0x71, 0x75, 0x65, 0x6e, 0x74, 0x69,
  0x61, 0x6c, 0x5f, 0x31, 0x5f, 0x31, 0x2f, 0x64, 0x65, 0x6e, 0x73, 0x65,
  0x5f, 0x34, 0x5f, 0x31, 0x2f, 0x52, 0x65, 0x6c, 0x75, 0x3b, 0x73, 0x65,
  0x71, 0x75, 0x65, 0x6e, 0x74, 0x69, 0x61, 0x6c, 0x5f, 0x31, 0x5f, 0x31,
  0x2f, 0x64, 0x65, 0x6e, 0x73, 0x65, 0x5f, 0x34, 0x5f, 0x31, 0x2f, 0x41,
  0x64, 0x64, 0x00, 0x00, 0x02, 0x00, 0x00, 0x00, 0x01, 0x00, 0x00, 0x00,
  0x20, 0x00, 0x00, 0x00, 0xc6, 0xfd, 0xff, 0xff, 0x00, 0x00, 0x00, 0x01,
  0x14, 0x00, 0x00, 0x00, 0x1c, 0x00, 0x00, 0x00, 0x1c, 0x00, 0x00, 0x00,
  0x08, 0x00, 0x00, 0x00, 0x74, 0x00, 0x00, 0x00, 0x02, 0x00, 0x00, 0x00,
  0xff, 0xff, 0xff, 0xff, 0x40, 0x00, 0x00, 0x00, 0xb0, 0xfd, 0xff, 0xff,
  0x5a, 0x00, 0x00, 0x00, 0x73, 0x65, 0x71, 0x75, 0x65, 0x6e, 0x74, 0x69,
  0x61, 0x6c, 0x5f, 0x31, 0x5f, 0x31, 0x2f, 0x64, 0x65, 0x6e, 0x73, 0x65,
  0x5f, 0x33, 0x5f, 0x31, 0x2f, 0x4d, 0x61, 0x74, 0x4d, 0x75, 0x6c, 0x3b,
  0x73, 0x65, 0x71, 0x75, 0x65, 0x6e, 0x74, 0x69, 0x61, 0x6c, 0x5f, 0x31,
  0x5f, 0x31, 0x2f, 0x64, 0x65, 0x6e, 0x73, 0x65, 0x5f, 0x33, 0x5f, 0x31,
  0x2f, 0x52, 0x65, 0x6c, 0x75, 0x3b, 0x73, 0x65, 0x71, 0x75, 0x65, 0x6e,
  0x74, 0x69, 0x61, 0x6c, 0x5f, 0x31, 0x5f, 0x31, 0x2f, 0x64, 0x65, 0x6e,
  0x73, 0x65, 0x5f, 0x33, 0x5f, 0x31, 0x2f, 0x41, 0x64, 0x64, 0x00, 0x00,
  0x02, 0x00, 0x00, 0x00, 0x01, 0x00, 0x00, 0x00, 0x40, 0x00, 0x00, 0x00,
  0xb2, 0xfe, 0xff, 0xff, 0x00, 0x00, 0x00, 0x01, 0x10, 0x00, 0x00, 0x00,
  0x10, 0x00, 0x00, 0x00, 0x07, 0x00, 0x00, 0x00, 0x2c, 0x00, 0x00, 0x00,
  0x38, 0xfe, 0xff, 0xff, 0x1f, 0x00, 0x00, 0x00, 0x73, 0x65, 0x71, 0x75,
  0x65, 0x6e, 0x74, 0x69, 0x61, 0x6c, 0x5f, 0x31, 0x5f, 0x31, 0x2f, 0x64,
  0x65, 0x6e, 0x73, 0x65, 0x5f, 0x33, 0x5f, 0x31, 0x2f, 0x4d, 0x61, 0x74,
  0x4d, 0x75, 0x6c, 0x00, 0x02, 0x00, 0x00, 0x00, 0x40, 0x00, 0x00, 0x00,
  0x03, 0x00, 0x00, 0x00, 0xfe, 0xfe, 0xff, 0xff, 0x00, 0x00, 0x00, 0x01,
  0x10, 0x00, 0x00, 0x00, 0x10, 0x00, 0x00, 0x00, 0x06, 0x00, 0x00, 0x00,
  0x38, 0x00, 0x00, 0x00, 0x84, 0xfe, 0xff, 0xff, 0x2b, 0x00, 0x00, 0x00,
  0x73, 0x65, 0x71, 0x75, 0x65, 0x6e, 0x74, 0x69, 0x61, 0x6c, 0x5f, 0x31,
  0x5f, 0x31, 0x2f, 0x64, 0x65, 0x6e, 0x73, 0x65, 0x5f, 0x33, 0x5f, 0x31,
  0x2f, 0x41, 0x64, 0x64, 0x2f, 0x52, 0x65, 0x61, 0x64, 0x56, 0x61, 0x72,
  0x69, 0x61, 0x62, 0x6c, 0x65, 0x4f, 0x70, 0x00, 0x01, 0x00, 0x00, 0x00,
  0x40, 0x00, 0x00, 0x00, 0x52, 0xff, 0xff, 0xff, 0x00, 0x00, 0x00, 0x01,
  0x10, 0x00, 0x00, 0x00, 0x10, 0x00, 0x00, 0x00, 0x05, 0x00, 0x00, 0x00,
  0x1c, 0x00, 0x00, 0x00, 0xd8, 0xfe, 0xff, 0xff, 0x0f, 0x00, 0x00, 0x00,
  0x61, 0x72, 0x69, 0x74, 0x68, 0x2e, 0x63, 0x6f, 0x6e, 0x73, 0x74, 0x61,
  0x6e, 0x74, 0x33, 0x00, 0x01, 0x00, 0x00, 0x00, 0x20, 0x00, 0x00, 0x00,
  0x8a, 0xff, 0xff, 0xff, 0x00, 0x00, 0x00, 0x01, 0x10, 0x00, 0x00, 0x00,
  0x10, 0x00, 0x00, 0x00, 0x04, 0x00, 0x00, 0x00, 0x1c, 0x00, 0x00, 0x00,
  0x10, 0xff, 0xff, 0xff, 0x0f, 0x00, 0x00, 0x00, 0x61, 0x72, 0x69, 0x74,
  0x68, 0x2e, 0x63, 0x6f, 0x6e, 0x73, 0x74, 0x61, 0x6e, 0x74, 0x32, 0x00,
  0x01, 0x00, 0x00, 0x00, 0x01, 0x00, 0x00, 0x00, 0xc2, 0xff, 0xff, 0xff,
  0x00, 0x00, 0x00, 0x01, 0x10, 0x00, 0x00, 0x00, 0x10, 0x00, 0x00, 0x00,
  0x03, 0x00, 0x00, 0x00, 0x1c, 0x00, 0x00, 0x00, 0x48, 0xff, 0xff, 0xff,
  0x0f, 0x00, 0x00, 0x00, 0x61, 0x72, 0x69, 0x74, 0x68, 0x2e, 0x63, 0x6f,
  0x6e, 0x73, 0x74, 0x61, 0x6e, 0x74, 0x31, 0x00, 0x02, 0x00, 0x00, 0x00,
  0x20, 0x00, 0x00, 0x00, 0x40, 0x00, 0x00, 0x00, 0x00, 0x00, 0x16, 0x00,
  0x18, 0x00, 0x14, 0x00, 0x00, 0x00, 0x10, 0x00, 0x0c, 0x00, 0x08, 0x00,
  0x00, 0x00, 0x00, 0x00, 0x00, 0x00, 0x07, 0x00, 0x16, 0x00, 0x00, 0x00,
  0x00, 0x00, 0x00, 0x01, 0x10, 0x00, 0x00, 0x00, 0x10, 0x00, 0x00, 0x00,
  0x02, 0x00, 0x00, 0x00, 0x1c, 0x00, 0x00, 0x00, 0x9c, 0xff, 0xff, 0xff,
  0x0e, 0x00, 0x00, 0x00, 0x61, 0x72, 0x69, 0x74, 0x68, 0x2e, 0x63, 0x6f,
  0x6e, 0x73, 0x74, 0x61, 0x6e, 0x74, 0x00, 0x00, 0x02, 0x00, 0x00, 0x00,
  0x01, 0x00, 0x00, 0x00, 0x20, 0x00, 0x00, 0x00, 0x00, 0x00, 0x16, 0x00,
  0x1c, 0x00, 0x18, 0x00, 0x00, 0x00, 0x14, 0x00, 0x10, 0x00, 0x0c, 0x00,
  0x00, 0x00, 0x00, 0x00, 0x08, 0x00, 0x07, 0x00, 0x16, 0x00, 0x00, 0x00,
  0x00, 0x00, 0x00, 0x01, 0x14, 0x00, 0x00, 0x00, 0x20, 0x00, 0x00, 0x00,
  0x20, 0x00, 0x00, 0x00, 0x01, 0x00, 0x00, 0x00, 0x40, 0x00, 0x00, 0x00,
  0x02, 0x00, 0x00, 0x00, 0xff, 0xff, 0xff, 0xff, 0x03, 0x00, 0x00, 0x00,
  0x04, 0x00, 0x04, 0x00, 0x04, 0x00, 0x00, 0x00, 0x20, 0x00, 0x00, 0x00,
  0x73, 0x65, 0x72, 0x76, 0x69, 0x6e, 0x67, 0x5f, 0x64, 0x65, 0x66, 0x61,
  0x75, 0x6c, 0x74, 0x5f, 0x6b, 0x65, 0x72, 0x61, 0x73, 0x5f, 0x74, 0x65,
  0x6e, 0x73, 0x6f, 0x72, 0x5f, 0x34, 0x3a, 0x30, 0x00, 0x00, 0x00, 0x00,
  0x02, 0x00, 0x00, 0x00, 0x01, 0x00, 0x00, 0x00, 0x03, 0x00, 0x00, 0x00,
  0x02, 0x00, 0x00, 0x00, 0x20, 0x00, 0x00, 0x00, 0x04, 0x00, 0x00, 0x00,
  0xf4, 0xff, 0xff, 0xff, 0x0e, 0x00, 0x00, 0x00, 0x00, 0x00, 0x00, 0x0e,
  0x0c, 0x00, 0x0c, 0x00, 0x0b, 0x00, 0x00, 0x00, 0x00, 0x00, 0x04, 0x00,
  0x0c, 0x00, 0x00, 0x00, 0x09, 0x00, 0x00, 0x00, 0x00, 0x00, 0x00, 0x09
};
unsigned int anomaly_detection_model_tflite_len = 11532;
